{
  "version": "1.0",
  "truncation": null,
  "padding": null,
  "added_tokens": [
    {
      "id": 0,
      "special": true,
      "content": "<s>",
      "single_word": false,
      "lstrip": false,
      "rstrip": false,
      "normalized": false
    },
    {
      "id": 1,
      "special": true,
      "content": "<pad>",
      "single_word": false,
      "lstrip": false,
      "rstrip": false,
      "normalized": false
    },
    {
      "id": 2,
      "special": true,
      "content": "</s>",
      "single_word": false,
      "lstrip": false,
      "rstrip": false,
      "normalized": false
    },
    {
      "id": 3,
      "special": true,
      "content": "<unk>",
      "single_word": false,
      "lstrip": false,
      "rstrip": false,
      "normalized": false
    },
    {
      "id": 4,
      "special": true,
      "content": "<mask>",
      "single_word": false,
      "lstrip": false,
      "rstrip": false,
      "normalized": false
    }
  ],
  "normalizer": {
    "type": "BertNormalizer",
    "clean_text": true,
    "handle_chinese_chars": true,
    "strip_accents": false,
    "lowercase": false
  },
  "pre_tokenizer": {
    "type": "BertPreTokenizer"
  },
  "post_processor": null,
  "decoder": {
    "type": "WordPiece",
    "prefix": "##",
    "cleanup": true
  },
  "model": {
    "type": "WordPiece",
    "unk_token": "[UNK]",
    "continuing_subword_prefix": "##",
    "max_input_chars_per_word": 100,
    "vocab": {
      "<s>": 0,
      "<pad>": 1,
      "</s>": 2,
      "<unk>": 3,
      "<mask>": 4,
      "!": 5,
      "\"": 6,
      "#": 7,
      "%": 8,
      "&": 9,
      "'": 10,
      "(": 11,
      ")": 12,
      "*": 13,
      "+": 14,
      ",": 15,
      "-": 16,
      ".": 17,
      "/": 18,
      "0": 19,
      "1": 20,
      "2": 21,
      "3": 22,
      "4": 23,
      "5": 24,
      "6": 25,
      "7": 26,
      "8": 27,
      "9": 28,
      ";": 29,
      "<": 30,
      "=": 31,
      ">": 32,
      "?": 33,
      "@": 34,
      "A": 35,
      "B": 36,
      "C": 37,
      "D": 38,
      "E": 39,
      "F": 40,
      "G": 41,
      "H": 42,
      "I": 43,
      "J": 44,
      "K": 45,
      "L": 46,
      "M": 47,
      "N": 48,
      "O": 49,
      "P": 50,
      "Q": 51,
      "R": 52,
      "S": 53,
      "T": 54,
      "U": 55,
      "V": 56,
      "W": 57,
      "X": 58,
      "Y": 59,
      "Z": 60,
      "[": 61,
      "\\": 62,
      "]": 63,
      "^": 64,
      "_": 65,
      "`": 66,
      "a": 67,
      "b": 68,
      "c": 69,
      "d": 70,
      "e": 71,
      "f": 72,
      "g": 73,
      "h": 74,
      "i": 75,
      "j": 76,
      "k": 77,
      "l": 78,
      "m": 79,
      "n": 80,
      "o": 81,
      "p": 82,
      "q": 83,
      "r": 84,
      "s": 85,
      "t": 86,
      "u": 87,
      "v": 88,
      "w": 89,
      "x": 90,
      "y": 91,
      "z": 92,
      "{": 93,
      "|": 94,
      "}": 95,
      "~": 96,
      "²": 97,
      "·": 98,
      "×": 99,
      "à": 100,
      "÷": 101,
      "˙": 102,
      "҉": 103,
      "ቼ": 104,
      "ኈ": 105,
      "ዽ": 106,
      "ጿ": 107,
      "ᗜ": 108,
      "ᵔ": 109,
      "—": 110,
      "‘": 111,
      "’": 112,
      "“": 113,
      "”": 114,
      "•": 115,
      "…": 116,
      "‧": 117,
      "※": 118,
      "‼": 119,
      "⃝": 120,
      "℃": 121,
      "→": 122,
      "↘": 123,
      "∇": 124,
      "⊂": 125,
      "⌒": 126,
      "⍤": 127,
      "⏱": 128,
      "①": 129,
      "②": 130,
      "③": 131,
      "④": 132,
      "⑤": 133,
      "┳": 134,
      "┻": 135,
      "▒": 136,
      "▶": 137,
      "▽": 138,
      "◀": 139,
      "○": 140,
      "●": 141,
      "☀": 142,
      "★": 143,
      "☆": 144,
      "☝": 145,
      "☹": 146,
      "☺": 147,
      "♀": 148,
      "♂": 149,
      "♡": 150,
      "♥": 151,
      "♧": 152,
      "⚓": 153,
      "⚠": 154,
      "⛴": 155,
      "✍": 156,
      "✔": 157,
      "❄": 158,
      "❌": 159,
      "❓": 160,
      "❣": 161,
      "❤": 162,
      "⠀": 163,
      "づ": 164,
      "ㄱ": 165,
      "ㄲ": 166,
      "ㄳ": 167,
      "ㄴ": 168,
      "ㄵ": 169,
      "ㄶ": 170,
      "ㄷ": 171,
      "ㄸ": 172,
      "ㄹ": 173,
      "ㄺ": 174,
      "ㄻ": 175,
      "ㄽ": 176,
      "ㅁ": 177,
      "ㅂ": 178,
      "ㅃ": 179,
      "ㅄ": 180,
      "ㅅ": 181,
      "ㅆ": 182,
      "ㅇ": 183,
      "ㅈ": 184,
      "ㅉ": 185,
      "ㅊ": 186,
      "ㅋ": 187,
      "ㅌ": 188,
      "ㅍ": 189,
      "ㅎ": 190,
      "ㅏ": 191,
      "ㅐ": 192,
      "ㅑ": 193,
      "ㅒ": 194,
      "ㅓ": 195,
      "ㅔ": 196,
      "ㅕ": 197,
      "ㅖ": 198,
      "ㅗ": 199,
      "ㅘ": 200,
      "ㅙ": 201,
      "ㅚ": 202,
      "ㅛ": 203,
      "ㅜ": 204,
      "ㅝ": 205,
      "ㅞ": 206,
      "ㅟ": 207,
      "ㅠ": 208,
      "ㅡ": 209,
      "ㅢ": 210,
      "ㅣ": 211,
      "ㆍ": 212,
      "㈜": 213,
      "㎞": 214,
      "㎡": 215,
      "下": 216,
      "件": 217,
      "句": 218,
      "對": 219,
      "法": 220,
      "與": 221,
      "限": 222,
      "靑": 223,
      "非": 224,
      "ꉂ": 225,
      "가": 226,
      "각": 227,
      "갂": 228,
      "간": 229,
      "갇": 230,
      "갈": 231,
      "갉": 232,
      "감": 233,
      "갑": 234,
      "값": 235,
      "갓": 236,
      "갔": 237,
      "강": 238,
      "갖": 239,
      "갗": 240,
      "갘": 241,
      "같": 242,
      "갚": 243,
      "갛": 244,
      "개": 245,
      "객": 246,
      "갠": 247,
      "갤": 248,
      "갬": 249,
      "갭": 250,
      "갯": 251,
      "갰": 252,
      "갱": 253,
      "갲": 254,
      "갴": 255,
      "갷": 256,
      "갸": 257,
      "갹": 258,
      "갼": 259,
      "걀": 260,
      "걉": 261,
      "걋": 262,
      "걌": 263,
      "걍": 264,
      "걐": 265,
      "걑": 266,
      "걔": 267,
      "걘": 268,
      "거": 269,
      "걱": 270,
      "건": 271,
      "걷": 272,
      "걸": 273,
      "검": 274,
      "겁": 275,
      "것": 276,
      "겄": 277,
      "겅": 278,
      "겆": 279,
      "겇": 280,
      "겈": 281,
      "겉": 282,
      "겋": 283,
      "게": 284,
      "겍": 285,
      "겎": 286,
      "겐": 287,
      "겓": 288,
      "겔": 289,
      "겜": 290,
      "겟": 291,
      "겠": 292,
      "겡": 293,
      "겤": 294,
      "겥": 295,
      "겧": 296,
      "겨": 297,
      "격": 298,
      "겪": 299,
      "견": 300,
      "겯": 301,
      "결": 302,
      "겸": 303,
      "겹": 304,
      "겻": 305,
      "겼": 306,
      "경": 307,
      "곀": 308,
      "곁": 309,
      "계": 310,
      "곈": 311,
      "곗": 312,
      "고": 313,
      "곡": 314,
      "곤": 315,
      "곧": 316,
      "골": 317,
      "곪": 318,
      "곬": 319,
      "곰": 320,
      "곱": 321,
      "곳": 322,
      "공": 323,
      "곶": 324,
      "곸": 325,
      "곹": 326,
      "곻": 327,
      "과": 328,
      "곽": 329,
      "관": 330,
      "괄": 331,
      "괏": 332,
      "광": 333,
      "괔": 334,
      "괘": 335,
      "괜": 336,
      "괨": 337,
      "괭": 338,
      "괴": 339,
      "굇": 340,
      "굉": 341,
      "교": 342,
      "굑": 343,
      "굔": 344,
      "굣": 345,
      "굥": 346,
      "굨": 347,
      "굩": 348,
      "구": 349,
      "국": 350,
      "군": 351,
      "굳": 352,
      "굴": 353,
      "굵": 354,
      "굶": 355,
      "굼": 356,
      "굽": 357,
      "굿": 358,
      "궁": 359,
      "궄": 360,
      "궆": 361,
      "궈": 362,
      "궉": 363,
      "권": 364,
      "궐": 365,
      "궜": 366,
      "궤": 367,
      "궨": 368,
      "궭": 369,
      "귀": 370,
      "귄": 371,
      "귈": 372,
      "귐": 373,
      "귓": 374,
      "귘": 375,
      "규": 376,
      "귝": 377,
      "균": 378,
      "귣": 379,
      "귤": 380,
      "귬": 381,
      "귭": 382,
      "귱": 383,
      "귴": 384,
      "그": 385,
      "극": 386,
      "근": 387,
      "귿": 388,
      "글": 389,
      "긁": 390,
      "금": 391,
      "급": 392,
      "긋": 393,
      "긌": 394,
      "긍": 395,
      "긎": 396,
      "긐": 397,
      "긑": 398,
      "긓": 399,
      "긔": 400,
      "기": 401,
      "긱": 402,
      "긲": 403,
      "긴": 404,
      "긷": 405,
      "길": 406,
      "긹": 407,
      "김": 408,
      "깁": 409,
      "깃": 410,
      "깄": 411,
      "깅": 412,
      "깆": 413,
      "깈": 414,
      "깉": 415,
      "깊": 416,
      "깋": 417,
      "까": 418,
      "깍": 419,
      "깎": 420,
      "깐": 421,
      "깔": 422,
      "깜": 423,
      "깝": 424,
      "깟": 425,
      "깠": 426,
      "깡": 427,
      "깢": 428,
      "깤": 429,
      "깥": 430,
      "깧": 431,
      "깨": 432,
      "깩": 433,
      "깬": 434,
      "깰": 435,
      "깸": 436,
      "깻": 437,
      "깼": 438,
      "깽": 439,
      "꺄": 440,
      "꺅": 441,
      "꺌": 442,
      "꺔": 443,
      "꺘": 444,
      "꺙": 445,
      "꺵": 446,
      "꺼": 447,
      "꺽": 448,
      "꺾": 449,
      "껀": 450,
      "껄": 451,
      "껌": 452,
      "껍": 453,
      "껏": 454,
      "껐": 455,
      "껑": 456,
      "껓": 457,
      "껗": 458,
      "께": 459,
      "껙": 460,
      "껜": 461,
      "껟": 462,
      "껨": 463,
      "껭": 464,
      "껰": 465,
      "껳": 466,
      "껴": 467,
      "껶": 468,
      "꼈": 469,
      "꼐": 470,
      "꼬": 471,
      "꼭": 472,
      "꼰": 473,
      "꼳": 474,
      "꼴": 475,
      "꼼": 476,
      "꼽": 477,
      "꼿": 478,
      "꽁": 479,
      "꽂": 480,
      "꽃": 481,
      "꽆": 482,
      "꽈": 483,
      "꽉": 484,
      "꽐": 485,
      "꽝": 486,
      "꽤": 487,
      "꽥": 488,
      "꾀": 489,
      "꾜": 490,
      "꾤": 491,
      "꾸": 492,
      "꾹": 493,
      "꾼": 494,
      "꾾": 495,
      "꿀": 496,
      "꿇": 497,
      "꿈": 498,
      "꿉": 499,
      "꿋": 500,
      "꿍": 501,
      "꿎": 502,
      "꿑": 503,
      "꿔": 504,
      "꿧": 505,
      "꿨": 506,
      "꿩": 507,
      "꿰": 508,
      "뀌": 509,
      "뀐": 510,
      "뀓": 511,
      "뀔": 512,
      "뀜": 513,
      "뀤": 514,
      "뀨": 515,
      "뀬": 516,
      "뀰": 517,
      "뀸": 518,
      "끄": 519,
      "끈": 520,
      "끊": 521,
      "끌": 522,
      "끓": 523,
      "끔": 524,
      "끕": 525,
      "끗": 526,
      "끙": 527,
      "끜": 528,
      "끝": 529,
      "끵": 530,
      "끼": 531,
      "끽": 532,
      "낀": 533,
      "낄": 534,
      "낌": 535,
      "낑": 536,
      "낔": 537,
      "낗": 538,
      "나": 539,
      "낙": 540,
      "낚": 541,
      "난": 542,
      "낟": 543,
      "날": 544,
      "낡": 545,
      "남": 546,
      "납": 547,
      "낫": 548,
      "났": 549,
      "낭": 550,
      "낮": 551,
      "낯": 552,
      "낰": 553,
      "낱": 554,
      "낳": 555,
      "내": 556,
      "낵": 557,
      "낶": 558,
      "낸": 559,
      "낼": 560,
      "냄": 561,
      "냅": 562,
      "냇": 563,
      "냈": 564,
      "냉": 565,
      "냌": 566,
      "냍": 567,
      "냏": 568,
      "냐": 569,
      "냑": 570,
      "냔": 571,
      "냘": 572,
      "냠": 573,
      "냡": 574,
      "냣": 575,
      "냤": 576,
      "냥": 577,
      "냨": 578,
      "냫": 579,
      "냬": 580,
      "냿": 581,
      "넀": 582,
      "넄": 583,
      "너": 584,
      "넉": 585,
      "넊": 586,
      "넋": 587,
      "넌": 588,
      "넏": 589,
      "널": 590,
      "넓": 591,
      "넘": 592,
      "넙": 593,
      "넛": 594,
      "넜": 595,
      "넝": 596,
      "넠": 597,
      "넣": 598,
      "네": 599,
      "넥": 600,
      "넨": 601,
      "넫": 602,
      "넬": 603,
      "넴": 604,
      "넵": 605,
      "넷": 606,
      "넹": 607,
      "넺": 608,
      "넼": 609,
      "넽": 610,
      "녀": 611,
      "녁": 612,
      "년": 613,
      "녇": 614,
      "녈": 615,
      "념": 616,
      "녓": 617,
      "녔": 618,
      "녕": 619,
      "녘": 620,
      "녜": 621,
      "녬": 622,
      "노": 623,
      "녹": 624,
      "논": 625,
      "녿": 626,
      "놀": 627,
      "놈": 628,
      "놉": 629,
      "놋": 630,
      "농": 631,
      "놐": 632,
      "높": 633,
      "놓": 634,
      "놔": 635,
      "놧": 636,
      "놨": 637,
      "놩": 638,
      "놬": 639,
      "놰": 640,
      "뇌": 641,
      "뇨": 642,
      "뇬": 643,
      "뇸": 644,
      "뇽": 645,
      "누": 646,
      "눅": 647,
      "눈": 648,
      "눌": 649,
      "눔": 650,
      "눕": 651,
      "눗": 652,
      "눙": 653,
      "눜": 654,
      "눠": 655,
      "눴": 656,
      "눼": 657,
      "뉍": 658,
      "뉑": 659,
      "뉘": 660,
      "뉠": 661,
      "뉭": 662,
      "뉰": 663,
      "뉴": 664,
      "뉵": 665,
      "뉸": 666,
      "뉼": 667,
      "늄": 668,
      "늉": 669,
      "느": 670,
      "늑": 671,
      "는": 672,
      "늗": 673,
      "늘": 674,
      "늙": 675,
      "늠": 676,
      "능": 677,
      "늦": 678,
      "늧": 679,
      "늨": 680,
      "늪": 681,
      "늫": 682,
      "늬": 683,
      "늰": 684,
      "닁": 685,
      "니": 686,
      "닉": 687,
      "닌": 688,
      "닏": 689,
      "닐": 690,
      "님": 691,
      "닙": 692,
      "닛": 693,
      "닝": 694,
      "닞": 695,
      "닠": 696,
      "닣": 697,
      "다": 698,
      "닥": 699,
      "닦": 700,
      "단": 701,
      "닪": 702,
      "닫": 703,
      "달": 704,
      "닭": 705,
      "닮": 706,
      "닳": 707,
      "담": 708,
      "답": 709,
      "닷": 710,
      "당": 711,
      "닺": 712,
      "닼": 713,
      "닽": 714,
      "닿": 715,
      "대": 716,
      "댁": 717,
      "댂": 718,
      "댄": 719,
      "댇": 720,
      "댈": 721,
      "댐": 722,
      "댑": 723,
      "댓": 724,
      "댔": 725,
      "댕": 726,
      "댗": 727,
      "댘": 728,
      "댙": 729,
      "댛": 730,
      "댜": 731,
      "댝": 732,
      "댠": 733,
      "댣": 734,
      "댤": 735,
      "댯": 736,
      "댰": 737,
      "댱": 738,
      "댴": 739,
      "댵": 740,
      "댷": 741,
      "덌": 742,
      "더": 743,
      "덕": 744,
      "던": 745,
      "덛": 746,
      "덜": 747,
      "덞": 748,
      "덟": 749,
      "덤": 750,
      "덥": 751,
      "덧": 752,
      "덩": 753,
      "덫": 754,
      "덬": 755,
      "덮": 756,
      "덯": 757,
      "데": 758,
      "덱": 759,
      "덴": 760,
      "덷": 761,
      "델": 762,
      "뎀": 763,
      "뎁": 764,
      "뎃": 765,
      "뎄": 766,
      "뎅": 767,
      "뎈": 768,
      "뎉": 769,
      "뎌": 770,
      "뎐": 771,
      "뎝": 772,
      "뎠": 773,
      "뎡": 774,
      "뎤": 775,
      "뎨": 776,
      "뎬": 777,
      "도": 778,
      "독": 779,
      "돈": 780,
      "돋": 781,
      "돌": 782,
      "돔": 783,
      "돕": 784,
      "돗": 785,
      "동": 786,
      "돜": 787,
      "돟": 788,
      "돠": 789,
      "돨": 790,
      "돰": 791,
      "돼": 792,
      "돾": 793,
      "됄": 794,
      "됌": 795,
      "됏": 796,
      "됐": 797,
      "됑": 798,
      "됔": 799,
      "됗": 800,
      "되": 801,
      "된": 802,
      "됟": 803,
      "될": 804,
      "됧": 805,
      "됨": 806,
      "됩": 807,
      "됭": 808,
      "됮": 809,
      "됴": 810,
      "됸": 811,
      "둉": 812,
      "두": 813,
      "둑": 814,
      "둔": 815,
      "둗": 816,
      "둘": 817,
      "둠": 818,
      "둡": 819,
      "둣": 820,
      "둥": 821,
      "둬": 822,
      "뒀": 823,
      "뒈": 824,
      "뒝": 825,
      "뒤": 826,
      "뒵": 827,
      "뒷": 828,
      "뒹": 829,
      "듀": 830,
      "듄": 831,
      "듈": 832,
      "듐": 833,
      "듓": 834,
      "듕": 835,
      "드": 836,
      "득": 837,
      "든": 838,
      "듢": 839,
      "듣": 840,
      "들": 841,
      "듦": 842,
      "듨": 843,
      "듬": 844,
      "듭": 845,
      "듯": 846,
      "등": 847,
      "듴": 848,
      "듷": 849,
      "디": 850,
      "딕": 851,
      "딖": 852,
      "딘": 853,
      "딜": 854,
      "딤": 855,
      "딥": 856,
      "딧": 857,
      "딨": 858,
      "딩": 859,
      "딪": 860,
      "딬": 861,
      "딭": 862,
      "딯": 863,
      "따": 864,
      "딱": 865,
      "딴": 866,
      "딷": 867,
      "딸": 868,
      "땀": 869,
      "땁": 870,
      "땃": 871,
      "땄": 872,
      "땅": 873,
      "땈": 874,
      "땋": 875,
      "때": 876,
      "땍": 877,
      "땐": 878,
      "땓": 879,
      "땜": 880,
      "땝": 881,
      "땟": 882,
      "땠": 883,
      "땡": 884,
      "땤": 885,
      "땨": 886,
      "땩": 887,
      "땯": 888,
      "땳": 889,
      "땸": 890,
      "땽": 891,
      "떄": 892,
      "떔": 893,
      "떙": 894,
      "떠": 895,
      "떡": 896,
      "떤": 897,
      "떨": 898,
      "떰": 899,
      "떳": 900,
      "떴": 901,
      "떵": 902,
      "떸": 903,
      "떻": 904,
      "떼": 905,
      "떽": 906,
      "뗀": 907,
      "뗄": 908,
      "뗌": 909,
      "뗐": 910,
      "뗘": 911,
      "뗙": 912,
      "뗭": 913,
      "뗴": 914,
      "또": 915,
      "똑": 916,
      "똔": 917,
      "똗": 918,
      "똘": 919,
      "똠": 920,
      "똣": 921,
      "똥": 922,
      "똨": 923,
      "똫": 924,
      "뙇": 925,
      "뙈": 926,
      "뙤": 927,
      "뚀": 928,
      "뚁": 929,
      "뚕": 930,
      "뚜": 931,
      "뚝": 932,
      "뚠": 933,
      "뚤": 934,
      "뚫": 935,
      "뚱": 936,
      "뚸": 937,
      "뛔": 938,
      "뛰": 939,
      "뛴": 940,
      "뛸": 941,
      "뜀": 942,
      "뜌": 943,
      "뜍": 944,
      "뜛": 945,
      "뜨": 946,
      "뜩": 947,
      "뜬": 948,
      "뜯": 949,
      "뜰": 950,
      "뜸": 951,
      "뜹": 952,
      "뜻": 953,
      "띀": 954,
      "띁": 955,
      "띄": 956,
      "띔": 957,
      "띕": 958,
      "띠": 959,
      "띡": 960,
      "띨": 961,
      "띰": 962,
      "띱": 963,
      "띵": 964,
      "라": 965,
      "락": 966,
      "띾": 967,
      "란": 968,
      "랂": 969,
      "랃": 970,
      "랄": 971,
      "람": 972,
      "랍": 973,
      "랏": 974,
      "랐": 975,
      "랑": 976,
      "랒": 977,
      "랔": 978,
      "랕": 979,
      "랖": 980,
      "랗": 981,
      "래": 982,
      "랙": 983,
      "랚": 984,
      "랜": 985,
      "랟": 986,
      "랠": 987,
      "램": 988,
      "랩": 989,
      "랫": 990,
      "랬": 991,
      "랭": 992,
      "랰": 993,
      "랱": 994,
      "랳": 995,
      "랴": 996,
      "략": 997,
      "랶": 998,
      "랸": 999,
      "럄": 1000,
      "럅": 1001,
      "럈": 1002,
      "량": 1003,
      "럌": 1004,
      "러": 1005,
      "럭": 1006,
      "런": 1007,
      "럳": 1008,
      "럴": 1009,
      "럼": 1010,
      "럽": 1011,
      "럾": 1012,
      "럿": 1013,
      "렀": 1014,
      "렁": 1015,
      "렂": 1016,
      "렄": 1017,
      "렇": 1018,
      "레": 1019,
      "렉": 1020,
      "렌": 1021,
      "렐": 1022,
      "렘": 1023,
      "렙": 1024,
      "렛": 1025,
      "렜": 1026,
      "렝": 1027,
      "렠": 1028,
      "려": 1029,
      "력": 1030,
      "렦": 1031,
      "련": 1032,
      "렬": 1033,
      "렴": 1034,
      "렵": 1035,
      "렷": 1036,
      "렸": 1037,
      "령": 1038,
      "렼": 1039,
      "례": 1040,
      "롕": 1041,
      "로": 1042,
      "록": 1043,
      "론": 1044,
      "롣": 1045,
      "롤": 1046,
      "롥": 1047,
      "롬": 1048,
      "롭": 1049,
      "롯": 1050,
      "롰": 1051,
      "롱": 1052,
      "롴": 1053,
      "롷": 1054,
      "롸": 1055,
      "롹": 1056,
      "뢌": 1057,
      "뢔": 1058,
      "뢩": 1059,
      "뢰": 1060,
      "뢴": 1061,
      "료": 1062,
      "룎": 1063,
      "룐": 1064,
      "룜": 1065,
      "룟": 1066,
      "룠": 1067,
      "룡": 1068,
      "루": 1069,
      "룩": 1070,
      "룬": 1071,
      "룯": 1072,
      "룰": 1073,
      "룸": 1074,
      "룹": 1075,
      "룻": 1076,
      "룽": 1077,
      "뤃": 1078,
      "뤄": 1079,
      "뤈": 1080,
      "뤌": 1081,
      "뤔": 1082,
      "뤘": 1083,
      "뤠": 1084,
      "뤳": 1085,
      "뤴": 1086,
      "뤵": 1087,
      "뤼": 1088,
      "륄": 1089,
      "륌": 1090,
      "륑": 1091,
      "류": 1092,
      "륙": 1093,
      "륜": 1094,
      "률": 1095,
      "륨": 1096,
      "륩": 1097,
      "륭": 1098,
      "륳": 1099,
      "르": 1100,
      "륵": 1101,
      "른": 1102,
      "를": 1103,
      "륽": 1104,
      "름": 1105,
      "릅": 1106,
      "릇": 1107,
      "릉": 1108,
      "릌": 1109,
      "릎": 1110,
      "릏": 1111,
      "릥": 1112,
      "리": 1113,
      "릭": 1114,
      "린": 1115,
      "릳": 1116,
      "릴": 1117,
      "림": 1118,
      "립": 1119,
      "릿": 1120,
      "맀": 1121,
      "링": 1122,
      "맂": 1123,
      "맃": 1124,
      "맄": 1125,
      "마": 1126,
      "막": 1127,
      "만": 1128,
      "많": 1129,
      "맏": 1130,
      "말": 1131,
      "맑": 1132,
      "맘": 1133,
      "맙": 1134,
      "맛": 1135,
      "맜": 1136,
      "망": 1137,
      "맞": 1138,
      "맠": 1139,
      "맡": 1140,
      "맣": 1141,
      "매": 1142,
      "맥": 1143,
      "맨": 1144,
      "맬": 1145,
      "맴": 1146,
      "맵": 1147,
      "맷": 1148,
      "맸": 1149,
      "맹": 1150,
      "맺": 1151,
      "맼": 1152,
      "맿": 1153,
      "먀": 1154,
      "먄": 1155,
      "먐": 1156,
      "먔": 1157,
      "먕": 1158,
      "먖": 1159,
      "먗": 1160,
      "먘": 1161,
      "먳": 1162,
      "머": 1163,
      "먹": 1164,
      "먼": 1165,
      "먿": 1166,
      "멀": 1167,
      "멂": 1168,
      "멈": 1169,
      "멋": 1170,
      "멍": 1171,
      "멎": 1172,
      "멏": 1173,
      "메": 1174,
      "멕": 1175,
      "멘": 1176,
      "멜": 1177,
      "멤": 1178,
      "멧": 1179,
      "멨": 1180,
      "멩": 1181,
      "멬": 1182,
      "며": 1183,
      "멱": 1184,
      "면": 1185,
      "멸": 1186,
      "몀": 1187,
      "몄": 1188,
      "명": 1189,
      "몆": 1190,
      "몇": 1191,
      "몈": 1192,
      "몉": 1193,
      "모": 1194,
      "목": 1195,
      "몫": 1196,
      "몬": 1197,
      "몰": 1198,
      "몸": 1199,
      "몹": 1200,
      "못": 1201,
      "몽": 1202,
      "뫃": 1203,
      "뫄": 1204,
      "뫜": 1205,
      "뫵": 1206,
      "묘": 1207,
      "묜": 1208,
      "묨": 1209,
      "묭": 1210,
      "묯": 1211,
      "묰": 1212,
      "무": 1213,
      "묵": 1214,
      "묶": 1215,
      "문": 1216,
      "묻": 1217,
      "물": 1218,
      "묽": 1219,
      "뭄": 1220,
      "뭇": 1221,
      "뭉": 1222,
      "뭌": 1223,
      "뭐": 1224,
      "뭔": 1225,
      "뭘": 1226,
      "뭠": 1227,
      "뭡": 1228,
      "뭣": 1229,
      "뭥": 1230,
      "뭨": 1231,
      "뭫": 1232,
      "뭬": 1233,
      "뮤": 1234,
      "뮨": 1235,
      "뮫": 1236,
      "뮬": 1237,
      "뮴": 1238,
      "뮷": 1239,
      "뮹": 1240,
      "므": 1241,
      "믄": 1242,
      "믈": 1243,
      "믐": 1244,
      "믓": 1245,
      "믜": 1246,
      "미": 1247,
      "믹": 1248,
      "민": 1249,
      "믾": 1250,
      "믿": 1251,
      "밀": 1252,
      "밈": 1253,
      "밉": 1254,
      "밋": 1255,
      "밌": 1256,
      "밍": 1257,
      "및": 1258,
      "밐": 1259,
      "밑": 1260,
      "바": 1261,
      "박": 1262,
      "밖": 1263,
      "밗": 1264,
      "반": 1265,
      "받": 1266,
      "발": 1267,
      "밝": 1268,
      "밟": 1269,
      "밤": 1270,
      "밥": 1271,
      "밧": 1272,
      "밨": 1273,
      "방": 1274,
      "밪": 1275,
      "밬": 1276,
      "밭": 1277,
      "배": 1278,
      "백": 1279,
      "밴": 1280,
      "밷": 1281,
      "밸": 1282,
      "뱀": 1283,
      "뱃": 1284,
      "뱅": 1285,
      "뱉": 1286,
      "뱌": 1287,
      "뱍": 1288,
      "뱔": 1289,
      "뱡": 1290,
      "버": 1291,
      "벅": 1292,
      "벆": 1293,
      "번": 1294,
      "벋": 1295,
      "벌": 1296,
      "범": 1297,
      "법": 1298,
      "벗": 1299,
      "벙": 1300,
      "벚": 1301,
      "벜": 1302,
      "벟": 1303,
      "베": 1304,
      "벡": 1305,
      "벤": 1306,
      "벨": 1307,
      "벱": 1308,
      "벳": 1309,
      "벵": 1310,
      "벻": 1311,
      "벼": 1312,
      "벽": 1313,
      "변": 1314,
      "별": 1315,
      "볍": 1316,
      "볏": 1317,
      "병": 1318,
      "볔": 1319,
      "볕": 1320,
      "보": 1321,
      "복": 1322,
      "볶": 1323,
      "본": 1324,
      "볻": 1325,
      "볼": 1326,
      "볽": 1327,
      "봄": 1328,
      "봅": 1329,
      "봇": 1330,
      "봈": 1331,
      "봉": 1332,
      "봌": 1333,
      "봏": 1334,
      "봐": 1335,
      "봒": 1336,
      "봠": 1337,
      "봣": 1338,
      "봤": 1339,
      "봥": 1340,
      "봨": 1341,
      "봬": 1342,
      "뵁": 1343,
      "뵈": 1344,
      "뵐": 1345,
      "뵙": 1346,
      "뵤": 1347,
      "뵨": 1348,
      "부": 1349,
      "북": 1350,
      "분": 1351,
      "붇": 1352,
      "불": 1353,
      "붉": 1354,
      "붐": 1355,
      "붓": 1356,
      "붕": 1357,
      "붖": 1358,
      "붘": 1359,
      "붙": 1360,
      "붸": 1361,
      "뷔": 1362,
      "뷰": 1363,
      "뷱": 1364,
      "뷴": 1365,
      "뷸": 1366,
      "븀": 1367,
      "븃": 1368,
      "븅": 1369,
      "븉": 1370,
      "브": 1371,
      "븍": 1372,
      "븎": 1373,
      "븐": 1374,
      "블": 1375,
      "븜": 1376,
      "비": 1377,
      "빅": 1378,
      "빈": 1379,
      "빌": 1380,
      "빔": 1381,
      "빕": 1382,
      "빗": 1383,
      "빙": 1384,
      "빚": 1385,
      "빛": 1386,
      "빜": 1387,
      "빝": 1388,
      "빠": 1389,
      "빡": 1390,
      "빤": 1391,
      "빧": 1392,
      "빨": 1393,
      "빱": 1394,
      "빳": 1395,
      "빴": 1396,
      "빵": 1397,
      "빸": 1398,
      "빻": 1399,
      "빼": 1400,
      "빽": 1401,
      "뺀": 1402,
      "뺄": 1403,
      "뺌": 1404,
      "뺍": 1405,
      "뺏": 1406,
      "뺐": 1407,
      "뺑": 1408,
      "뺘": 1409,
      "뺨": 1410,
      "뺫": 1411,
      "뺭": 1412,
      "뺴": 1413,
      "뻐": 1414,
      "뻑": 1415,
      "뻔": 1416,
      "뻗": 1417,
      "뻘": 1418,
      "뻡": 1419,
      "뻤": 1420,
      "뻥": 1421,
      "뼈": 1422,
      "뼘": 1423,
      "뼛": 1424,
      "뼝": 1425,
      "뽀": 1426,
      "뽁": 1427,
      "뽂": 1428,
      "뽇": 1429,
      "뽈": 1430,
      "뽐": 1431,
      "뽑": 1432,
      "뽕": 1433,
      "뽚": 1434,
      "뽜": 1435,
      "뽝": 1436,
      "뽯": 1437,
      "뾰": 1438,
      "뾱": 1439,
      "뿁": 1440,
      "뿅": 1441,
      "뿌": 1442,
      "뿍": 1443,
      "뿐": 1444,
      "뿔": 1445,
      "뿜": 1446,
      "뿡": 1447,
      "뿨": 1448,
      "쀄": 1449,
      "쀼": 1450,
      "쁀": 1451,
      "쁄": 1452,
      "쁘": 1453,
      "쁜": 1454,
      "쁠": 1455,
      "쁨": 1456,
      "쁩": 1457,
      "쁰": 1458,
      "쁳": 1459,
      "삐": 1460,
      "삑": 1461,
      "삘": 1462,
      "삣": 1463,
      "삥": 1464,
      "사": 1465,
      "삭": 1466,
      "산": 1467,
      "살": 1468,
      "삶": 1469,
      "삷": 1470,
      "삻": 1471,
      "삼": 1472,
      "삽": 1473,
      "삿": 1474,
      "샀": 1475,
      "상": 1476,
      "샄": 1477,
      "샅": 1478,
      "샆": 1479,
      "샇": 1480,
      "새": 1481,
      "색": 1482,
      "샊": 1483,
      "샌": 1484,
      "샏": 1485,
      "샐": 1486,
      "샘": 1487,
      "샛": 1488,
      "샜": 1489,
      "생": 1490,
      "샡": 1491,
      "샣": 1492,
      "샤": 1493,
      "샥": 1494,
      "샬": 1495,
      "샴": 1496,
      "샵": 1497,
      "샷": 1498,
      "샸": 1499,
      "샹": 1500,
      "샼": 1501,
      "샾": 1502,
      "섀": 1503,
      "서": 1504,
      "석": 1505,
      "섞": 1506,
      "선": 1507,
      "섣": 1508,
      "설": 1509,
      "섥": 1510,
      "섧": 1511,
      "섬": 1512,
      "섭": 1513,
      "섯": 1514,
      "섰": 1515,
      "성": 1516,
      "섲": 1517,
      "섴": 1518,
      "섷": 1519,
      "세": 1520,
      "섹": 1521,
      "섺": 1522,
      "센": 1523,
      "셀": 1524,
      "셈": 1525,
      "셉": 1526,
      "셋": 1527,
      "셌": 1528,
      "셍": 1529,
      "셐": 1530,
      "셓": 1531,
      "셔": 1532,
      "셖": 1533,
      "션": 1534,
      "셜": 1535,
      "셤": 1536,
      "셥": 1537,
      "셧": 1538,
      "셨": 1539,
      "셬": 1540,
      "셰": 1541,
      "솁": 1542,
      "솊": 1543,
      "소": 1544,
      "속": 1545,
      "손": 1546,
      "솓": 1547,
      "솔": 1548,
      "솜": 1549,
      "솟": 1550,
      "송": 1551,
      "솤": 1552,
      "솥": 1553,
      "솨": 1554,
      "솬": 1555,
      "쇄": 1556,
      "쇠": 1557,
      "쇼": 1558,
      "쇽": 1559,
      "숀": 1560,
      "숄": 1561,
      "숍": 1562,
      "숏": 1563,
      "숑": 1564,
      "숗": 1565,
      "수": 1566,
      "숙": 1567,
      "순": 1568,
      "숟": 1569,
      "술": 1570,
      "숨": 1571,
      "숩": 1572,
      "숫": 1573,
      "숭": 1574,
      "숯": 1575,
      "숰": 1576,
      "숱": 1577,
      "숲": 1578,
      "숴": 1579,
      "쉅": 1580,
      "쉈": 1581,
      "쉐": 1582,
      "쉑": 1583,
      "쉗": 1584,
      "쉘": 1585,
      "쉣": 1586,
      "쉨": 1587,
      "쉬": 1588,
      "쉭": 1589,
      "쉰": 1590,
      "쉴": 1591,
      "쉼": 1592,
      "쉽": 1593,
      "쉿": 1594,
      "슂": 1595,
      "슈": 1596,
      "슉": 1597,
      "슌": 1598,
      "슐": 1599,
      "슘": 1600,
      "슙": 1601,
      "슝": 1602,
      "스": 1603,
      "슥": 1604,
      "슦": 1605,
      "슨": 1606,
      "슬": 1607,
      "슭": 1608,
      "슴": 1609,
      "습": 1610,
      "슷": 1611,
      "승": 1612,
      "슺": 1613,
      "슻": 1614,
      "슼": 1615,
      "슿": 1616,
      "싁": 1617,
      "싈": 1618,
      "싑": 1619,
      "시": 1620,
      "식": 1621,
      "신": 1622,
      "싣": 1623,
      "실": 1624,
      "싫": 1625,
      "심": 1626,
      "십": 1627,
      "싯": 1628,
      "싰": 1629,
      "싱": 1630,
      "싳": 1631,
      "싴": 1632,
      "싶": 1633,
      "싷": 1634,
      "싸": 1635,
      "싹": 1636,
      "싼": 1637,
      "싿": 1638,
      "쌀": 1639,
      "쌈": 1640,
      "쌉": 1641,
      "쌋": 1642,
      "쌌": 1643,
      "쌍": 1644,
      "쌐": 1645,
      "쌓": 1646,
      "쌔": 1647,
      "쌤": 1648,
      "쌨": 1649,
      "쌩": 1650,
      "쌰": 1651,
      "쌱": 1652,
      "썅": 1653,
      "써": 1654,
      "썩": 1655,
      "썬": 1656,
      "썰": 1657,
      "썸": 1658,
      "썹": 1659,
      "썻": 1660,
      "썼": 1661,
      "썽": 1662,
      "쎀": 1663,
      "쎁": 1664,
      "쎃": 1665,
      "쎄": 1666,
      "쎅": 1667,
      "쎈": 1668,
      "쎌": 1669,
      "쎔": 1670,
      "쎗": 1671,
      "쎘": 1672,
      "쎙": 1673,
      "쎠": 1674,
      "쎰": 1675,
      "쏘": 1676,
      "쏙": 1677,
      "쏜": 1678,
      "쏟": 1679,
      "쏠": 1680,
      "쏭": 1681,
      "쏴": 1682,
      "쐉": 1683,
      "쐐": 1684,
      "쐬": 1685,
      "쑤": 1686,
      "쑥": 1687,
      "쑴": 1688,
      "쒀": 1689,
      "쒕": 1690,
      "쒯": 1691,
      "쒸": 1692,
      "쓔": 1693,
      "쓩": 1694,
      "쓰": 1695,
      "쓱": 1696,
      "쓴": 1697,
      "쓸": 1698,
      "쓼": 1699,
      "씀": 1700,
      "씁": 1701,
      "씃": 1702,
      "씅": 1703,
      "씋": 1704,
      "씌": 1705,
      "씐": 1706,
      "씨": 1707,
      "씩": 1708,
      "씬": 1709,
      "씯": 1710,
      "씰": 1711,
      "씸": 1712,
      "씹": 1713,
      "씻": 1714,
      "씼": 1715,
      "씽": 1716,
      "씾": 1717,
      "앀": 1718,
      "아": 1719,
      "악": 1720,
      "앆": 1721,
      "안": 1722,
      "앉": 1723,
      "않": 1724,
      "앋": 1725,
      "알": 1726,
      "앍": 1727,
      "앎": 1728,
      "앐": 1729,
      "앓": 1730,
      "암": 1731,
      "압": 1732,
      "앖": 1733,
      "앗": 1734,
      "았": 1735,
      "앙": 1736,
      "앚": 1737,
      "앛": 1738,
      "앜": 1739,
      "앝": 1740,
      "앞": 1741,
      "앟": 1742,
      "애": 1743,
      "액": 1744,
      "앤": 1745,
      "앧": 1746,
      "앨": 1747,
      "앰": 1748,
      "앱": 1749,
      "앴": 1750,
      "앵": 1751,
      "앸": 1752,
      "앹": 1753,
      "앻": 1754,
      "야": 1755,
      "약": 1756,
      "앾": 1757,
      "얀": 1758,
      "얃": 1759,
      "얄": 1760,
      "얇": 1761,
      "얌": 1762,
      "얍": 1763,
      "얏": 1764,
      "얐": 1765,
      "양": 1766,
      "얔": 1767,
      "얕": 1768,
      "얖": 1769,
      "얗": 1770,
      "얘": 1771,
      "얙": 1772,
      "얜": 1773,
      "얰": 1774,
      "어": 1775,
      "억": 1776,
      "얶": 1777,
      "언": 1778,
      "얹": 1779,
      "얺": 1780,
      "얻": 1781,
      "얼": 1782,
      "얽": 1783,
      "엄": 1784,
      "업": 1785,
      "없": 1786,
      "엇": 1787,
      "었": 1788,
      "엉": 1789,
      "엊": 1790,
      "엌": 1791,
      "엍": 1792,
      "엎": 1793,
      "엏": 1794,
      "에": 1795,
      "엑": 1796,
      "엔": 1797,
      "엗": 1798,
      "엘": 1799,
      "엠": 1800,
      "엣": 1801,
      "엥": 1802,
      "엨": 1803,
      "엫": 1804,
      "여": 1805,
      "역": 1806,
      "엮": 1807,
      "연": 1808,
      "열": 1809,
      "염": 1810,
      "엽": 1811,
      "엾": 1812,
      "엿": 1813,
      "였": 1814,
      "영": 1815,
      "옂": 1816,
      "옄": 1817,
      "옅": 1818,
      "옆": 1819,
      "옇": 1820,
      "예": 1821,
      "옐": 1822,
      "옛": 1823,
      "옝": 1824,
      "오": 1825,
      "옥": 1826,
      "옦": 1827,
      "온": 1828,
      "옫": 1829,
      "올": 1830,
      "옭": 1831,
      "옮": 1832,
      "옯": 1833,
      "옳": 1834,
      "옴": 1835,
      "옵": 1836,
      "옶": 1837,
      "옷": 1838,
      "옸": 1839,
      "옹": 1840,
      "옼": 1841,
      "옽": 1842,
      "옿": 1843,
      "와": 1844,
      "왁": 1845,
      "왂": 1846,
      "완": 1847,
      "왇": 1848,
      "왈": 1849,
      "왑": 1850,
      "왓": 1851,
      "왔": 1852,
      "왕": 1853,
      "왘": 1854,
      "왛": 1855,
      "왜": 1856,
      "왝": 1857,
      "왠": 1858,
      "왤": 1859,
      "왬": 1860,
      "왱": 1861,
      "왴": 1862,
      "외": 1863,
      "왼": 1864,
      "욌": 1865,
      "요": 1866,
      "욕": 1867,
      "욖": 1868,
      "욘": 1869,
      "욜": 1870,
      "욤": 1871,
      "욥": 1872,
      "욧": 1873,
      "욨": 1874,
      "용": 1875,
      "욪": 1876,
      "욬": 1877,
      "욯": 1878,
      "우": 1879,
      "욱": 1880,
      "운": 1881,
      "욷": 1882,
      "울": 1883,
      "움": 1884,
      "웁": 1885,
      "웃": 1886,
      "웄": 1887,
      "웅": 1888,
      "웇": 1889,
      "웈": 1890,
      "웉": 1891,
      "웋": 1892,
      "워": 1893,
      "웍": 1894,
      "웎": 1895,
      "원": 1896,
      "월": 1897,
      "웜": 1898,
      "웟": 1899,
      "웠": 1900,
      "웡": 1901,
      "웢": 1902,
      "웤": 1903,
      "웧": 1904,
      "웨": 1905,
      "웩": 1906,
      "웬": 1907,
      "웰": 1908,
      "웳": 1909,
      "웸": 1910,
      "웹": 1911,
      "웻": 1912,
      "위": 1913,
      "윅": 1914,
      "윈": 1915,
      "윌": 1916,
      "윔": 1917,
      "윗": 1918,
      "윙": 1919,
      "유": 1920,
      "육": 1921,
      "윤": 1922,
      "윧": 1923,
      "율": 1924,
      "윰": 1925,
      "윳": 1926,
      "융": 1927,
      "윸": 1928,
      "으": 1929,
      "윽": 1930,
      "은": 1931,
      "읃": 1932,
      "을": 1933,
      "읊": 1934,
      "읋": 1935,
      "음": 1936,
      "읍": 1937,
      "읎": 1938,
      "읏": 1939,
      "응": 1940,
      "읒": 1941,
      "읓": 1942,
      "읔": 1943,
      "읗": 1944,
      "의": 1945,
      "읜": 1946,
      "읭": 1947,
      "읰": 1948,
      "이": 1949,
      "익": 1950,
      "읶": 1951,
      "인": 1952,
      "읻": 1953,
      "일": 1954,
      "읽": 1955,
      "잀": 1956,
      "잃": 1957,
      "임": 1958,
      "입": 1959,
      "잇": 1960,
      "있": 1961,
      "잉": 1962,
      "잊": 1963,
      "잋": 1964,
      "잌": 1965,
      "잍": 1966,
      "잎": 1967,
      "잏": 1968,
      "자": 1969,
      "작": 1970,
      "잒": 1971,
      "잔": 1972,
      "잖": 1973,
      "잗": 1974,
      "잘": 1975,
      "잛": 1976,
      "잜": 1977,
      "잠": 1978,
      "잡": 1979,
      "잣": 1980,
      "잤": 1981,
      "장": 1982,
      "잦": 1983,
      "잧": 1984,
      "잨": 1985,
      "잩": 1986,
      "잫": 1987,
      "재": 1988,
      "잭": 1989,
      "잰": 1990,
      "잳": 1991,
      "잴": 1992,
      "잼": 1993,
      "쟀": 1994,
      "쟁": 1995,
      "쟈": 1996,
      "쟉": 1997,
      "쟊": 1998,
      "쟌": 1999,
      "쟐": 2000,
      "쟜": 2001,
      "쟝": 2002,
      "쟠": 2003,
      "쟡": 2004,
      "쟤": 2005,
      "쟨": 2006,
      "쟹": 2007,
      "저": 2008,
      "적": 2009,
      "전": 2010,
      "젇": 2011,
      "절": 2012,
      "젊": 2013,
      "젍": 2014,
      "점": 2015,
      "접": 2016,
      "젓": 2017,
      "정": 2018,
      "젖": 2019,
      "젘": 2020,
      "젙": 2021,
      "젛": 2022,
      "제": 2023,
      "젝": 2024,
      "젠": 2025,
      "젤": 2026,
      "젬": 2027,
      "젭": 2028,
      "젯": 2029,
      "젱": 2030,
      "젴": 2031,
      "젵": 2032,
      "져": 2033,
      "젹": 2034,
      "젺": 2035,
      "젼": 2036,
      "졀": 2037,
      "졈": 2038,
      "졋": 2039,
      "졌": 2040,
      "졍": 2041,
      "졐": 2042,
      "졓": 2043,
      "조": 2044,
      "족": 2045,
      "존": 2046,
      "졷": 2047,
      "졸": 2048,
      "좀": 2049,
      "좁": 2050,
      "좃": 2051,
      "종": 2052,
      "좆": 2053,
      "좇": 2054,
      "좋": 2055,
      "좌": 2056,
      "좡": 2057,
      "좤": 2058,
      "죄": 2059,
      "죈": 2060,
      "죙": 2061,
      "죠": 2062,
      "죤": 2063,
      "죨": 2064,
      "죰": 2065,
      "죴": 2066,
      "죵": 2067,
      "죶": 2068,
      "죸": 2069,
      "죻": 2070,
      "주": 2071,
      "죽": 2072,
      "준": 2073,
      "줄": 2074,
      "줅": 2075,
      "줌": 2076,
      "줍": 2077,
      "줏": 2078,
      "중": 2079,
      "줔": 2080,
      "줗": 2081,
      "줘": 2082,
      "줙": 2083,
      "줚": 2084,
      "줜": 2085,
      "줟": 2086,
      "줫": 2087,
      "줬": 2088,
      "줭": 2089,
      "줮": 2090,
      "줰": 2091,
      "줴": 2092,
      "쥐": 2093,
      "쥑": 2094,
      "쥔": 2095,
      "쥘": 2096,
      "쥠": 2097,
      "쥥": 2098,
      "쥬": 2099,
      "쥭": 2100,
      "쥰": 2101,
      "쥴": 2102,
      "쥼": 2103,
      "즁": 2104,
      "즈": 2105,
      "즉": 2106,
      "즌": 2107,
      "즐": 2108,
      "즒": 2109,
      "즘": 2110,
      "즙": 2111,
      "즛": 2112,
      "증": 2113,
      "즤": 2114,
      "지": 2115,
      "직": 2116,
      "진": 2117,
      "짇": 2118,
      "질": 2119,
      "짊": 2120,
      "짏": 2121,
      "짐": 2122,
      "집": 2123,
      "짓": 2124,
      "징": 2125,
      "짖": 2126,
      "짘": 2127,
      "짙": 2128,
      "짚": 2129,
      "짛": 2130,
      "짜": 2131,
      "짝": 2132,
      "짠": 2133,
      "짢": 2134,
      "짤": 2135,
      "짧": 2136,
      "짬": 2137,
      "짭": 2138,
      "짯": 2139,
      "짰": 2140,
      "짱": 2141,
      "짴": 2142,
      "째": 2143,
      "짹": 2144,
      "짺": 2145,
      "짼": 2146,
      "쨀": 2147,
      "쨈": 2148,
      "쨉": 2149,
      "쨋": 2150,
      "쨌": 2151,
      "쨍": 2152,
      "쨔": 2153,
      "쨕": 2154,
      "쨘": 2155,
      "쨜": 2156,
      "쨨": 2157,
      "쨩": 2158,
      "쨬": 2159,
      "쨰": 2160,
      "쩄": 2161,
      "쩌": 2162,
      "쩍": 2163,
      "쩐": 2164,
      "쩔": 2165,
      "쩜": 2166,
      "쩝": 2167,
      "쩡": 2168,
      "쩧": 2169,
      "쪄": 2170,
      "쪅": 2171,
      "쪔": 2172,
      "쪘": 2173,
      "쪙": 2174,
      "쪜": 2175,
      "쪼": 2176,
      "쪽": 2177,
      "쫀": 2178,
      "쫃": 2179,
      "쫄": 2180,
      "쫌": 2181,
      "쫍": 2182,
      "쫑": 2183,
      "쫒": 2184,
      "쫓": 2185,
      "쫘": 2186,
      "쫙": 2187,
      "쬐": 2188,
      "쬬": 2189,
      "쬭": 2190,
      "쬼": 2191,
      "쬽": 2192,
      "쭁": 2193,
      "쭈": 2194,
      "쭉": 2195,
      "쭐": 2196,
      "쭘": 2197,
      "쭛": 2198,
      "쭤": 2199,
      "쮜": 2200,
      "쮲": 2201,
      "쮸": 2202,
      "쮹": 2203,
      "쯈": 2204,
      "쯉": 2205,
      "쯔": 2206,
      "쯜": 2207,
      "쯤": 2208,
      "쯧": 2209,
      "쯰": 2210,
      "찆": 2211,
      "찌": 2212,
      "찍": 2213,
      "찐": 2214,
      "찔": 2215,
      "찜": 2216,
      "찝": 2217,
      "찡": 2218,
      "찢": 2219,
      "찤": 2220,
      "찧": 2221,
      "차": 2222,
      "착": 2223,
      "찬": 2224,
      "찮": 2225,
      "찯": 2226,
      "찰": 2227,
      "참": 2228,
      "찹": 2229,
      "찻": 2230,
      "찼": 2231,
      "창": 2232,
      "찾": 2233,
      "챀": 2234,
      "챂": 2235,
      "채": 2236,
      "책": 2237,
      "챈": 2238,
      "챋": 2239,
      "챌": 2240,
      "챔": 2241,
      "챕": 2242,
      "챗": 2243,
      "챘": 2244,
      "챙": 2245,
      "챠": 2246,
      "챡": 2247,
      "챨": 2248,
      "챱": 2249,
      "챴": 2250,
      "챵": 2251,
      "챸": 2252,
      "챺": 2253,
      "처": 2254,
      "척": 2255,
      "천": 2256,
      "철": 2257,
      "첨": 2258,
      "첩": 2259,
      "첫": 2260,
      "청": 2261,
      "첰": 2262,
      "첳": 2263,
      "체": 2264,
      "첵": 2265,
      "첸": 2266,
      "첼": 2267,
      "쳄": 2268,
      "쳇": 2269,
      "쳌": 2270,
      "쳐": 2271,
      "쳔": 2272,
      "쳘": 2273,
      "쳡": 2274,
      "쳣": 2275,
      "쳤": 2276,
      "쳥": 2277,
      "쳧": 2278,
      "쳨": 2279,
      "쳬": 2280,
      "초": 2281,
      "촉": 2282,
      "촌": 2283,
      "촐": 2284,
      "촘": 2285,
      "총": 2286,
      "촥": 2287,
      "촬": 2288,
      "촵": 2289,
      "최": 2290,
      "쵝": 2291,
      "쵸": 2292,
      "춌": 2293,
      "춍": 2294,
      "추": 2295,
      "축": 2296,
      "춘": 2297,
      "춛": 2298,
      "출": 2299,
      "춟": 2300,
      "춤": 2301,
      "춥": 2302,
      "충": 2303,
      "춰": 2304,
      "췄": 2305,
      "췅": 2306,
      "췌": 2307,
      "췤": 2308,
      "취": 2309,
      "췻": 2310,
      "츀": 2311,
      "츄": 2312,
      "츅": 2313,
      "츈": 2314,
      "츌": 2315,
      "츙": 2316,
      "츠": 2317,
      "측": 2318,
      "츤": 2319,
      "츨": 2320,
      "층": 2321,
      "츼": 2322,
      "칀": 2323,
      "치": 2324,
      "칙": 2325,
      "친": 2326,
      "칟": 2327,
      "칠": 2328,
      "침": 2329,
      "칩": 2330,
      "칫": 2331,
      "칭": 2332,
      "칰": 2333,
      "칱": 2334,
      "카": 2335,
      "칵": 2336,
      "칸": 2337,
      "칼": 2338,
      "캄": 2339,
      "캇": 2340,
      "캈": 2341,
      "캉": 2342,
      "캌": 2343,
      "캍": 2344,
      "캐": 2345,
      "캔": 2346,
      "캘": 2347,
      "캠": 2348,
      "캡": 2349,
      "캣": 2350,
      "캤": 2351,
      "캥": 2352,
      "캨": 2353,
      "캬": 2354,
      "캴": 2355,
      "컄": 2356,
      "커": 2357,
      "컥": 2358,
      "컨": 2359,
      "컫": 2360,
      "컬": 2361,
      "컴": 2362,
      "컵": 2363,
      "컶": 2364,
      "컷": 2365,
      "컸": 2366,
      "컹": 2367,
      "컾": 2368,
      "케": 2369,
      "켈": 2370,
      "켐": 2371,
      "켓": 2372,
      "켔": 2373,
      "켕": 2374,
      "켘": 2375,
      "켛": 2376,
      "켜": 2377,
      "켠": 2378,
      "켤": 2379,
      "켭": 2380,
      "켰": 2381,
      "코": 2382,
      "콕": 2383,
      "콘": 2384,
      "콜": 2385,
      "콤": 2386,
      "콧": 2387,
      "콩": 2388,
      "콬": 2389,
      "콱": 2390,
      "콴": 2391,
      "콸": 2392,
      "쾅": 2393,
      "쾌": 2394,
      "쿄": 2395,
      "쿅": 2396,
      "쿘": 2397,
      "쿜": 2398,
      "쿠": 2399,
      "쿡": 2400,
      "쿤": 2401,
      "쿨": 2402,
      "쿰": 2403,
      "쿵": 2404,
      "쿸": 2405,
      "쿻": 2406,
      "쿼": 2407,
      "퀄": 2408,
      "퀘": 2409,
      "퀭": 2410,
      "퀴": 2411,
      "퀵": 2412,
      "퀸": 2413,
      "큐": 2414,
      "큑": 2415,
      "큘": 2416,
      "큨": 2417,
      "크": 2418,
      "큭": 2419,
      "큰": 2420,
      "큳": 2421,
      "클": 2422,
      "큼": 2423,
      "큽": 2424,
      "킁": 2425,
      "킄": 2426,
      "킈": 2427,
      "킌": 2428,
      "키": 2429,
      "킥": 2430,
      "킨": 2431,
      "킬": 2432,
      "킴": 2433,
      "킵": 2434,
      "킷": 2435,
      "킹": 2436,
      "킼": 2437,
      "킿": 2438,
      "타": 2439,
      "탁": 2440,
      "탂": 2441,
      "탄": 2442,
      "탆": 2443,
      "탈": 2444,
      "탐": 2445,
      "탑": 2446,
      "탓": 2447,
      "탔": 2448,
      "탕": 2449,
      "탘": 2450,
      "탛": 2451,
      "태": 2452,
      "택": 2453,
      "탠": 2454,
      "탣": 2455,
      "탤": 2456,
      "탬": 2457,
      "탭": 2458,
      "탯": 2459,
      "탱": 2460,
      "탸": 2461,
      "탹": 2462,
      "턉": 2463,
      "턍": 2464,
      "터": 2465,
      "턱": 2466,
      "턴": 2467,
      "턷": 2468,
      "털": 2469,
      "텀": 2470,
      "텁": 2471,
      "텄": 2472,
      "텅": 2473,
      "텈": 2474,
      "테": 2475,
      "텍": 2476,
      "텐": 2477,
      "텔": 2478,
      "템": 2479,
      "텝": 2480,
      "텡": 2481,
      "텤": 2482,
      "텨": 2483,
      "텼": 2484,
      "텽": 2485,
      "톄": 2486,
      "토": 2487,
      "톡": 2488,
      "톤": 2489,
      "톧": 2490,
      "톨": 2491,
      "톰": 2492,
      "톱": 2493,
      "톳": 2494,
      "통": 2495,
      "톼": 2496,
      "퇴": 2497,
      "툑": 2498,
      "툥": 2499,
      "투": 2500,
      "툭": 2501,
      "툰": 2502,
      "툴": 2503,
      "툼": 2504,
      "퉁": 2505,
      "퉅": 2506,
      "퉈": 2507,
      "퉝": 2508,
      "퉤": 2509,
      "튀": 2510,
      "튁": 2511,
      "튄": 2512,
      "튈": 2513,
      "튐": 2514,
      "튕": 2515,
      "튜": 2516,
      "튝": 2517,
      "튤": 2518,
      "튬": 2519,
      "튭": 2520,
      "튱": 2521,
      "트": 2522,
      "특": 2523,
      "튼": 2524,
      "튿": 2525,
      "틀": 2526,
      "틈": 2527,
      "틋": 2528,
      "틍": 2529,
      "틐": 2530,
      "틔": 2531,
      "티": 2532,
      "틱": 2533,
      "틴": 2534,
      "틸": 2535,
      "팀": 2536,
      "팁": 2537,
      "팃": 2538,
      "팅": 2539,
      "파": 2540,
      "팍": 2541,
      "판": 2542,
      "팔": 2543,
      "팜": 2544,
      "팝": 2545,
      "팟": 2546,
      "팠": 2547,
      "팡": 2548,
      "팣": 2549,
      "팤": 2550,
      "팥": 2551,
      "팦": 2552,
      "패": 2553,
      "팩": 2554,
      "팬": 2555,
      "팰": 2556,
      "팸": 2557,
      "팼": 2558,
      "팽": 2559,
      "퍀": 2560,
      "퍄": 2561,
      "퍈": 2562,
      "퍕": 2563,
      "퍘": 2564,
      "퍙": 2565,
      "퍜": 2566,
      "퍞": 2567,
      "퍼": 2568,
      "퍽": 2569,
      "펀": 2570,
      "펃": 2571,
      "펄": 2572,
      "펌": 2573,
      "펍": 2574,
      "펏": 2575,
      "펐": 2576,
      "펑": 2577,
      "펔": 2578,
      "페": 2579,
      "펙": 2580,
      "펜": 2581,
      "펠": 2582,
      "펫": 2583,
      "펭": 2584,
      "펴": 2585,
      "편": 2586,
      "펼": 2587,
      "폄": 2588,
      "폅": 2589,
      "폈": 2590,
      "평": 2591,
      "폌": 2592,
      "폐": 2593,
      "포": 2594,
      "폭": 2595,
      "폰": 2596,
      "폴": 2597,
      "폼": 2598,
      "퐀": 2599,
      "퐁": 2600,
      "퐄": 2601,
      "퐈": 2602,
      "푀": 2603,
      "표": 2604,
      "푝": 2605,
      "푠": 2606,
      "푶": 2607,
      "푸": 2608,
      "푹": 2609,
      "푼": 2610,
      "풀": 2611,
      "품": 2612,
      "풋": 2613,
      "풍": 2614,
      "퓨": 2615,
      "퓬": 2616,
      "퓰": 2617,
      "퓸": 2618,
      "퓽": 2619,
      "픂": 2620,
      "픃": 2621,
      "프": 2622,
      "픅": 2623,
      "픈": 2624,
      "플": 2625,
      "픔": 2626,
      "픙": 2627,
      "픜": 2628,
      "픟": 2629,
      "피": 2630,
      "픽": 2631,
      "핀": 2632,
      "필": 2633,
      "핌": 2634,
      "핍": 2635,
      "핏": 2636,
      "핑": 2637,
      "핒": 2638,
      "하": 2639,
      "학": 2640,
      "한": 2641,
      "핟": 2642,
      "할": 2643,
      "핡": 2644,
      "핢": 2645,
      "핥": 2646,
      "핧": 2647,
      "함": 2648,
      "합": 2649,
      "핫": 2650,
      "핬": 2651,
      "항": 2652,
      "핮": 2653,
      "핰": 2654,
      "핳": 2655,
      "해": 2656,
      "핵": 2657,
      "핶": 2658,
      "핸": 2659,
      "핻": 2660,
      "핼": 2661,
      "햄": 2662,
      "햅": 2663,
      "햇": 2664,
      "했": 2665,
      "행": 2666,
      "햊": 2667,
      "햌": 2668,
      "햏": 2669,
      "햐": 2670,
      "햑": 2671,
      "햒": 2672,
      "햔": 2673,
      "햘": 2674,
      "햠": 2675,
      "햤": 2676,
      "향": 2677,
      "햨": 2678,
      "햫": 2679,
      "햬": 2680,
      "햿": 2681,
      "헀": 2682,
      "허": 2683,
      "헉": 2684,
      "헌": 2685,
      "헏": 2686,
      "헐": 2687,
      "헑": 2688,
      "험": 2689,
      "헙": 2690,
      "헛": 2691,
      "헝": 2692,
      "헞": 2693,
      "헠": 2694,
      "헡": 2695,
      "헣": 2696,
      "헤": 2697,
      "헥": 2698,
      "헨": 2699,
      "헫": 2700,
      "헬": 2701,
      "헴": 2702,
      "헷": 2703,
      "헸": 2704,
      "헹": 2705,
      "헿": 2706,
      "혀": 2707,
      "혁": 2708,
      "현": 2709,
      "혈": 2710,
      "혐": 2711,
      "협": 2712,
      "혓": 2713,
      "혔": 2714,
      "형": 2715,
      "혘": 2716,
      "혜": 2717,
      "호": 2718,
      "혹": 2719,
      "혼": 2720,
      "혿": 2721,
      "홀": 2722,
      "홈": 2723,
      "홉": 2724,
      "홋": 2725,
      "홍": 2726,
      "홐": 2727,
      "홓": 2728,
      "화": 2729,
      "확": 2730,
      "환": 2731,
      "활": 2732,
      "홤": 2733,
      "홥": 2734,
      "홧": 2735,
      "황": 2736,
      "홬": 2737,
      "홯": 2738,
      "홰": 2739,
      "홱": 2740,
      "횄": 2741,
      "회": 2742,
      "획": 2743,
      "횟": 2744,
      "횡": 2745,
      "횤": 2746,
      "효": 2747,
      "횬": 2748,
      "횽": 2749,
      "후": 2750,
      "훅": 2751,
      "훈": 2752,
      "훌": 2753,
      "훍": 2754,
      "훑": 2755,
      "훓": 2756,
      "훔": 2757,
      "훗": 2758,
      "훙": 2759,
      "훟": 2760,
      "훠": 2761,
      "훤": 2762,
      "훨": 2763,
      "훵": 2764,
      "훻": 2765,
      "훼": 2766,
      "휑": 2767,
      "휘": 2768,
      "휙": 2769,
      "휜": 2770,
      "휠": 2771,
      "휨": 2772,
      "휩": 2773,
      "휫": 2774,
      "휭": 2775,
      "휴": 2776,
      "휸": 2777,
      "휼": 2778,
      "휽": 2779,
      "흄": 2780,
      "흉": 2781,
      "흊": 2782,
      "흎": 2783,
      "흐": 2784,
      "흑": 2785,
      "흔": 2786,
      "흗": 2787,
      "흘": 2788,
      "흙": 2789,
      "흠": 2790,
      "흡": 2791,
      "흣": 2792,
      "흥": 2793,
      "흨": 2794,
      "흩": 2795,
      "흫": 2796,
      "희": 2797,
      "흰": 2798,
      "힄": 2799,
      "히": 2800,
      "힉": 2801,
      "힌": 2802,
      "힎": 2803,
      "힐": 2804,
      "힘": 2805,
      "힙": 2806,
      "힛": 2807,
      "힝": 2808,
      "힠": 2809,
      "힡": 2810,
      "힣": 2811,
      "️": 2812,
      "ﾉ": 2813,
      "🌀": 2814,
      "🌈": 2815,
      "🌊": 2816,
      "🌝": 2817,
      "🌞": 2818,
      "🌡": 2819,
      "🍃": 2820,
      "🎉": 2821,
      "🎙": 2822,
      "🎤": 2823,
      "🎧": 2824,
      "🎵": 2825,
      "🎶": 2826,
      "🎺": 2827,
      "🏢": 2828,
      "👀": 2829,
      "👅": 2830,
      "👈": 2831,
      "👉": 2832,
      "👋": 2833,
      "👌": 2834,
      "👏": 2835,
      "👯": 2836,
      "👿": 2837,
      "💃": 2838,
      "💓": 2839,
      "💕": 2840,
      "💖": 2841,
      "💗": 2842,
      "💝": 2843,
      "💞": 2844,
      "💟": 2845,
      "💦": 2846,
      "💨": 2847,
      "💯": 2848,
      "💰": 2849,
      "📌": 2850,
      "📖": 2851,
      "📚": 2852,
      "📝": 2853,
      "📢": 2854,
      "📣": 2855,
      "🔊": 2856,
      "🔞": 2857,
      "🔥": 2858,
      "🖕": 2859,
      "🖤": 2860,
      "😀": 2861,
      "😂": 2862,
      "😎": 2863,
      "😔": 2864,
      "😖": 2865,
      "😘": 2866,
      "😚": 2867,
      "😡": 2868,
      "😣": 2869,
      "😥": 2870,
      "😭": 2871,
      "😱": 2872,
      "😵": 2873,
      "🙃": 2874,
      "🙅": 2875,
      "🙆": 2876,
      "🙊": 2877,
      "🚢": 2878,
      "🚨": 2879,
      "🚶": 2880,
      "🛎": 2881,
      "🛳": 2882,
      "🤔": 2883,
      "🤝": 2884,
      "🤞": 2885,
      "🤢": 2886,
      "🤦": 2887,
      "🤬": 2888,
      "🤮": 2889,
      "🤯": 2890,
      "🤷": 2891,
      "🤸": 2892,
      "🥁": 2893,
      "🥰": 2894,
      "🥺": 2895,
      "🦈": 2896,
      "🧚": 2897,
      "##그": 2898,
      "##러": 2899,
      "##는": 2900,
      "##데": 2901,
      "##카": 2902,
      "##운": 2903,
      "##터": 2904,
      "##에": 2905,
      "##서": 2906,
      "##딱": 2907,
      "##다": 2908,
      "##했": 2909,
      "##구": 2910,
      "##수": 2911,
      "##료": 2912,
      "##래": 2913,
      "##도": 2914,
      "##냥": 2915,
      "##ㅋ": 2916,
      "##보": 2917,
      "##여": 2918,
      "##댕": 2919,
      "##이": 2920,
      "##현": 2921,
      "##네": 2922,
      "##ㄷ": 2923,
      "##1": 2924,
      "##번": 2925,
      "##부": 2926,
      "##주": 2927,
      "##간": 2928,
      "##고": 2929,
      "##해": 2930,
      "##쪄": 2931,
      "##용": 2932,
      "##♡": 2933,
      "##집": 2934,
      "##사": 2935,
      "##진": 2936,
      "##ㅎ": 2937,
      "##내": 2938,
      "##년": 2939,
      "##아": 2940,
      "##근": 2941,
      "##상": 2942,
      "##오": 2943,
      "##빠": 2944,
      "##어": 2945,
      "##니": 2946,
      "##까": 2947,
      "##가": 2948,
      "##레": 2949,
      "##티": 2950,
      "##맛": 2951,
      "##야": 2952,
      "##할": 2953,
      "##난": 2954,
      "##독": 2955,
      "##시": 2956,
      "##휴": 2957,
      "##학": 2958,
      "##은": 2959,
      "##랐": 2960,
      "##ㅈ": 2961,
      "##일": 2962,
      "##잌": 2963,
      "##세": 2964,
      "##트": 2965,
      "##자": 2966,
      "##라": 2967,
      "##뭐": 2968,
      "##담": 2969,
      "##스": 2970,
      "##워": 2971,
      "##하": 2972,
      "##옛": 2973,
      "##날": 2974,
      "##먹": 2975,
      "##었": 2976,
      "##냨": 2977,
      "##꺼": 2978,
      "##지": 2979,
      "##만": 2980,
      "##직": 2981,
      "##석": 2982,
      "##8": 2983,
      "##개": 2984,
      "##있": 2985,
      "##음": 2986,
      "##낌": 2987,
      "##우": 2988,
      "##웅": 2989,
      "##짘": 2990,
      "##ㅠ": 2991,
      "##면": 2992,
      "##안": 2993,
      "##대": 2994,
      "##히": 2995,
      "##튼": 2996,
      "##좀": 2997,
      "##속": 2998,
      "##제": 2999,
      "##쓰": 3000,
      "##늘": 3001,
      "##색": 3002,
      "##깔": 3003,
      "##리": 3004,
      "##마": 3005,
      "##으": 3006,
      "##론": 3007,
      "##찌": 3008,
      "##나": 3009,
      "##을": 3010,
      "##각": 3011,
      "##옸": 3012,
      "##낭": 3013,
      "##쯤": 3014,
      "##6": 3015,
      "##져": 3016,
      "##넘": 3017,
      "##행": 3018,
      "##짜": 3019,
      "##너": 3020,
      "##무": 3021,
      "##기": 3022,
      "##싫": 3023,
      "##재": 3024,
      "##생": 3025,
      "##ㅓ": 3026,
      "##ㅏ": 3027,
      "##악": 3028,
      "##깽": 3029,
      "##땡": 3030,
      "##전": 3031,
      "##역": 3032,
      "##체": 3033,
      "##공": 3034,
      "##게": 3035,
      "##랴": 3036,
      "##꿀": 3037,
      "##템": 3038,
      "##옴": 3039,
      "##드": 3040,
      "##뎌": 3041,
      "##홍": 3042,
      "##박": 3043,
      "##넹": 3044,
      "##0": 3045,
      "##원": 3046,
      "##인": 3047,
      "##냐": 3048,
      "##앙": 3049,
      "##랑": 3050,
      "##더": 3051,
      "##s": 3052,
      "##긴": 3053,
      "##ㅍ": 3054,
      "##국": 3055,
      "##졌": 3056,
      "##녹": 3057,
      "##문": 3058,
      "##소": 3059,
      "##얌": 3060,
      "##럼": 3061,
      "##돼": 3062,
      "##써": 3063,
      "##줘": 3064,
      "##예": 3065,
      "##쁘": 3066,
      "##당": 3067,
      "##철": 3068,
      "##업": 3069,
      "##선": 3070,
      "##화": 3071,
      "##접": 3072,
      "##칸": 3073,
      "##째": 3074,
      "##때": 3075,
      "##올": 3076,
      "##들": 3077,
      "##롱": 3078,
      "##ㅇ": 3079,
      "##감": 3080,
      "##따": 3081,
      "##냡": 3082,
      "##ㅂ": 3083,
      "##납": 3084,
      "##냠": 3085,
      "##프": 3086,
      "##효": 3087,
      "##ㅛ": 3088,
      "##로": 3089,
      "##웈": 3090,
      "##막": 3091,
      "##의": 3092,
      "##험": 3093,
      "##특": 3094,
      "##정": 3095,
      "##코": 3096,
      "##테": 3097,
      "##땜": 3098,
      "##월": 3099,
      "##씩": 3100,
      "##괴": 3101,
      "##롭": 3102,
      "##힘": 3103,
      "##탐": 3104,
      "##머": 3105,
      "##판": 3106,
      "##글": 3107,
      "##렸": 3108,
      "##산": 3109,
      "##한": 3110,
      "##던": 3111,
      "##민": 3112,
      "##u": 3113,
      "##n": 3114,
      "##d": 3115,
      "##e": 3116,
      "##r": 3117,
      "##f": 3118,
      "##l": 3119,
      "##o": 3120,
      "##w": 3121,
      "##킨": 3122,
      "##크": 3123,
      "##웍": 3124,
      "##끔": 3125,
      "##영": 3126,
      "##남": 3127,
      "##잠": 3128,
      "##깐": 3129,
      "##잉": 3130,
      "##두": 3131,
      "##께": 3132,
      "##신": 3133,
      "##목": 3134,
      "##양": 3135,
      "##5": 3136,
      "##깰": 3137,
      "##꼴": 3138,
      "##미": 3139,
      "##뽀": 3140,
      "##a": 3141,
      "##클": 3142,
      "##타": 3143,
      "##임": 3144,
      "##택": 3145,
      "##반": 3146,
      "##2": 3147,
      "##방": 3148,
      "##칙": 3149,
      "##곡": 3150,
      "##쳐": 3151,
      "##징": 3152,
      "##겠": 3153,
      "##동": 3154,
      "##같": 3155,
      "##큰": 3156,
      "##케": 3157,
      "##조": 3158,
      "##잡": 3159,
      "##뿌": 3160,
      "##중": 3161,
      "##펫": 3162,
      "##노": 3163,
      "##랫": 3164,
      "##줄": 3165,
      "##넣": 3166,
      "##착": 3167,
      "##항": 3168,
      "##페": 3169,
      "##x": 3170,
      "##통": 3171,
      "##거": 3172,
      "##비": 3173,
      "##바": 3174,
      "##님": 3175,
      "##애": 3176,
      "##누": 3177,
      "##엔": 3178,
      "##돌": 3179,
      "##댱": 3180,
      "##칠": 3181,
      "##요": 3182,
      "##호": 3183,
      "##떡": 3184,
      "##떨": 3185,
      "##회": 3186,
      "##천": 3187,
      "##종": 3188,
      "##강": 3189,
      "##척": 3190,
      "##럽": 3191,
      "##와": 3192,
      "##느": 3193,
      "##과": 3194,
      "##씨": 3195,
      "##쓸": 3196,
      "##햐": 3197,
      "##랭": 3198,
      "##쟈": 3199,
      "##추": 3200,
      "##범": 3201,
      "##위": 3202,
      "##적": 3203,
      "##류": 3204,
      "##헌": 3205,
      "##t": 3206,
      "##밀": 3207,
      "##4": 3208,
      "##잘": 3209,
      "##뽑": 3210,
      "##널": 3211,
      "##맹": 3212,
      "##점": 3213,
      "##울": 3214,
      "##것": 3215,
      "##입": 3216,
      "##되": 3217,
      "##p": 3218,
      "##i": 3219,
      "##형": 3220,
      "##건": 3221,
      "##런": 3222,
      "##식": 3223,
      "##았": 3224,
      "##떠": 3225,
      "##3": 3226,
      "##를": 3227,
      "##배": 3228,
      "##준": 3229,
      "##등": 3230,
      "##록": 3231,
      "##청": 3232,
      "##림": 3233,
      "##m": 3234,
      "##뜨": 3235,
      "##걍": 3236,
      "##댜": 3237,
      "##깅": 3238,
      "##계": 3239,
      "##능": 3240,
      "##략": 3241,
      "##걱": 3242,
      "##말": 3243,
      "##람": 3244,
      "##둘": 3245,
      "##함": 3246,
      "##토": 3247,
      "##량": 3248,
      "##려": 3249,
      "##앴": 3250,
      "##습": 3251,
      "##ㄱ": 3252,
      "##쉈": 3253,
      "##성": 3254,
      "##싶": 3255,
      "##력": 3256,
      "##없": 3257,
      "##검": 3258,
      "##증": 3259,
      "##딘": 3260,
      "##금": 3261,
      "##깼": 3262,
      "##ㅁ": 3263,
      "##ㅊ": 3264,
      "##앵": 3265,
      "##엉": 3266,
      "##젝": 3267,
      "##앉": 3268,
      "##혀": 3269,
      "##놓": 3270,
      "##모": 3271,
      "##포": 3272,
      "##든": 3273,
      "##팬": 3274,
      "##후": 3275,
      "##삭": 3276,
      "##된": 3277,
      "##먀": 3278,
      "##저": 3279,
      "##승": 3280,
      "##섭": 3281,
      "##알": 3282,
      "##즘": 3283,
      "##넌": 3284,
      "##땅": 3285,
      "##ㄴ": 3286,
      "##또": 3287,
      "##ㅅ": 3288,
      "##버": 3289,
      "##르": 3290,
      "##단": 3291,
      "##유": 3292,
      "##견": 3293,
      "##갑": 3294,
      "##뎈": 3295,
      "##였": 3296,
      "##옹": 3297,
      "##못": 3298,
      "##긋": 3299,
      "##복": 3300,
      "##죽": 3301,
      "##랬": 3302,
      "##논": 3303,
      "##치": 3304,
      "##완": 3305,
      "##먕": 3306,
      "##g": 3307,
      "##W": 3308,
      "##얘": 3309,
      "##뿐": 3310,
      "##틱": 3311,
      "##뭘": 3312,
      "##질": 3313,
      "##작": 3314,
      "##ㅜ": 3315,
      "##델": 3316,
      "##껏": 3317,
      "##앞": 3318,
      "##픈": 3319,
      "##장": 3320,
      "##실": 3321,
      "##욜": 3322,
      "##경": 3323,
      "##돈": 3324,
      "##맨": 3325,
      "##ㅣ": 3326,
      "##심": 3327,
      "##띠": 3328,
      "##젤": 3329,
      "##겨": 3330,
      "##빡": 3331,
      "##쵸": 3332,
      "##북": 3333,
      "##파": 3334,
      "##켜": 3335,
      "##릴": 3336,
      "##설": 3337,
      "##명": 3338,
      "##폰": 3339,
      "##벨": 3340,
      "##렄": 3341,
      "##9": 3342,
      "##ㅌ": 3343,
      "##슈": 3344,
      "##팅": 3345,
      "##뎅": 3346,
      "##골": 3347,
      "##뢰": 3348,
      "##관": 3349,
      "##탄": 3350,
      "##웤": 3351,
      "##족": 3352,
      "##볼": 3353,
      "##롤": 3354,
      "##맞": 3355,
      "##키": 3356,
      "##분": 3357,
      "##물": 3358,
      "##쩍": 3359,
      "##큐": 3360,
      "##최": 3361,
      "##얼": 3362,
      "##른": 3363,
      "##메": 3364,
      "##린": 3365,
      "##교": 3366,
      "##촌": 3367,
      "##뉵": 3368,
      "##ㅔ": 3369,
      "##녀": 3370,
      "##굥": 3371,
      "##쩌": 3372,
      "##뉭": 3373,
      "##ㄹ": 3374,
      "##땐": 3375,
      "##밖": 3376,
      "##깃": 3377,
      "##헙": 3378,
      "##많": 3379,
      "##존": 3380,
      "##름": 3381,
      "##응": 3382,
      "##넼": 3383,
      "##연": 3384,
      "##달": 3385,
      "##움": 3386,
      "##엄": 3387,
      "##앤": 3388,
      "##씻": 3389,
      "##졸": 3390,
      "##엌": 3391,
      "##몈": 3392,
      "##밤": 3393,
      "##샜": 3394,
      "##초": 3395,
      "##몇": 3396,
      "##평": 3397,
      "##냈": 3398,
      "##횡": 3399,
      "##령": 3400,
      "##섴": 3401,
      "##플": 3402,
      "##닠": 3403,
      "##삼": 3404,
      "##N": 3405,
      "##C": 3406,
      "##S": 3407,
      "##닌": 3408,
      "##듯": 3409,
      "##놀": 3410,
      "##겁": 3411,
      "##댔": 3412,
      "##놔": 3413,
      "##렇": 3414,
      "##희": 3415,
      "##죠": 3416,
      "##웃": 3417,
      "##걸": 3418,
      "##욕": 3419,
      "##허": 3420,
      "##랙": 3421,
      "##왜": 3422,
      "##디": 3423,
      "##끼": 3424,
      "##흐": 3425,
      "##병": 3426,
      "##ㅐ": 3427,
      "##쨔": 3428,
      "##갈": 3429,
      "##팀": 3430,
      "##겡": 3431,
      "##늨": 3432,
      "##셨": 3433,
      "##온": 3434,
      "##겄": 3435,
      "##처": 3436,
      "##표": 3437,
      "##럴": 3438,
      "##끝": 3439,
      "##차": 3440,
      "##피": 3441,
      "##친": 3442,
      "##참": 3443,
      "##엇": 3444,
      "##픙": 3445,
      "##련": 3446,
      "##센": 3447,
      "##획": 3448,
      "##본": 3449,
      "##댓": 3450,
      "##첫": 3451,
      "##뭔": 3452,
      "##줬": 3453,
      "##랄": 3454,
      "##군": 3455,
      "##편": 3456,
      "##봣": 3457,
      "##멋": 3458,
      "##변": 3459,
      "##갘": 3460,
      "##z": 3461,
      "##틀": 3462,
      "##암": 3463,
      "##눈": 3464,
      "##욷": 3465,
      "##룬": 3466,
      "##깤": 3467,
      "##쉽": 3468,
      "##닐": 3469,
      "##랔": 3470,
      "##액": 3471,
      "##❄": 3472,
      "##딩": 3473,
      "##ㅡ": 3474,
      "##왤": 3475,
      "##흠": 3476,
      "##찍": 3477,
      "##율": 3478,
      "##합": 3479,
      "##댠": 3480,
      "##k": 3481,
      "##썼": 3482,
      "##둣": 3483,
      "##늦": 3484,
      "##익": 3485,
      "##잖": 3486,
      "##망": 3487,
      "##닝": 3488,
      "##둔": 3489,
      "##셔": 3490,
      "##꼬": 3491,
      "##며": 3492,
      "##엥": 3493,
      "##출": 3494,
      "##됐": 3495,
      "##h": 3496,
      "##란": 3497,
      "##욤": 3498,
      "##꾸": 3499,
      "##봐": 3500,
      "##찡": 3501,
      "##절": 3502,
      "##눙": 3503,
      "##확": 3504,
      "##률": 3505,
      "##취": 3506,
      "##댐": 3507,
      "##옄": 3508,
      "##잤": 3509,
      "##렜": 3510,
      "##살": 3511,
      "##폴": 3512,
      "##뱅": 3513,
      "##넷": 3514,
      "##끈": 3515,
      "##텐": 3516,
      "##밸": 3517,
      "##홈": 3518,
      "##몬": 3519,
      "##언": 3520,
      "##푼": 3521,
      "##엨": 3522,
      "##김": 3523,
      "##삿": 3524,
      "##v": 3525,
      "##칰": 3526,
      "##짓": 3527,
      "##닷": 3528,
      "##엽": 3529,
      "##충": 3530,
      "##됨": 3531,
      "##쿠": 3532,
      "##밥": 3533,
      "##끊": 3534,
      "##약": 3535,
      "##T": 3536,
      "##A": 3537,
      "##Y": 3538,
      "##몰": 3539,
      "##손": 3540,
      "##톱": 3541,
      "##녁": 3542,
      "##룎": 3543,
      "##솔": 3544,
      "##늉": 3545,
      "##뺄": 3546,
      "##셈": 3547,
      "##☆": 3548,
      "##급": 3549,
      "##션": 3550,
      "##b": 3551,
      "##팟": 3552,
      "##퍼": 3553,
      "##쟠": 3554,
      "##X": 3555,
      "##D": 3556,
      "##Z": 3557,
      "##결": 3558,
      "##새": 3559,
      "##블": 3560,
      "##얔": 3561,
      "##왕": 3562,
      "##맘": 3563,
      "##품": 3564,
      "##씀": 3565,
      "##뻐": 3566,
      "##휘": 3567,
      "##픂": 3568,
      "##퓨": 3569,
      "##핏": 3570,
      "##별": 3571,
      "##득": 3572,
      "##봤": 3573,
      "##태": 3574,
      "##짐": 3575,
      "##렬": 3576,
      "##ㅑ": 3577,
      "##퍄": 3578,
      "##벤": 3579,
      "##몸": 3580,
      "##쁨": 3581,
      "##뻔": 3582,
      "##발": 3583,
      "##값": 3584,
      "##썽": 3585,
      "##쁠": 3586,
      "##왔": 3587,
      "##럭": 3588,
      "##열": 3589,
      "##불": 3590,
      "##홤": 3591,
      "##갔": 3592,
      "##쑥": 3593,
      "##굼": 3594,
      "##쪽": 3595,
      "##혁": 3596,
      "##빵": 3597,
      "##혐": 3598,
      "##×": 3599,
      "##H": 3600,
      "##웠": 3601,
      "##졍": 3602,
      "##놈": 3603,
      "##매": 3604,
      "##톡": 3605,
      "##헤": 3606,
      "##힝": 3607,
      "##낼": 3608,
      "##켰": 3609,
      "##락": 3610,
      "##투": 3611,
      "##귀": 3612,
      "##웡": 3613,
      "##얻": 3614,
      "##퇴": 3615,
      "##겼": 3616,
      "##뉘": 3617,
      "##즌": 3618,
      "##컬": 3619,
      "##젠": 3620,
      "##닭": 3621,
      "##짝": 3622,
      "##묘": 3623,
      "##첵": 3624,
      "##뺏": 3625,
      "##뿡": 3626,
      "##껀": 3627,
      "##침": 3628,
      "##욱": 3629,
      "##컴": 3630,
      "##캡": 3631,
      "##톤": 3632,
      "##곸": 3633,
      "##씹": 3634,
      "##펌": 3635,
      "##핵": 3636,
      "##쪼": 3637,
      "##겤": 3638,
      "##툰": 3639,
      "##억": 3640,
      "##곤": 3641,
      "##끄": 3642,
      "##쥬": 3643,
      "##즁": 3644,
      "##광": 3645,
      "##줫": 3646,
      "##송": 3647,
      "##채": 3648,
      "##찰": 3649,
      "##싸": 3650,
      "##벌": 3651,
      "##윈": 3652,
      "##팔": 3653,
      "##싱": 3654,
      "##c": 3655,
      "##푸": 3656,
      "##뒷": 3657,
      "##밍": 3658,
      "##듀": 3659,
      "##빔": 3660,
      "##멍": 3661,
      "##났": 3662,
      "##헣": 3663,
      "##킹": 3664,
      "##루": 3665,
      "##외": 3666,
      "##7": 3667,
      "##G": 3668,
      "##긱": 3669,
      "##굳": 3670,
      "##좋": 3671,
      "##압": 3672,
      "##쥐": 3673,
      "##곧": 3674,
      "##혼": 3675,
      "##뗘": 3676,
      "##퍽": 3677,
      "##빴": 3678,
      "##쫌": 3679,
      "##댈": 3680,
      "##짱": 3681,
      "##얃": 3682,
      "##젯": 3683,
      "##햄": 3684,
      "##길": 3685,
      "##쳤": 3686,
      "##ㅗ": 3687,
      "##탈": 3688,
      "##밈": 3689,
      "##렐": 3690,
      "##패": 3691,
      "##귐": 3692,
      "##렀": 3693,
      "##황": 3694,
      "##슷": 3695,
      "##듣": 3696,
      "##측": 3697,
      "##쨌": 3698,
      "##죄": 3699,
      "##쉬": 3700,
      "##쌍": 3701,
      "##맥": 3702,
      "##백": 3703,
      "##핍": 3704,
      "##갸": 3705,
      "##쒸": 3706,
      "##쏙": 3707,
      "##헹": 3708,
      "##찮": 3709,
      "##흑": 3710,
      "##짤": 3711,
      "##꿔": 3712,
      "##ㅆ": 3713,
      "##봄": 3714,
      "##활": 3715,
      "##격": 3716,
      "##놉": 3717,
      "##향": 3718,
      "##쎄": 3719,
      "##괜": 3720,
      "##촉": 3721,
      "##객": 3722,
      "##뷰": 3723,
      "##슬": 3724,
      "##떻": 3725,
      "##텡": 3726,
      "##껴": 3727,
      "##즈": 3728,
      "##릇": 3729,
      "##쟝": 3730,
      "##릉": 3731,
      "##탑": 3732,
      "##꿈": 3733,
      "##브": 3734,
      "##먄": 3735,
      "##법": 3736,
      "##큼": 3737,
      "##놨": 3738,
      "##규": 3739,
      "##핰": 3740,
      "##궁": 3741,
      "##닿": 3742,
      "##헐": 3743,
      "##칼": 3744,
      "##닥": 3745,
      "##헀": 3746,
      "##첨": 3747,
      "##롯": 3748,
      "##립": 3749,
      "##웬": 3750,
      "##냉": 3751,
      "##슴": 3752,
      "##받": 3753,
      "##꼼": 3754,
      "##술": 3755,
      "##줌": 3756,
      "##즐": 3757,
      "##쭈": 3758,
      "##펭": 3759,
      "##념": 3760,
      "##뤄": 3761,
      "##넉": 3762,
      "##콘": 3763,
      "##맙": 3764,
      "##춰": 3765,
      "##찾": 3766,
      "##띀": 3767,
      "##봉": 3768,
      "##텔": 3769,
      "##묜": 3770,
      "##환": 3771,
      "##뒤": 3772,
      "##튜": 3773,
      "##O": 3774,
      "##딴": 3775,
      "##슨": 3776,
      "##균": 3777,
      "##닙": 3778,
      "##꿉": 3779,
      "##y": 3780,
      "##꺄": 3781,
      "##끗": 3782,
      "##베": 3783,
      "##숨": 3784,
      "##j": 3785,
      "##므": 3786,
      "##쎀": 3787,
      "##겈": 3788,
      "##샤": 3789,
      "##뾰": 3790,
      "##탓": 3791,
      "##커": 3792,
      "##놬": 3793,
      "##딸": 3794,
      "##놰": 3795,
      "##탔": 3796,
      "##줏": 3797,
      "##칭": 3798,
      "##껍": 3799,
      "##싼": 3800,
      "##얀": 3801,
      "##뽕": 3802,
      "##축": 3803,
      "##햌": 3804,
      "##렁": 3805,
      "##팡": 3806,
      "##덕": 3807,
      "##턴": 3808,
      "##염": 3809,
      "##될": 3810,
      "##붘": 3811,
      "##팩": 3812,
      "##똥": 3813,
      "##녕": 3814,
      "##쟁": 3815,
      "##떰": 3816,
      "##떴": 3817,
      "##궄": 3818,
      "##풀": 3819,
      "##곱": 3820,
      "##숑": 3821,
      "##링": 3822,
      "##렛": 3823,
      "##츠": 3824,
      "##엘": 3825,
      "##숲": 3826,
      "##❣": 3827,
      "##💖": 3828,
      "##쩔": 3829,
      "##꼈": 3830,
      "##깡": 3831,
      "##컨": 3832,
      "##랟": 3833,
      "##쁜": 3834,
      "##육": 3835,
      "##혈": 3836,
      "##총": 3837,
      "##B": 3838,
      "##쟤": 3839,
      "##뜀": 3840,
      "##창": 3841,
      "##턱": 3842,
      "##훨": 3843,
      "##씬": 3844,
      "##필": 3845,
      "##낮": 3846,
      "##벗": 3847,
      "##릌": 3848,
      "##픔": 3849,
      "##춟": 3850,
      "##샵": 3851,
      "##뮬": 3852,
      "##닼": 3853,
      "##냌": 3854,
      "##섬": 3855,
      "##롬": 3856,
      "##닫": 3857,
      "##녔": 3858,
      "##븐": 3859,
      "##힐": 3860,
      "##갠": 3861,
      "##순": 3862,
      "##궜": 3863,
      "##벽": 3864,
      "##떵": 3865,
      "##뮤": 3866,
      "##웹": 3867,
      "##먼": 3868,
      "##앱": 3869,
      "##찬": 3870,
      "##힌": 3871,
      "##폅": 3872,
      "##싁": 3873,
      "##썬": 3874,
      "##빌": 3875,
      "##힠": 3876,
      "##읔": 3877,
      "##권": 3878,
      "##츄": 3879,
      "##돜": 3880,
      "##뒝": 3881,
      "##묶": 3882,
      "##풍": 3883,
      "##섰": 3884,
      "##멈": 3885,
      "##㎞": 3886,
      "##깨": 3887,
      "##딜": 3888,
      "##껭": 3889,
      "##융": 3890,
      "##렉": 3891,
      "##핑": 3892,
      "##뚝": 3893,
      "##뀌": 3894,
      "##섯": 3895,
      "##앜": 3896,
      "##낰": 3897,
      "##렴": 3898,
      "##왱": 3899,
      "##캥": 3900,
      "##킴": 3901,
      "##릿": 3902,
      "##높": 3903,
      "##껨": 3904,
      "##P": 3905,
      "##I": 3906,
      "##숴": 3907,
      "##킬": 3908,
      "##낚": 3909,
      "##욖": 3910,
      "##캉": 3911,
      "##잼": 3912,
      "##듬": 3913,
      "##룩": 3914,
      "##껑": 3915,
      "##랰": 3916,
      "##눠": 3917,
      "##굴": 3918,
      "##빨": 3919,
      "##슥": 3920,
      "##🙆": 3921,
      "##♀": 3922,
      "##️": 3923,
      "##쇼": 3924,
      "##됑": 3925,
      "##욘": 3926,
      "##읽": 3927,
      "##삐": 3928,
      "##빅": 3929,
      "##둬": 3930,
      "##뺴": 3931,
      "##벅": 3932,
      "##😎": 3933,
      "##됴": 3934,
      "##콬": 3935,
      "##책": 3936,
      "##짠": 3937,
      "##혔": 3938,
      "##겸": 3939,
      "##껄": 3940,
      "##쟡": 3941,
      "##털": 3942,
      "##캔": 3943,
      "##램": 3944,
      "##옷": 3945,
      "##답": 3946,
      "##릭": 3947,
      "##깈": 3948,
      "##랜": 3949,
      "##핀": 3950,
      "##떤": 3951,
      "##핶": 3952,
      "##듕": 3953,
      "##쿤": 3954,
      "##q": 3955,
      "##멱": 3956,
      "##숯": 3957,
      "##텍": 3958,
      "##띵": 3959,
      "##훅": 3960,
      "##틔": 3961,
      "##욥": 3962,
      "##뫄": 3963,
      "##샷": 3964,
      "##셉": 3965,
      "##뜯": 3966,
      "##밌": 3967,
      "##흰": 3968,
      "##냤": 3969,
      "##핳": 3970,
      "##뻤": 3971,
      "##탸": 3972,
      "##춘": 3973,
      "##탕": 3974,
      "##텼": 3975,
      "##귣": 3976,
      "##┳": 3977,
      "##붓": 3978,
      "##ㅃ": 3979,
      "##탁": 3980,
      "##떳": 3981,
      "##슙": 3982,
      "##탱": 3983,
      "##챙": 3984,
      "##뇌": 3985,
      "##홧": 3986,
      "##홉": 3987,
      "##떸": 3988,
      "##쌤": 3989,
      "##댘": 3990,
      "##콤": 3991,
      "##흘": 3992,
      "##캠": 3993,
      "##극": 3994,
      "##눔": 3995,
      "##퀘": 3996,
      "##펴": 3997,
      "##댁": 3998,
      "##긷": 3999,
      "##틴": 4000,
      "##엑": 4001,
      "##꿨": 4002,
      "##틈": 4003,
      "##푹": 4004,
      "##먐": 4005,
      "##곀": 4006,
      "##옼": 4007,
      "##웨": 4008,
      "##짴": 4009,
      "##랏": 4010,
      "##빈": 4011,
      "##닮": 4012,
      "##맠": 4013,
      "##뼈": 4014,
      "##례": 4015,
      "##챂": 4016,
      "##덥": 4017,
      "##궉": 4018,
      "##튀": 4019,
      "##셤": 4020,
      "##좌": 4021,
      "##겐": 4022,
      "##냬": 4023,
      "##뜌": 4024,
      "##붙": 4025,
      "##뭉": 4026,
      "##F": 4027,
      "##빛": 4028,
      "##붕": 4029,
      "##늗": 4030,
      "##낸": 4031,
      "##빼": 4032,
      "##짖": 4033,
      "##갱": 4034,
      "##겹": 4035,
      "##캐": 4036,
      "##팽": 4037,
      "##쭉": 4038,
      "##폭": 4039,
      "##깝": 4040,
      "##M": 4041,
      "##🤸": 4042,
      "##왼": 4043,
      "##ㅉ": 4044,
      "##ㅢ": 4045,
      "##밑": 4046,
      "##꿋": 4047,
      "##웟": 4048,
      "##땀": 4049,
      "##겉": 4050,
      "##낑": 4051,
      "##횽": 4052,
      "##맣": 4053,
      "##싯": 4054,
      "##췄": 4055,
      "##왠": 4056,
      "##쏴": 4057,
      "##녜": 4058,
      "##헉": 4059,
      "##쪙": 4060,
      "##귝": 4061,
      "##숙": 4062,
      "##뎁": 4063,
      "##ㅕ": 4064,
      "##컷": 4065,
      "##잇": 4066,
      "##엎": 4067,
      "##릎": 4068,
      "##벳": 4069,
      "##댄": 4070,
      "##꽤": 4071,
      "##꾼": 4072,
      "##멘": 4073,
      "##혜": 4074,
      "##캣": 4075,
      "##ㅚ": 4076,
      "##헷": 4077,
      "##옆": 4078,
      "##춥": 4079,
      "##멩": 4080,
      "##룹": 4081,
      "##롰": 4082,
      "##갓": 4083,
      "##낄": 4084,
      "##푠": 4085,
      "##폐": 4086,
      "##똑": 4087,
      "##칵": 4088,
      "##덜": 4089,
      "##컹": 4090,
      "##쟀": 4091,
      "##낟": 4092,
      "##💦": 4093,
      "##👅": 4094,
      "##믹": 4095,
      "##죵": 4096,
      "##삶": 4097,
      "##뿔": 4098,
      "##뤠": 4099,
      "##룰": 4100,
      "##갖": 4101,
      "##뎀": 4102,
      "##뷴": 4103,
      "##R": 4104,
      "##엣": 4105,
      "##갼": 4106,
      "##끌": 4107,
      "##둥": 4108,
      "##층": 4109,
      "##쾌": 4110,
      "##샀": 4111,
      "##롷": 4112,
      "##욌": 4113,
      "##쯉": 4114,
      "##쏘": 4115,
      "##뤃": 4116,
      "##싰": 4117,
      "##힣": 4118,
      "##펀": 4119,
      "##십": 4120,
      "##왓": 4121,
      "##믿": 4122,
      "##곰": 4123,
      "##랸": 4124,
      "##볶": 4125,
      "##갇": 4126,
      "##굽": 4127,
      "##썩": 4128,
      "##얄": 4129,
      "##칫": 4130,
      "##벼": 4131,
      "##혹": 4132,
      "##뚜": 4133,
      "##않": 4134,
      "##넥": 4135,
      "##🤔": 4136,
      "##굣": 4137,
      "##쑤": 4138,
      "##E": 4139,
      "##뵤": 4140,
      "##잔": 4141,
      "##렵": 4142,
      "##흥": 4143,
      "##협": 4144,
      "##앀": 4145,
      "##쪔": 4146,
      "##걔": 4147,
      "##햤": 4148,
      "##찢": 4149,
      "##퓸": 4150,
      "##찆": 4151,
      "##쯰": 4152,
      "##렌": 4153,
      "##뿅": 4154,
      "##뜸": 4155,
      "##쿡": 4156,
      "##뉸": 4157,
      "##욬": 4158,
      "##뱍": 4159,
      "##붐": 4160,
      "##셍": 4161,
      "##렝": 4162,
      "##륵": 4163,
      "##얍": 4164,
      "##럄": 4165,
      "##옮": 4166,
      "##넝": 4167,
      "##홀": 4168,
      "##숫": 4169,
      "##쁰": 4170,
      "##찝": 4171,
      "##눅": 4172,
      "##묻": 4173,
      "##둠": 4174,
      "##셀": 4175,
      "##넫": 4176,
      "##킼": 4177,
      "##뇽": 4178,
      "##힉": 4179,
      "##줭": 4180,
      "##😂": 4181,
      "##뚠": 4182,
      "##눜": 4183,
      "##ጿ": 4184,
      "##숭": 4185,
      "##핡": 4186,
      "##뒀": 4187,
      "##둡": 4188,
      "##❤": 4189,
      "##헛": 4190,
      "##펙": 4191,
      "##겯": 4192,
      "##앗": 4193,
      "##쇠": 4194,
      "##ㄳ": 4195,
      "##셜": 4196,
      "##묵": 4197,
      "##맷": 4198,
      "##핬": 4199,
      "##ㅘ": 4200,
      "##컵": 4201,
      "##멤": 4202,
      "##튿": 4203,
      "##쩐": 4204,
      "##몀": 4205,
      "##겍": 4206,
      "##닉": 4207,
      "##갤": 4208,
      "##😵": 4209,
      "##챀": 4210,
      "##흔": 4211,
      "##랍": 4212,
      "##뒹": 4213,
      "##뉴": 4214,
      "##펐": 4215,
      "##눌": 4216,
      "##챴": 4217,
      "##젬": 4218,
      "##깜": 4219,
      "##몽": 4220,
      "##셬": 4221,
      "##덴": 4222,
      "##ㅙ": 4223,
      "##봨": 4224,
      "##칩": 4225,
      "##폼": 4226,
      "##V": 4227,
      "##뗐": 4228,
      "##얽": 4229,
      "##퀴": 4230,
      "##쨰": 4231,
      "##팁": 4232,
      "##쉘": 4233,
      "##J": 4234,
      "##팝": 4235,
      "##벡": 4236,
      "##쎈": 4237,
      "##꽈": 4238,
      "##짬": 4239,
      "##잭": 4240,
      "##꿍": 4241,
      "##렦": 4242,
      "##쌐": 4243,
      "##U": 4244,
      "##냄": 4245,
      "##쿜": 4246,
      "##뜻": 4247,
      "##샐": 4248,
      "##ㅖ": 4249,
      "##뎤": 4250,
      "##옥": 4251,
      "##쩡": 4252,
      "##듴": 4253,
      "##섞": 4254,
      "##겎": 4255,
      "##켓": 4256,
      "##됩": 4257,
      "##벙": 4258,
      "##띾": 4259,
      "##덬": 4260,
      "##렘": 4261,
      "##쩜": 4262,
      "##멀": 4263,
      "##랩": 4264,
      "##쬬": 4265,
      "##쌀": 4266,
      "##깎": 4267,
      "##녘": 4268,
      "##듦": 4269,
      "##넺": 4270,
      "##햇": 4271,
      "##얶": 4272,
      "##끕": 4273,
      "##갬": 4274,
      "##★": 4275,
      "##샌": 4276,
      "##읗": 4277,
      "##짇": 4278,
      "##쐬": 4279,
      "##뷔": 4280,
      "##썹": 4281,
      "##뿨": 4282,
      "##쫙": 4283,
      "##꼭": 4284,
      "##썰": 4285,
      "##빜": 4286,
      "##륜": 4287,
      "##앟": 4288,
      "##읋": 4289,
      "##뚱": 4290,
      "##륭": 4291,
      "##깄": 4292,
      "##떼": 4293,
      "##쉭": 4294,
      "##헝": 4295,
      "##읭": 4296,
      "##귿": 4297,
      "##뎡": 4298,
      "##궈": 4299,
      "##쬐": 4300,
      "##잗": 4301,
      "##욧": 4302,
      "##L": 4303,
      "##얏": 4304,
      "##펑": 4305,
      "##헠": 4306,
      "##👌": 4307,
      "##씸": 4308,
      "##폈": 4309,
      "##뜬": 4310,
      "##잏": 4311,
      "##둑": 4312,
      "##셓": 4313,
      "##🔥": 4314,
      "##딨": 4315,
      "##왛": 4316,
      "##♂": 4317,
      "##쟐": 4318,
      "##💰": 4319,
      "##덤": 4320,
      "##샊": 4321,
      "##텝": 4322,
      "##팍": 4323,
      "##꼰": 4324,
      "##낫": 4325,
      "##픽": 4326,
      "##쁀": 4327,
      "##돰": 4328,
      "##팜": 4329,
      "##윤": 4330,
      "##썸": 4331,
      "##훠": 4332,
      "##꽂": 4333,
      "##낯": 4334,
      "##닦": 4335,
      "##옝": 4336,
      "##롕": 4337,
      "##탠": 4338,
      "##쇄": 4339,
      "##깟": 4340,
      "##삣": 4341,
      "##깊": 4342,
      "##쿅": 4343,
      "##뼛": 4344,
      "##훟": 4345,
      "##봥": 4346,
      "##뻥": 4347,
      "##ㄲ": 4348,
      "##떄": 4349,
      "##봅": 4350,
      "##벜": 4351,
      "##댝": 4352,
      "##껐": 4353,
      "##딕": 4354,
      "##샸": 4355,
      "##쏠": 4356,
      "##팠": 4357,
      "##땃": 4358,
      "##쉗": 4359,
      "##쉑": 4360,
      "##💕": 4361,
      "##셋": 4362,
      "##뚤": 4363,
      "##뇨": 4364,
      "##넠": 4365,
      "##훙": 4366,
      "##깬": 4367,
      "##챘": 4368,
      "##쯈": 4369,
      "##킥": 4370,
      "##훈": 4371,
      "##쪜": 4372,
      "##렙": 4373,
      "##훔": 4374,
      "##♥": 4375,
      "##돋": 4376,
      "##괄": 4377,
      "##텨": 4378,
      "##덮": 4379,
      "##삽": 4380,
      "##훗": 4381,
      "##농": 4382,
      "##냔": 4383,
      "##샛": 4384,
      "##텀": 4385,
      "##샴": 4386,
      "##뜩": 4387,
      "##죻": 4388,
      "##ㄺ": 4389,
      "##짧": 4390,
      "##쥰": 4391,
      "##룡": 4392,
      "##쀼": 4393,
      "##븀": 4394,
      "##꽃": 4395,
      "##잎": 4396,
      "##엮": 4397,
      "##쫄": 4398,
      "##읎": 4399,
      "##뻑": 4400,
      "##옵": 4401,
      "##읶": 4402,
      "##졐": 4403,
      "##덩": 4404,
      "##졓": 4405,
      "##갚": 4406,
      "##뀜": 4407,
      "##핥": 4408,
      "##짯": 4409,
      "##튭": 4410,
      "##귘": 4411,
      "##긍": 4412,
      "##쭁": 4413,
      "##꽁": 4414,
      "##즉": 4415,
      "##듢": 4416,
      "##랚": 4417,
      "##눕": 4418,
      "##콩": 4419,
      "##챠": 4420,
      "##냅": 4421,
      "##딪": 4422,
      "##땤": 4423,
      "##밋": 4424,
      "##댇": 4425,
      "##빙": 4426,
      "##쭤": 4427,
      "##앨": 4428,
      "##흉": 4429,
      "##곳": 4430,
      "##쿨": 4431,
      "##겜": 4432,
      "##쓱": 4433,
      "##룽": 4434,
      "##듭": 4435,
      "##핸": 4436,
      "##옶": 4437,
      "##렷": 4438,
      "##챱": 4439,
      "##쉣": 4440,
      "##눼": 4441,
      "##쌋": 4442,
      "##훼": 4443,
      "##겟": 4444,
      "##맡": 4445,
      "##쿵": 4446,
      "##긐": 4447,
      "##샏": 4448,
      "##콜": 4449,
      "##귄": 4450,
      "##릅": 4451,
      "##쓴": 4452,
      "##👀": 4453,
      "##💯": 4454,
      "##🌡": 4455,
      "##🌝": 4456,
      "##🌞": 4457,
      "##헥": 4458,
      "##헫": 4459,
      "##첩": 4460,
      "##볻": 4461,
      "##켕": 4462,
      "##낙": 4463,
      "##뇸": 4464,
      "##쳥": 4465,
      "##쉐": 4466,
      "##듨": 4467,
      "##꼳": 4468,
      "##럈": 4469,
      "##륑": 4470,
      "##쥼": 4471,
      "##밴": 4472,
      "##🥺": 4473,
      "##쫓": 4474,
      "##뷸": 4475,
      "##킷": 4476,
      "##땽": 4477,
      "##찯": 4478,
      "##껰": 4479,
      "##쨩": 4480,
      "##룸": 4481,
      "##싣": 4482,
      "##겻": 4483,
      "##귭": 4484,
      "##덱": 4485,
      "##샹": 4486,
      "##빽": 4487,
      "##봬": 4488,
      "##쩝": 4489,
      "##뭠": 4490,
      "##늄": 4491,
      "##뜰": 4492,
      "##툥": 4493,
      "##냘": 4494,
      "##윙": 4495,
      "##닞": 4496,
      "##솟": 4497,
      "##볍": 4498,
      "##눗": 4499,
      "##낀": 4500,
      "##롸": 4501,
      "##얜": 4502,
      "##땠": 4503,
      "##둉": 4504,
      "##뀰": 4505,
      "##숩": 4506,
      "##곗": 4507,
      "##툭": 4508,
      "##맿": 4509,
      "##핌": 4510,
      "##◀": 4511,
      "##▶": 4512,
      "##엠": 4513,
      "##찔": 4514,
      "##졈": 4515,
      "##찻": 4516,
      "##샘": 4517,
      "##싷": 4518,
      "##춤": 4519,
      "##캤": 4520,
      "##뻘": 4521,
      "##샥": 4522,
      "##솨": 4523,
      "##씰": 4524,
      "##쌌": 4525,
      "##넄": 4526,
      "##쒀": 4527,
      "##믄": 4528,
      "##쨬": 4529,
      "##쌉": 4530,
      "##봒": 4531,
      "##휼": 4532,
      "##펄": 4533,
      "##뮹": 4534,
      "##K": 4535,
      "##넛": 4536,
      "##잊": 4537,
      "##랕": 4538,
      "##맵": 4539,
      "##뀐": 4540,
      "##흡": 4541,
      "##듈": 4542,
      "##뙈": 4543,
      "##숍": 4544,
      "##밬": 4545,
      "##뇬": 4546,
      "##앚": 4547,
      "##햊": 4548,
      "##땨": 4549,
      "##쮸": 4550,
      "##넓": 4551,
      "##믐": 4552,
      "##짛": 4553,
      "##썅": 4554,
      "##ᗜ": 4555,
      "##ᵔ": 4556,
      "##좁": 4557,
      "##얐": 4558,
      "##묭": 4559,
      "##딬": 4560,
      "##쉅": 4561,
      "##늠": 4562,
      "##됔": 4563,
      "##펜": 4564,
      "##쾅": 4565,
      "##킵": 4566,
      "##슌": 4567,
      "##밝": 4568,
      "##댑": 4569,
      "##쉴": 4570,
      "##겅": 4571,
      "##꼽": 4572,
      "##똠": 4573,
      "##캄": 4574,
      "##슉": 4575,
      "##잨": 4576,
      "##춍": 4577,
      "##😘": 4578,
      "##룻": 4579,
      "##헿": 4580,
      "##쟜": 4581,
      "##넜": 4582,
      "##쌈": 4583,
      "##씌": 4584,
      "##퓰": 4585,
      "##÷": 4586,
      "##텅": 4587,
      "##햔": 4588,
      "##탹": 4589,
      "##뚀": 4590,
      "##잦": 4591,
      "##춌": 4592,
      "##얇": 4593,
      "##젼": 4594,
      "##럿": 4595,
      "##윳": 4596,
      "##풋": 4597,
      "##돟": 4598,
      "##팦": 4599,
      "##긔": 4600,
      "##봇": 4601,
      "##툴": 4602,
      "##쌓": 4603,
      "##챡": 4604,
      "##볔": 4605,
      "##뎐": 4606,
      "##윰": 4607,
      "##걌": 4608,
      "##찤": 4609,
      "##걀": 4610,
      "##꺘": 4611,
      "##²": 4612,
      "##캬": 4613,
      "##벋": 4614,
      "##빧": 4615,
      "##탭": 4616,
      "##촘": 4617,
      "##뭣": 4618,
      "##깥": 4619,
      "##쿸": 4620,
      "##슝": 4621,
      "##뛰": 4622,
      "##😣": 4623,
      "##ㄸ": 4624,
      "##팰": 4625,
      "##넴": 4626,
      "##콴": 4627,
      "##핫": 4628,
      "##갷": 4629,
      "##읏": 4630,
      "##됌": 4631,
      "##Q": 4632,
      "##싴": 4633,
      "##렼": 4634,
      "##벚": 4635,
      "##흨": 4636,
      "##딧": 4637,
      "##뿜": 4638,
      "##쉰": 4639,
      "##졋": 4640,
      "##얗": 4641,
      "##탆": 4642,
      "##뎉": 4643,
      "##빤": 4644,
      "##젵": 4645,
      "##숰": 4646,
      "##쏭": 4647,
      "##읍": 4648,
      "##챌": 4649,
      "##뚕": 4650,
      "##넬": 4651,
      "##훌": 4652,
      "##앋": 4653,
      "##🙃": 4654,
      "##싹": 4655,
      "##큳": 4656,
      "##긁": 4657,
      "##됧": 4658,
      "##찼": 4659,
      "##켘": 4660,
      "##츤": 4661,
      "##싳": 4662,
      "##쯜": 4663,
      "##촬": 4664,
      "##덛": 4665,
      "##쳧": 4666,
      "##잃": 4667,
      "##셌": 4668,
      "##덟": 4669,
      "##슼": 4670,
      "##꺙": 4671,
      "##낱": 4672,
      "##뎬": 4673,
      "##먿": 4674,
      "##듷": 4675,
      "##쎰": 4676,
      "##쳨": 4677,
      "##헬": 4678,
      "##밟": 4679,
      "##섹": 4680,
      "##룯": 4681,
      "##😚": 4682,
      "##쩧": 4683,
      "##댙": 4684,
      "##찜": 4685,
      "##쥥": 4686,
      "##윽": 4687,
      "##욯": 4688,
      "##륨": 4689,
      "##늬": 4690,
      "##헑": 4691,
      "##킄": 4692,
      "##빕": 4693,
      "##뵙": 4694,
      "##솤": 4695,
      "##녇": 4696,
      "##잜": 4697,
      "##쥴": 4698,
      "##빱": 4699,
      "##웩": 4700,
      "##ㅒ": 4701,
      "##렂": 4702,
      "##녈": 4703,
      "##홓": 4704,
      "##챵": 4705,
      "##끙": 4706,
      "##걋": 4707,
      "##귤": 4708,
      "##꽝": 4709,
      "##볕": 4710,
      "##맼": 4711,
      "##랖": 4712,
      "##좆": 4713,
      "##쫀": 4714,
      "##쎠": 4715,
      "##콧": 4716,
      "##튬": 4717,
      "##빸": 4718,
      "##맄": 4719,
      "##찐": 4720,
      "##긹": 4721,
      "##돠": 4722,
      "##넀": 4723,
      "##틸": 4724,
      "##꺵": 4725,
      "##셥": 4726,
      "##겧": 4727,
      "##컸": 4728,
      "##챈": 4729,
      "##뀨": 4730,
      "##씾": 4731,
      "##뿍": 4732,
      "##땋": 4733,
      "##흫": 4734,
      "##뤘": 4735,
      "##꾹": 4736,
      "##톄": 4737,
      "##🎤": 4738,
      "##🎙": 4739,
      "##쮹": 4740,
      "##맴": 4741,
      "##끽": 4742,
      "##팤": 4743,
      "##덷": 4744,
      "##흎": 4745,
      "##왘": 4746,
      "##곽": 4747,
      "##옭": 4748,
      "##윗": 4749,
      "##삥": 4750,
      "##맺": 4751,
      "##쎁": 4752,
      "##툼": 4753,
      "##퉁": 4754,
      "##쫘": 4755,
      "##뱉": 4756,
      "##맑": 4757,
      "##ㄻ": 4758,
      "##쭛": 4759,
      "##귈": 4760,
      "##ㅄ": 4761,
      "##댤": 4762,
      "##홬": 4763,
      "##랗": 4764,
      "##혓": 4765,
      "##옽": 4766,
      "##븎": 4767,
      "##펠": 4768,
      "##쿻": 4769,
      "##췻": 4770,
      "##덌": 4771,
      "##줰": 4772,
      "##꽉": 4773,
      "##ኈ": 4774,
      "##밪": 4775,
      "##폄": 4776,
      "##짙": 4777,
      "##샅": 4778,
      "##탯": 4779,
      "##숏": 4780,
      "##딥": 4781,
      "##븉": 4782,
      "##푶": 4783,
      "##댗": 4784,
      "##솥": 4785,
      "##잣": 4786,
      "##햨": 4787,
      "##뱌": 4788,
      "##늙": 4789,
      "##뮨": 4790,
      "##앻": 4791,
      "##🎵": 4792,
      "##📌": 4793,
      "##웄": 4794,
      "##갗": 4795,
      "##넽": 4796,
      "##겔": 4797,
      "##랱": 4798,
      "##걐": 4799,
      "##젓": 4800,
      "##휽": 4801,
      "##튤": 4802,
      "##긓": 4803,
      "##뚫": 4804,
      "##똫": 4805,
      "##벆": 4806,
      "##깋": 4807,
      "##빗": 4808,
      "##옿": 4809,
      "##씁": 4810,
      "##꺅": 4811,
      "##뚁": 4812,
      "##퉈": 4813,
      "##젛": 4814,
      "##쟌": 4815,
      "##훍": 4816,
      "##뺐": 4817,
      "##뵈": 4818,
      "##뀬": 4819,
      "##랂": 4820,
      "##늫": 4821,
      "##밨": 4822,
      "##룠": 4823,
      "##걷": 4824,
      "##퐀": 4825,
      "##켐": 4826,
      "##쯔": 4827,
      "##끓": 4828,
      "##죰": 4829,
      "##릳": 4830,
      "##럅": 4831,
      "##슐": 4832,
      "##쿼": 4833,
      "##흙": 4834,
      "##팥": 4835,
      "##뺀": 4836,
      "##섀": 4837,
      "##밭": 4838,
      "##갯": 4839,
      "##섲": 4840,
      "##잫": 4841,
      "##뱃": 4842,
      "##💓": 4843,
      "##💝": 4844,
      "##앰": 4845,
      "##똔": 4846,
      "##푝": 4847,
      "##밧": 4848,
      "##및": 4849,
      "##힙": 4850,
      "##킿": 4851,
      "##괭": 4852,
      "##왁": 4853,
      "##👋": 4854,
      "##겥": 4855,
      "##젴": 4856,
      "##쨜": 4857,
      "##콕": 4858,
      "##쌰": 4859,
      "##휸": 4860,
      "##펍": 4861,
      "##넋": 4862,
      "##찹": 4863,
      "##얹": 4864,
      "##뉠": 4865,
      "##젺": 4866,
      "##↘": 4867,
      "##굩": 4868,
      "##뒈": 4869,
      "##돗": 4870,
      "##쪘": 4871,
      "##셐": 4872,
      "##솁": 4873,
      "##냫": 4874,
      "##퀄": 4875,
      "##껜": 4876,
      "##ㅟ": 4877,
      "##삘": 4878,
      "##읜": 4879,
      "##ㅝ": 4880,
      "##늰": 4881,
      "##읒": 4882,
      "##헴": 4883,
      "##😔": 4884,
      "##뽇": 4885,
      "##둗": 4886,
      "##맂": 4887,
      "##웜": 4888,
      "##봏": 4889,
      "##왝": 4890,
      "##냑": 4891,
      "##촐": 4892,
      "##넨": 4893,
      "##줍": 4894,
      "##귴": 4895,
      "##씯": 4896,
      "##땈": 4897,
      "##①": 4898,
      "##좤": 4899,
      "##📖": 4900,
      "##씽": 4901,
      "##줙": 4902,
      "##푀": 4903,
      "##갴": 4904,
      "##즛": 4905,
      "##짰": 4906,
      "##퐄": 4907,
      "##땍": 4908,
      "##✔": 4909,
      "##흗": 4910,
      "##걘": 4911,
      "##굉": 4912,
      "##웧": 4913,
      "##첰": 4914,
      "##쉿": 4915,
      "##쎙": 4916,
      "##굨": 4917,
      "##햏": 4918,
      "##앆": 4919,
      "##꼿": 4920,
      "##댣": 4921,
      "##윧": 4922,
      "##랃": 4923,
      "##돨": 4924,
      "##띄": 4925,
      "##튕": 4926,
      "##왴": 4927,
      "##젇": 4928,
      "##륽": 4929,
      "##돾": 4930,
      "##앸": 4931,
      "##켔": 4932,
      "##갹": 4933,
      "##ㅞ": 4934,
      "##쓔": 4935,
      "##츨": 4936,
      "##뭄": 4937,
      "##듄": 4938,
      "##깍": 4939,
      "##쯧": 4940,
      "##😱": 4941,
      "##샄": 4942,
      "##랳": 4943,
      "##쀄": 4944,
      "##껟": 4945,
      "##섣": 4946,
      "##덧": 4947,
      "##퓽": 4948,
      "##🎉": 4949,
      "##꿰": 4950,
      "##줔": 4951,
      "##롥": 4952,
      "##궐": 4953,
      "##켈": 4954,
      "##묨": 4955,
      "##멸": 4956,
      "##괨": 4957,
      "##콱": 4958,
      "##웎": 4959,
      "##퐁": 4960,
      "##붇": 4961,
      "##깆": 4962,
      "##렠": 4963,
      "##꼐": 4964,
      "##엫": 4965,
      "##쥘": 4966,
      "##펔": 4967,
      "##닛": 4968,
      "##뛔": 4969,
      "##곁": 4970,
      "##콸": 4971,
      "##칱": 4972,
      "##퓬": 4973,
      "##눴": 4974,
      "##챨": 4975,
      "##셧": 4976,
      "##힛": 4977,
      "##킌": 4978,
      "##귱": 4979,
      "##쨍": 4980,
      "##맬": 4981,
      "##쳌": 4982,
      "##줟": 4983,
      "##픜": 4984,
      "##슺": 4985,
      "##맏": 4986,
      "##앓": 4987,
      "##땄": 4988,
      "##놋": 4989,
      "##꽥": 4990,
      "##뎃": 4991,
      "##줚": 4992,
      "##→": 4993,
      "##쿄": 4994,
      "##헏": 4995,
      "##긌": 4996,
      "##댯": 4997,
      "##똣": 4998,
      "##핮": 4999,
      "##튱": 5000,
      "##굶": 5001,
      "##놩": 5002,
      "##앐": 5003,
      "##똘": 5004,
      "##큘": 5005,
      "##롣": 5006,
      "##뭌": 5007,
      "##낔": 5008,
      "##읻": 5009,
      "##옂": 5010,
      "##쳄": 5011,
      "##짼": 5012,
      "##졀": 5013,
      "##쟊": 5014,
      "##놐": 5015,
      "##😭": 5016,
      "##쿘": 5017,
      "##쬽": 5018,
      "##웁": 5019,
      "##텁": 5020,
      "##멂": 5021,
      "##홋": 5022,
      "##뤔": 5023,
      "##샾": 5024,
      "##띰": 5025,
      "##🤷": 5026,
      "##뽜": 5027,
      "##웋": 5028,
      "##놧": 5029,
      "##럌": 5030,
      "##턍": 5031,
      "##늑": 5032,
      "##텈": 5033,
      "##뀸": 5034,
      "##뢔": 5035,
      "##👈": 5036,
      "##륩": 5037,
      "##샼": 5038,
      "##맸": 5039,
      "##걑": 5040,
      "##괔": 5041,
      "##똨": 5042,
      "##🤮": 5043,
      "##뭇": 5044,
      "##햅": 5045,
      "##떽": 5046,
      "##젊": 5047,
      "##믓": 5048,
      "##챗": 5049,
      "##틍": 5050,
      "##뎄": 5051,
      "##쎃": 5052,
      "##힎": 5053,
      "##픅": 5054,
      "##넏": 5055,
      "##핼": 5056,
      "##햬": 5057,
      "##캌": 5058,
      "##햘": 5059,
      "##죴": 5060,
      "##쫑": 5061,
      "##꿧": 5062,
      "##댂": 5063,
      "##벟": 5064,
      "##캨": 5065,
      "##혘": 5066,
      "##갛": 5067,
      "##꿎": 5068,
      "##겓": 5069,
      "##됗": 5070,
      "##윔": 5071,
      "##밐": 5072,
      "##낳": 5073,
      "##큑": 5074,
      "##얖": 5075,
      "##🤬": 5076,
      "##탬": 5077,
      "##훵": 5078,
      "##싿": 5079,
      "##밉": 5080,
      "##👿": 5081,
      "##죙": 5082,
      "##왈": 5083,
      "##●": 5084,
      "##돔": 5085,
      "##몫": 5086,
      "##뿁": 5087,
      "##봌": 5088,
      "##쭘": 5089,
      "##츙": 5090,
      "##띡": 5091,
      "##낵": 5092,
      "##텄": 5093,
      "##쌩": 5094,
      "##웰": 5095,
      "##쐉": 5096,
      "##굿": 5097,
      "##숄": 5098,
      "##캍": 5099,
      "##굑": 5100,
      "##앎": 5101,
      "##젖": 5102,
      "##🙊": 5103,
      "##쿰": 5104,
      "##쥭": 5105,
      "##💗": 5106,
      "##💟": 5107,
      "##💞": 5108,
      "##톧": 5109,
      "##젙": 5110,
      "##숟": 5111,
      "##⠀": 5112,
      "##큭": 5113,
      "##탘": 5114,
      "##츈": 5115,
      "##퀸": 5116,
      "##옫": 5117,
      "##꾀": 5118,
      "##톳": 5119,
      "##쭐": 5120,
      "##몆": 5121,
      "##싑": 5122,
      "##엿": 5123,
      "##냣": 5124,
      "##갰": 5125,
      "##깁": 5126,
      "##틋": 5127,
      "##팸": 5128,
      "##롴": 5129,
      "##괘": 5130,
      "##짺": 5131,
      "##륄": 5132,
      "##텽": 5133,
      "##껳": 5134,
      "##챺": 5135,
      "##퍞": 5136,
      "##쇽": 5137,
      "##겪": 5138,
      "##탤": 5139,
      "##딯": 5140,
      "##녿": 5141,
      "##쮜": 5142,
      "##빚": 5143,
      "##곶": 5144,
      "##텤": 5145,
      "##댰": 5146,
      "##깠": 5147,
      "##륙": 5148,
      "##첳": 5149,
      "##딤": 5150,
      "##㎡": 5151,
      "##펃": 5152,
      "##옅": 5153,
      "##킁": 5154,
      "##땓": 5155,
      "##됏": 5156,
      "##밷": 5157,
      "##멜": 5158,
      "##댵": 5159,
      "##쏜": 5160,
      "##뛸": 5161,
      "##뱡": 5162,
      "##쳣": 5163,
      "##🖤": 5164,
      "##룜": 5165,
      "##칀": 5166,
      "##뫜": 5167,
      "##뛴": 5168,
      "##핟": 5169,
      "##뤳": 5170,
      "##샇": 5171,
      "##앧": 5172,
      "##맃": 5173,
      "##뎠": 5174,
      "##촵": 5175,
      "##믈": 5176,
      "##욨": 5177,
      "##컥": 5178,
      "##냇": 5179,
      "##҉": 5180,
      "##닺": 5181,
      "##짹": 5182,
      "##륳": 5183,
      "##📣": 5184,
      "##옦": 5185,
      "##벵": 5186,
      "##윸": 5187,
      "##엏": 5188,
      "##엊": 5189,
      "##붖": 5190,
      "##ㄽ": 5191,
      "##퀵": 5192,
      "##짢": 5193,
      "##♧": 5194,
      "##휙": 5195,
      "##힄": 5196,
      "##롹": 5197,
      "##줜": 5198,
      "##캘": 5199,
      "##곈": 5200,
      "##햒": 5201,
      "##킈": 5202,
      "##댴": 5203,
      "##먘": 5204,
      "##걉": 5205,
      "##흣": 5206,
      "##팼": 5207,
      "##궆": 5208,
      "##햑": 5209,
      "##횄": 5210,
      "##왇": 5211,
      "##챸": 5212,
      "##뤌": 5213,
      "##젹": 5214,
      "##꾜": 5215,
      "##뤼": 5216,
      "##큨": 5217,
      "##쳡": 5218,
      "##퍈": 5219,
      "##뗭": 5220,
      "##🤞": 5221,
      "##볽": 5222,
      "##📚": 5223,
      "##뽐": 5224,
      "##뺭": 5225,
      "##홯": 5226,
      "##쫃": 5227,
      "##뻗": 5228,
      "##닏": 5229,
      "##뤴": 5230,
      "##짚": 5231,
      "##곹": 5232,
      "##쟹": 5233,
      "##췌": 5234,
      "##뉑": 5235,
      "##왑": 5236,
      "##🥁": 5237,
      "##🎧": 5238,
      "##옳": 5239,
      "##ꉂ": 5240,
      "##꾤": 5241,
      "##뵁": 5242,
      "##😥": 5243,
      "##젱": 5244,
      "##⚠": 5245,
      "##븜": 5246,
      "##컫": 5247,
      "##멧": 5248,
      "##뭥": 5249,
      "##젍": 5250,
      "##🥰": 5251,
      "##벱": 5252,
      "##횟": 5253,
      "##죈": 5254,
      "##뀔": 5255,
      "##쪅": 5256,
      "##잍": 5257,
      "##❓": 5258,
      "##🚨": 5259,
      "##룐": 5260,
      "##즤": 5261,
      "##꿩": 5262,
      "##✍": 5263,
      "##쑴": 5264,
      "##랠": 5265,
      "##잳": 5266,
      "##땟": 5267,
      "##룟": 5268,
      "##뽚": 5269,
      "##괏": 5270,
      "##쁩": 5271,
      "##뱀": 5272,
      "##듐": 5273,
      "##옇": 5274,
      "##뉍": 5275,
      "##틐": 5276,
      "##뱔": 5277,
      "##윅": 5278,
      "##엗": 5279,
      "##쟨": 5280,
      "##묰": 5281,
      "##뀤": 5282,
      "##덯": 5283,
      "##뎝": 5284,
      "##🔞": 5285,
      "##뵨": 5286,
      "##겋": 5287,
      "##솓": 5288,
      "##녓": 5289,
      "##왂": 5290,
      "##솜": 5291,
      "##톼": 5292,
      "##멎": 5293,
      "##됸": 5294,
      "##▒": 5295,
      "##띁": 5296,
      "##툑": 5297,
      "##쨋": 5298,
      "##쎔": 5299,
      "##샬": 5300,
      "##핻": 5301,
      "##⑤": 5302,
      "##넵": 5303,
      "##🔊": 5304,
      "##🛎": 5305,
      "##큽": 5306,
      "##횤": 5307,
      "##몄": 5308,
      "##뻡": 5309,
      "##땝": 5310,
      "##덞": 5311,
      "##죤": 5312,
      "##땩": 5313,
      "##쒯": 5314,
      "##쳘": 5315,
      "##셖": 5316,
      "##👯": 5317,
      "##꺽": 5318,
      "##닁": 5319,
      "##긎": 5320,
      "##휭": 5321,
      "##쨨": 5322,
      "##굵": 5323,
      "##밗": 5324,
      "##츌": 5325,
      "##┻": 5326,
      "##봈": 5327,
      "##뺌": 5328,
      "##뉰": 5329,
      "##껗": 5330,
      "##늧": 5331,
      "##좇": 5332,
      "##햫": 5333,
      "##퍙": 5334,
      "##흩": 5335,
      "##럳": 5336,
      "##⍤": 5337,
      "##⃝": 5338,
      "##📢": 5339,
      "##쩄": 5340,
      "##럾": 5341,
      "##낗": 5342,
      "##꿇": 5343,
      "##좃": 5344,
      "##볏": 5345,
      "##궤": 5346,
      "##슘": 5347,
      "##땳": 5348,
      "##첸": 5349,
      "##앝": 5350,
      "##쳇": 5351,
      "##앾": 5352,
      "##톨": 5353,
      "##웻": 5354,
      "##랒": 5355,
      "##냿": 5356,
      "##몉": 5357,
      "##뮴": 5358,
      "##팣": 5359,
      "##굔": 5360,
      "##첼": 5361,
      "##홐": 5362,
      "##뒵": 5363,
      "##휠": 5364,
      "##팃": 5365,
      "##깉": 5366,
      "##뽈": 5367,
      "##💃": 5368,
      "##좡": 5369,
      "##믾": 5370,
      "##˙": 5371,
      "##줅": 5372,
      "##갂": 5373,
      "##🦈": 5374,
      "##🌊": 5375,
      "##💨": 5376,
      "##🍃": 5377,
      "##🌀": 5378,
      "##낶": 5379,
      "##뗙": 5380,
      "##춛": 5381,
      "##릏": 5382,
      "##쓩": 5383,
      "##▽": 5384,
      "##딖": 5385,
      "##펼": 5386,
      "##쌱": 5387,
      "##🤝": 5388,
      "##☀": 5389,
      "##🌈": 5390,
      "##즒": 5391,
      "##긲": 5392,
      "##섺": 5393,
      "##앍": 5394,
      "##땁": 5395,
      "##곪": 5396,
      "##껓": 5397,
      "##켛": 5398,
      "##깧": 5399,
      "##곬": 5400,
      "##캴": 5401,
      "##랶": 5402,
      "##홥": 5403,
      "##숀": 5404,
      "##븃": 5405,
      "##뺑": 5406,
      "##잩": 5407,
      "##혿": 5408,
      "##🏢": 5409,
      "##슭": 5410,
      "##낡": 5411,
      "##잰": 5412,
      "##켤": 5413,
      "##닣": 5414,
      "##퍜": 5415,
      "##됟": 5416,
      "##쒕": 5417,
      "##퍀": 5418,
      "##됮": 5419,
      "##쫍": 5420,
      "##웢": 5421,
      "##귬": 5422,
      "##깢": 5423,
      "##뙤": 5424,
      "##뚸": 5425,
      "##쮲": 5426,
      "##띨": 5427,
      "##싈": 5428,
      "##멕": 5429,
      "##뀓": 5430,
      "##읰": 5431,
      "##웉": 5432,
      "##뤈": 5433,
      "##톰": 5434,
      "##붸": 5435,
      "##샡": 5436,
      "##퉝": 5437,
      "##젘": 5438,
      "##씅": 5439,
      "##삑": 5440,
      "##ﾉ": 5441,
      "##먔": 5442,
      "##픃": 5443,
      "##뜛": 5444,
      "##헞": 5445,
      "##홰": 5446,
      "##뤵": 5447,
      "##갉": 5448,
      "##넊": 5449,
      "##맀": 5450,
      "##퉤": 5451,
      "##턷": 5452,
      "##앖": 5453,
      "##뾱": 5454,
      "##슦": 5455,
      "##햠": 5456,
      "##홱": 5457,
      "##븍": 5458,
      "##쬼": 5459,
      "##헨": 5460,
      "##ㄵ": 5461,
      "##댷": 5462,
      "##됄": 5463,
      "##릥": 5464,
      "##줗": 5465,
      "##뽁": 5466,
      "##퀭": 5467,
      "##뫵": 5468,
      "##듓": 5469,
      "##뽂": 5470,
      "##튁": 5471,
      "##📝": 5472,
      "##젭": 5473,
      "##멬": 5474,
      "##☝": 5475,
      "##뉼": 5476,
      "##엾": 5477,
      "##숗": 5478,
      "##읃": 5479,
      "##닪": 5480,
      "##쁳": 5481,
      "##읓": 5482,
      "##곻": 5483,
      "##잀": 5484,
      "##죸": 5485,
      "##웸": 5486,
      "##쨕": 5487,
      "##👉": 5488,
      "##ㅋㅋ": 5489,
      "##ㅋㅋㅋㅋ": 5490,
      "##ㅋㅋㅋㅋㅋㅋㅋㅋ": 5491,
      "##ㅋㅋㅋ": 5492,
      "ㅋㅋㅋㅋ": 5493,
      "##ㅠㅠ": 5494,
      "ㅋㅋㅋㅋㅋㅋㅋㅋㅋ": 5495,
      "댕이": 5496,
      "ㅋㅋㅋㅋㅋ": 5497,
      "##는데": 5498,
      "##ㅋㅋㅋㅋㅋㅋㅋㅋㅋㅋㅋㅋㅋㅋㅋㅋ": 5499,
      "아니": 5500,
      "##댕이": 5501,
      "ㅋㅋㅋㅋㅋㅋㅋㅋ": 5502,
      "##ㅠㅠㅠㅠ": 5503,
      "##에서": 5504,
      "댕아": 5505,
      "ㅠㅠ": 5506,
      "##니까": 5507,
      "ㅋㅋㅋㅋㅋㅋㅋㅋㅋㅋㅋㅋㅋ": 5508,
      "##으로": 5509,
      "내가": 5510,
      "근데": 5511,
      "##하는": 5512,
      "##ㅋㅋㅋㅋㅋㅋㅋㅋㅋㅋㅋㅋ": 5513,
      "##♡♡": 5514,
      "##댕아": 5515,
      "진짜": 5516,
      "##하고": 5517,
      "##다고": 5518,
      "생각": 5519,
      "웅냐": 5520,
      "ㅋㅋㅋㅋㅋㅋㅋㅋㅋㅋㅋㅋ": 5521,
      "사람": 5522,
      "그래": 5523,
      "웅웅": 5524,
      "##한테": 5525,
      "오늘": 5526,
      "ㅎㅎ": 5527,
      "##자나": 5528,
      "##으면": 5529,
      "##라고": 5530,
      "##지만": 5531,
      "##니다": 5532,
      "너무": 5533,
      "##까지": 5534,
      "지금": 5535,
      "##00": 5536,
      "##해서": 5537,
      "우리": 5538,
      "ㅋㅋㅋㅋㅋㅋ": 5539,
      "##하구": 5540,
      "##렇게": 5541,
      "##이야": 5542,
      "##내가": 5543,
      "##아니": 5544,
      "##하면": 5545,
      "이거": 5546,
      "##어서": 5547,
      "ㅋㅋㅋㅋㅋㅋㅋㅋㅋㅋㅋㅋㅋㅋㅋㅋㅋㅋㅋㅋㅋㅋㅋㅋㅋ": 5548,
      "##이라": 5549,
      "##근데": 5550,
      "ㅋㅋ": 5551,
      "##인데": 5552,
      "##다가": 5553,
      "이제": 5554,
      "그냥": 5555,
      "도착": 5556,
      "ㅋㅋㅋㅋㅋㅋㅋㅋㅋㅋㅋㅋㅋㅋㅋㅋㅋ": 5557,
      "ㅋㅋㅋㅋㅋㅋㅋ": 5558,
      "ㅠㅠㅠ": 5559,
      "하는": 5560,
      "##이랑": 5561,
      "하고": 5562,
      "ㅠㅠㅠㅠㅠ": 5563,
      "사랑": 5564,
      "있는": 5565,
      "들어": 5566,
      "##리고": 5567,
      "##그래": 5568,
      "그러": 5569,
      "타롱": 5570,
      "##다는": 5571,
      "모르": 5572,
      "그런": 5573,
      "ㅋㅋㅋㅋㅋㅋㅋㅋㅋㅋ": 5574,
      "댕이가": 5575,
      "같은": 5576,
      "그럼": 5577,
      "##ㄷㄷ": 5578,
      "##하지": 5579,
      "##부터": 5580,
      "##이거": 5581,
      "나도": 5582,
      "##면서": 5583,
      "##오늘": 5584,
      "##아아": 5585,
      "##하게": 5586,
      "##습니다": 5587,
      "##ㅋㅋㅋㅋㅋㅋ": 5588,
      "##ㅋㅋㅋㅋㅋ": 5589,
      "##아서": 5590,
      "오빠": 5591,
      "ㅋㅋㅋㅋㅋㅋㅋㅋㅋㅋㅋ": 5592,
      "##ㅎㅎ": 5593,
      "하나": 5594,
      "많이": 5595,
      "그거": 5596,
      "나는": 5597,
      "ㅋㅋㅋㅋㅋㅋㅋㅋㅋㅋㅋㅋㅋㅋㅋㅋ": 5598,
      "사진": 5599,
      "##ㅋㅋㅋㅋㅋㅋㅋ": 5600,
      "##겠다": 5601,
      "엄마": 5602,
      "##우리": 5603,
      "##진짜": 5604,
      "내일": 5605,
      "##해떠": 5606,
      "##거야": 5607,
      "같이": 5608,
      "##보다": 5609,
      "만나": 5610,
      "얘기": 5611,
      "일단": 5612,
      "##시간": 5613,
      "in": 5614,
      "ㅋㅋㅋㅋㅋㅋㅋㅋㅋㅋㅋㅋㅋㅋ": 5615,
      "##ㅏㅏ": 5616,
      "ㅜㅜ": 5617,
      "##들이": 5618,
      "나두": 5619,
      "보고": 5620,
      "문제": 5621,
      "##오오": 5622,
      "##너무": 5623,
      "##해야": 5624,
      "##이가": 5625,
      "그래서": 5626,
      "시간": 5627,
      "##in": 5628,
      "##잖아": 5629,
      "아냐": 5630,
      "언제": 5631,
      "이런": 5632,
      "##ㅋㅋㅋㅋㅋㅋㅋㅋㅋ": 5633,
      "그건": 5634,
      "있었": 5635,
      "잘자": 5636,
      "공부": 5637,
      "##이었": 5638,
      "하면": 5639,
      "있어": 5640,
      "해야": 5641,
      "##ㅋㅋㅋㅋㅋㅋㅋㅋㅋㅋ": 5642,
      "##지금": 5643,
      "##ㅋㅋㅋㅋㅋㅋㅋㅋㅋㅋㅋ": 5644,
      "##겠지": 5645,
      "회사": 5646,
      "##그냥": 5647,
      "##자기": 5648,
      "10": 5649,
      "##구나": 5650,
      "##이나": 5651,
      "ㅋㅋㅋㅋㅋㅋㅋㅋㅋㅋㅋㅋㅋㅋㅋ": 5652,
      "아직": 5653,
      "##이지": 5654,
      "고생": 5655,
      "ㅇㅇ": 5656,
      "아니라": 5657,
      "##이고": 5658,
      "##대로": 5659,
      "저나": 5660,
      "ㅋㅋㅋㅋㅋㅋㅋㅋㅋㅋㅋㅋㅋㅋㅋㅋㅋㅋㅋㅋㅋ": 5661,
      "##인가": 5662,
      "##해주": 5663,
      "퇴근": 5664,
      "좋아": 5665,
      "먹구": 5666,
      "보구": 5667,
      "##나는": 5668,
      "##ㅋㅋㅋㅋㅋㅋㅋㅋㅋㅋㅋㅋㅋㅋㅋㅋㅋㅋㅋㅋㅋㅋㅋㅋㅋㅋㅋㅋㅋㅋㅋㅋ": 5669,
      "##지고": 5670,
      "것도": 5671,
      "같아": 5672,
      "##ㅎㅋ": 5673,
      "안되": 5674,
      "##이는": 5675,
      "오구": 5676,
      "어디": 5677,
      "##지는": 5678,
      "##요일": 5679,
      "댕이는": 5680,
      "##리는": 5681,
      "힝구": 5682,
      "있을": 5683,
      "저거": 5684,
      "##ㅌㅌ": 5685,
      "그렇": 5686,
      "만들": 5687,
      "##사랑": 5688,
      "다시": 5689,
      "져아": 5690,
      "알아": 5691,
      "##댕이가": 5692,
      "이러": 5693,
      "##하는데": 5694,
      "##오빠": 5695,
      "##나도": 5696,
      "##er": 5697,
      "##은데": 5698,
      "미안": 5699,
      "##ㅜㅜ": 5700,
      "ㅠㅠㅠㅠ": 5701,
      "##그래서": 5702,
      "##어야": 5703,
      "##더라": 5704,
      "모르겠": 5705,
      "아닌": 5706,
      "남자": 5707,
      "나오": 5708,
      "##이다": 5709,
      "##ㅠㅠㅠㅠㅠㅠㅠㅠ": 5710,
      "##에는": 5711,
      "그렇게": 5712,
      "끝나": 5713,
      "가서": 5714,
      "이상": 5715,
      "했는데": 5716,
      "타롱해": 5717,
      "##더니": 5718,
      "어케": 5719,
      "##뿌니": 5720,
      "이건": 5721,
      "##롱해": 5722,
      "그게": 5723,
      "카톡": 5724,
      "##중에": 5725,
      "먹고": 5726,
      "없어": 5727,
      "##그럼": 5728,
      "##했는데": 5729,
      "##♡♡♡": 5730,
      "다른": 5731,
      "은경": 5732,
      "여자": 5733,
      "##ㅋㅋㅋㅋㅋㅋㅋㅋㅋㅋㅋㅋㅋ": 5734,
      "사람이": 5735,
      "int": 5736,
      "계속": 5737,
      "없는": 5738,
      "##보고": 5739,
      "##려고": 5740,
      "##거든": 5741,
      "##댕이는": 5742,
      "ㅡㅡ": 5743,
      "##어나": 5744,
      "버스": 5745,
      "##다구": 5746,
      "##심히": 5747,
      "##0분": 5748,
      "##하기": 5749,
      "##사진": 5750,
      "개발": 5751,
      "히히": 5752,
      "이렇게": 5753,
      "출발": 5754,
      "##내일": 5755,
      "저녁": 5756,
      "##것도": 5757,
      "사랑해": 5758,
      "마자": 5759,
      "정도": 5760,
      "힘들": 5761,
      "이게": 5762,
      "필요": 5763,
      "##이면": 5764,
      "##라는": 5765,
      "같은데": 5766,
      "보내": 5767,
      "##이제": 5768,
      "거야": 5769,
      "있는데": 5770,
      "그랬": 5771,
      "고마": 5772,
      "잘못": 5773,
      "##으니까": 5774,
      "물어": 5775,
      "아무": 5776,
      "들어가": 5777,
      "##직히": 5778,
      "생각해": 5779,
      "가야": 5780,
      "##을까": 5781,
      "나와": 5782,
      "친구": 5783,
      "여기": 5784,
      "##시에": 5785,
      "##하다": 5786,
      "원래": 5787,
      "하지": 5788,
      "그리고": 5789,
      "거지": 5790,
      "일찍": 5791,
      "좋은": 5792,
      "##만원": 5793,
      "##리가": 5794,
      "아니고": 5795,
      "행복": 5796,
      "하구": 5797,
      "##이라고": 5798,
      "##었는데": 5799,
      "##적으로": 5800,
      "말고": 5801,
      "##해또": 5802,
      "##한데": 5803,
      "##ㅋㅋㅋㅋㅋㅋㅋㅋㅋㅋㅋㅋㅋㅋ": 5804,
      "나랑": 5805,
      "인나": 5806,
      "죠아": 5807,
      "이번": 5808,
      "##or": 5809,
      "너가": 5810,
      "##스트": 5811,
      "2장": 5812,
      "나한테": 5813,
      "수업": 5814,
      "바로": 5815,
      "요즘": 5816,
      "##기가": 5817,
      "##it": 5818,
      "아님": 5819,
      "##냐고": 5820,
      "##그러": 5821,
      "넘모": 5822,
      "마니": 5823,
      "나가": 5824,
      "몰라": 5825,
      "사실": 5826,
      "##지도": 5827,
      "##ㄱㄱ": 5828,
      "때문": 5829,
      "해서": 5830,
      "가는": 5831,
      "받아": 5832,
      "엄청": 5833,
      "이미": 5834,
      "##하나": 5835,
      "##차피": 5836,
      "괜찮": 5837,
      "학교": 5838,
      "##이이": 5839,
      "##어가": 5840,
      "아이": 5841,
      "##야지": 5842,
      "이따": 5843,
      "##차나": 5844,
      "점심": 5845,
      "찌찌": 5846,
      "시작": 5847,
      "씻구": 5848,
      "##그거": 5849,
      "##주는": 5850,
      "##잘자": 5851,
      "가능": 5852,
      "먼저": 5853,
      "이해": 5854,
      "하지만": 5855,
      "##했어": 5856,
      "그래도": 5857,
      "##기도": 5858,
      "##정도": 5859,
      "건데": 5860,
      "##놓고": 5861,
      "기다": 5862,
      "##이터": 5863,
      "##들은": 5864,
      "빨리": 5865,
      "어제": 5866,
      "##웅냐": 5867,
      "##끄야": 5868,
      "##ㅋㅋㅋㅋㅋㅋㅋㅋㅋㅋㅋㅋㅋㅋㅋ": 5869,
      "똑같": 5870,
      "##이버": 5871,
      "##거지": 5872,
      "ㅋㅋㅋㅋㅋㅋㅋㅋㅋㅋㅋㅋㅋㅋㅋㅋㅋㅋㅋㅋ": 5873,
      "##ㅠㅠㅠ": 5874,
      "##던데": 5875,
      "집에": 5876,
      "싶은": 5877,
      "준비": 5878,
      "이유": 5879,
      "##일단": 5880,
      "##히히": 5881,
      "마음": 5882,
      "알았": 5883,
      "무슨": 5884,
      "##려서": 5885,
      "##엄마": 5886,
      "보면": 5887,
      "댕이랑": 5888,
      "안해": 5889,
      "수도": 5890,
      "##마자": 5891,
      "##al": 5892,
      "싶다": 5893,
      "전에": 5894,
      "전화": 5895,
      "##이스": 5896,
      "갑자기": 5897,
      "머거": 5898,
      "##수님": 5899,
      "##de": 5900,
      "ㅋㅋㅋ": 5901,
      "##줘서": 5902,
      "중요": 5903,
      "##텐데": 5904,
      "##♡♡♡♡": 5905,
      "되는": 5906,
      "아빠": 5907,
      "피곤": 5908,
      "##어도": 5909,
      "밖에": 5910,
      "않아": 5911,
      "##이네": 5912,
      "맨날": 5913,
      "##꺼야": 5914,
      "아니야": 5915,
      "##어어": 5916,
      "##ㅇㅇ": 5917,
      "##하자": 5918,
      "ㅋㅋㅋㅋ댕이": 5919,
      "##ea": 5920,
      "댕이야": 5921,
      "앙대": 5922,
      "##처럼": 5923,
      "오께": 5924,
      "안나": 5925,
      "잘게": 5926,
      "찾아": 5927,
      "##st": 5928,
      "##한다": 5929,
      "나왔": 5930,
      "##저나": 5931,
      "ㅋㅋㅋㅋ나": 5932,
      "아니면": 5933,
      "말이": 5934,
      "아까": 5935,
      "##적인": 5936,
      "다음": 5937,
      "이떠": 5938,
      "12": 5939,
      "알고": 5940,
      "##on": 5941,
      "##떻게": 5942,
      "그럴": 5943,
      "##거나": 5944,
      "떨어": 5945,
      "하루": 5946,
      "##ㄷㄷㄷㄷ": 5947,
      "자꾸": 5948,
      "있고": 5949,
      "##동안": 5950,
      "그러면": 5951,
      "##었어": 5952,
      "댱이": 5953,
      "기억": 5954,
      "선물": 5955,
      "얼마": 5956,
      "##주고": 5957,
      "그때": 5958,
      "##라구": 5959,
      "##댕아나": 5960,
      "면접": 5961,
      "하는데": 5962,
      "솔직히": 5963,
      "안돼": 5964,
      "잘자구": 5965,
      "##ㅎㅋㅎㅋ": 5966,
      "20": 5967,
      "소리": 5968,
      "알바": 5969,
      "말해": 5970,
      "자구": 5971,
      "ㄴㄴ": 5972,
      "아하": 5973,
      "##에도": 5974,
      "##기는": 5975,
      "거의": 5976,
      "이뿌니": 5977,
      "##사랑해": 5978,
      "걱정": 5979,
      "##는지": 5980,
      "##이게": 5981,
      "시퍼": 5982,
      "##소리": 5983,
      "느낌": 5984,
      "##이얌": 5985,
      "공방": 5986,
      "ㄷㄷ": 5987,
      "##at": 5988,
      "100": 5989,
      "와서": 5990,
      "ㅋㅋㅋㅋㅋㅋㅋㅋㅋㅋㅋㅋㅋㅋㅋㅋㅋㅋ": 5991,
      "##했다": 5992,
      "##입니다": 5993,
      "내려": 5994,
      "제일": 5995,
      "기분": 5996,
      "있음": 5997,
      "##웅웅": 5998,
      "##이런": 5999,
      "11": 6000,
      "라고": 6001,
      "##가는": 6002,
      "##하지만": 6003,
      "##밖에": 6004,
      "아닝": 6005,
      "##ut": 6006,
      "돌아": 6007,
      "##라도": 6008,
      "ㅎㅋ": 6009,
      "##그리고": 6010,
      "처음": 6011,
      "많아": 6012,
      "##이건": 6013,
      "##려구": 6014,
      "##은경": 6015,
      "##지어": 6016,
      "타롱하구": 6017,
      "일어나": 6018,
      "##댕이도": 6019,
      "##나두": 6020,
      "오늘은": 6021,
      "고민": 6022,
      "늦게": 6023,
      "머리": 6024,
      "##라서": 6025,
      "ar": 6026,
      "##세요": 6027,
      "ㄹㅇ": 6028,
      "귀여": 6029,
      "댕이도": 6030,
      "##ㅏㅏㅏㅏ": 6031,
      "##있는": 6032,
      "시험": 6033,
      "아침": 6034,
      "항상": 6035,
      "댕아나": 6036,
      "엄마가": 6037,
      "연락": 6038,
      "##고생": 6039,
      "##il": 6040,
      "##저거": 6041,
      "##기로": 6042,
      "그걸": 6043,
      "##자가": 6044,
      "가면": 6045,
      "가타": 6046,
      "##아내": 6047,
      "##겠당": 6048,
      "어떤": 6049,
      "해도": 6050,
      "맞아": 6051,
      "있지": 6052,
      "##영상": 6053,
      "구래": 6054,
      "어차피": 6055,
      "##시반": 6056,
      "올라": 6057,
      "##ㅡㅡ": 6058,
      "뭔가": 6059,
      "어떻게": 6060,
      "프로": 6061,
      "##ㅅㅇ": 6062,
      "상황": 6063,
      "없어서": 6064,
      "얼른": 6065,
      "##해도": 6066,
      "##지막": 6067,
      "##려면": 6068,
      "거기": 6069,
      "코테": 6070,
      "혼자": 6071,
      "##하철": 6072,
      "##짜나": 6073,
      "arr": 6074,
      "##해보": 6075,
      "##전에": 6076,
      "애들": 6077,
      "없다": 6078,
      "정말": 6079,
      "##그런": 6080,
      "##카오": 6081,
      "##자너": 6082,
      "##으니": 6083,
      "##가지": 6084,
      "##드로": 6085,
      "경험": 6086,
      "사라": 6087,
      "##수가": 6088,
      "있으면": 6089,
      "##하니까": 6090,
      "않았": 6091,
      "옹동": 6092,
      "##오구": 6093,
      "누구": 6094,
      "아닐": 6095,
      "ㅋㅋㅋㅋㅋㅋㅋㅋㅋㅋㅋㅋㅋㅋㅋㅋㅋㅋㅋㅋㅋㅋㅋㅋㅋㅋㅋㅋㅋㅋㅋㅋㅋㅋㅋㅋㅋㅋㅋㅋㅋ": 6096,
      "##어디": 6097,
      "##넘모": 6098,
      "##et": 6099,
      "##하네": 6100,
      "도착해떠": 6101,
      "30": 6102,
      "아예": 6103,
      "##그게": 6104,
      "##마다": 6105,
      "##프로": 6106,
      "##번에": 6107,
      "##와서": 6108,
      "##언제": 6109,
      "후음": 6110,
      "있다": 6111,
      "아항": 6112,
      "중에": 6113,
      "짜증": 6114,
      "##으러": 6115,
      "ㅅㅂ": 6116,
      "##그건": 6117,
      "##리면": 6118,
      "##같이": 6119,
      "때문에": 6120,
      "먹을": 6121,
      "알또": 6122,
      "없고": 6123,
      "##10": 6124,
      "##아직": 6125,
      "ㅋㅋㅋㅋㅋㅋㅋㅋㅋㅋㅋㅋㅋㅋㅋㅋㅋㅋㅋ": 6126,
      "가고": 6127,
      "씻고": 6128,
      "코드": 6129,
      "사람들": 6130,
      "st": 6131,
      "##에에": 6132,
      "##보면": 6133,
      "##소서": 6134,
      "##님이": 6135,
      "오빠가": 6136,
      "서로": 6137,
      "자기": 6138,
      "##스러": 6139,
      "사랑하구": 6140,
      "##그래도": 6141,
      "교수님": 6142,
      "아파": 6143,
      "##ㅇㅋ": 6144,
      "싶어": 6145,
      "##길래": 6146,
      "거고": 6147,
      "왤케": 6148,
      "##했져": 6149,
      "##사람": 6150,
      "##가서": 6151,
      "ㅠㅠㅠㅠㅠㅠㅠㅠㅠ": 6152,
      "뭐가": 6153,
      "##타롱해": 6154,
      "##000": 6155,
      "##리구": 6156,
      "##동원": 6157,
      "##아아아아": 6158,
      "별로": 6159,
      "##아주": 6160,
      "##느라": 6161,
      "취업": 6162,
      "미친": 6163,
      "올게": 6164,
      "##구만": 6165,
      "##만에": 6166,
      "##es": 6167,
      "##ing": 6168,
      "미안해": 6169,
      "네이버": 6170,
      "##en": 6171,
      "##zz": 6172,
      "##하면서": 6173,
      "부분": 6174,
      "옹냐": 6175,
      "해주": 6176,
      "##이따": 6177,
      "##워서": 6178,
      "##었다": 6179,
      "##디어": 6180,
      "나서": 6181,
      "와떠": 6182,
      "있어서": 6183,
      "##에게": 6184,
      "##이래": 6185,
      "데이터": 6186,
      "쓰는": 6187,
      "##ar": 6188,
      "15": 6189,
      "누가": 6190,
      "뭐야": 6191,
      "##드는": 6192,
      "갈게": 6193,
      "그니까": 6194,
      "끝났": 6195,
      "모야": 6196,
      "보여": 6197,
      "조금": 6198,
      "##후후": 6199,
      "##요일에": 6200,
      "ㅈㄴ": 6201,
      "가져": 6202,
      "아주": 6203,
      "걸로": 6204,
      "##지가": 6205,
      "보구시": 6206,
      "보는": 6207,
      "없는데": 6208,
      "지원": 6209,
      "##11": 6210,
      "##스타": 6211,
      "##던가": 6212,
      "##힝구": 6213,
      "거임": 6214,
      "열심히": 6215,
      "##학교": 6216,
      "##하여": 6217,
      "말하는": 6218,
      "##져서": 6219,
      "과제": 6220,
      "먹어": 6221,
      "삼성": 6222,
      "오래": 6223,
      "ㅇㅋ": 6224,
      "결혼": 6225,
      "저런": 6226,
      "##가여": 6227,
      "나빠": 6228,
      "동생": 6229,
      "##보니까": 6230,
      "##한다고": 6231,
      "ㅠㅠㅠㅠㅠㅠ": 6232,
      "오잉": 6233,
      "운동": 6234,
      "ㅋㅋㅋㅋㅋㅋㅋㅋㅋㅋㅋㅋㅋㅋㅋㅋㅋㅋㅋㅋㅋㅋㅋㅋ": 6235,
      "어쩌": 6236,
      "사이": 6237,
      "##어버": 6238,
      "##문제": 6239,
      "알려": 6240,
      "##는다": 6241,
      "##인지": 6242,
      "##같은": 6243,
      "은경이": 6244,
      "깃헙": 6245,
      "##여기": 6246,
      "말구": 6247,
      "않을까": 6248,
      "역시": 6249,
      "저는": 6250,
      "##조건": 6251,
      "ㅋㅋㅋㅋ댕아": 6252,
      "졸업": 6253,
      "한데": 6254,
      "오디": 6255,
      "##냐면": 6256,
      "##겠어": 6257,
      "응응": 6258,
      "집에서": 6259,
      "##하다가": 6260,
      "##생각": 6261,
      "자체": 6262,
      "##마니": 6263,
      "##려나": 6264,
      "저렇게": 6265,
      "지하철": 6266,
      "##마오": 6267,
      "가지": 6268,
      "재밌": 6269,
      "##자는": 6270,
      "바부": 6271,
      "##se": 6272,
      "맞는": 6273,
      "언능": 6274,
      "##가지고": 6275,
      "##봤는데": 6276,
      "자떠": 6277,
      "##이니까": 6278,
      "##자마자": 6279,
      "##기에": 6280,
      "부모": 6281,
      "##되는": 6282,
      "##mp": 6283,
      "ㅎㅎㅋ": 6284,
      "자소서": 6285,
      "##너가": 6286,
      "ㅋㅋㅋㅋ아": 6287,
      "노력": 6288,
      "다행": 6289,
      "땡이": 6290,
      "##겠네": 6291,
      "##에서는": 6292,
      "서버": 6293,
      "위해": 6294,
      "##ow": 6295,
      "##베디": 6296,
      "고마워": 6297,
      "안된": 6298,
      "이래": 6299,
      "##이렇게": 6300,
      "##만큼": 6301,
      "##바로": 6302,
      "쓰고": 6303,
      "언니": 6304,
      "##해여": 6305,
      "##들어": 6306,
      "##ns": 6307,
      "##댱이": 6308,
      "엄마랑": 6309,
      "##오오오오": 6310,
      "서울": 6311,
      "##20": 6312,
      "##갑자기": 6313,
      "말했": 6314,
      "받았": 6315,
      "아마": 6316,
      "없었": 6317,
      "##야대": 6318,
      "##파일": 6319,
      "되었": 6320,
      "방금": 6321,
      "않고": 6322,
      "잠깐": 6323,
      "출근": 6324,
      "##는게": 6325,
      "##ㅣㅣ": 6326,
      "얼마나": 6327,
      "보니까": 6328,
      "혹시": 6329,
      "##ㅅㅎ": 6330,
      "결국": 6331,
      "기여": 6332,
      "##다시": 6333,
      "같아서": 6334,
      "카카오": 6335,
      "가구": 6336,
      "##라인": 6337,
      "##댕이랑": 6338,
      "셔틀": 6339,
      "하면서": 6340,
      "한다": 6341,
      "##으면서": 6342,
      "if": 6343,
      "없음": 6344,
      "##오늘은": 6345,
      "30분": 6346,
      "말이야": 6347,
      "상관": 6348,
      "##이러": 6349,
      "##요즘": 6350,
      "갠차나": 6351,
      "동원": 6352,
      "포기": 6353,
      "##나가": 6354,
      "하기": 6355,
      "해결": 6356,
      "##다니": 6357,
      "##원래": 6358,
      "##타롱": 6359,
      "갈아": 6360,
      "나를": 6361,
      "사롱해": 6362,
      "스타": 6363,
      "##지면": 6364,
      "##장이": 6365,
      "그런가": 6366,
      "건가": 6367,
      "##이도": 6368,
      "##♡ㅋㅋㅋㅋ": 6369,
      "관심": 6370,
      "되지": 6371,
      "말을": 6372,
      "배고": 6373,
      "싶은데": 6374,
      "일어": 6375,
      "##학년": 6376,
      "##남친": 6377,
      "당연": 6378,
      "되게": 6379,
      "싫어": 6380,
      "##이팅": 6381,
      "##분에": 6382,
      "##초에": 6383,
      "##합니다": 6384,
      "생각이": 6385,
      "갔다": 6386,
      "구랭": 6387,
      "아는": 6388,
      "##자고": 6389,
      "##수도": 6390,
      "##이트": 6391,
      "##친구": 6392,
      "댕이를": 6393,
      "나온": 6394,
      "마지막": 6395,
      "맛있": 6396,
      "예정": 6397,
      "##해쪄": 6398,
      "##아무": 6399,
      "##야오": 6400,
      "##인이": 6401,
      "##ㅋㅋㅋㅋㅋㅋㅋㅋㅋㅋㅋㅋㅋㅋㅋㅋㅋ": 6402,
      "아니지": 6403,
      "아닌데": 6404,
      "##베디드": 6405,
      "생일": 6406,
      "안하고": 6407,
      "하튼": 6408,
      "아니었": 6409,
      "##이라도": 6410,
      "거였": 6411,
      "써야": 6412,
      "얼굴": 6413,
      "의미": 6414,
      "##이번": 6415,
      "##ㅜㅠ": 6416,
      "다니": 6417,
      "많은": 6418,
      "비슷": 6419,
      "속상": 6420,
      "심지어": 6421,
      "##하겠": 6422,
      "##id": 6423,
      "댕아댕아": 6424,
      "ㅠㅠㅠㅠㅠㅠㅠ": 6425,
      "아직도": 6426,
      "고맙": 6427,
      "다르": 6428,
      "있습니다": 6429,
      "##어제": 6430,
      "##가능": 6431,
      "##ㅅㅋ": 6432,
      "중간": 6433,
      "##ude": 6434,
      "##식으로": 6435,
      "있었는데": 6436,
      "경우": 6437,
      "대학": 6438,
      "##로나": 6439,
      "##ch": 6440,
      "ㅋㅋㅋㅋ이거": 6441,
      "중요한": 6442,
      "연결": 6443,
      "##는디": 6444,
      "##아리": 6445,
      "##은행": 6446,
      "##하자나": 6447,
      "##건데": 6448,
      "남친": 6449,
      "못해": 6450,
      "세상": 6451,
      "시포": 6452,
      "아프": 6453,
      "약간": 6454,
      "##보구": 6455,
      "수가": 6456,
      "따라": 6457,
      "따로": 6458,
      "마곡": 6459,
      "알떠": 6460,
      "어려": 6461,
      "##보는": 6462,
      "##어케": 6463,
      "##레스": 6464,
      "co": 6465,
      "ㄱㄱ": 6466,
      "##시지": 6467,
      "##동영상": 6468,
      "##이라는": 6469,
      "##ㅎㅎㅎㅎ": 6470,
      "강의": 6471,
      "먹었": 6472,
      "안했": 6473,
      "##해써": 6474,
      "##버스": 6475,
      "for": 6476,
      "##시까지": 6477,
      "##우고": 6478,
      "##았어": 6479,
      "만들어": 6480,
      "##엄마가": 6481,
      "ㅇㅅㅇ": 6482,
      "받고": 6483,
      "헤어": 6484,
      "##하긴": 6485,
      "##ㅓㅓ": 6486,
      "가장": 6487,
      "쉬어": 6488,
      "와중에": 6489,
      "하니까": 6490,
      "##했습니다": 6491,
      "카페": 6492,
      "##이어": 6493,
      "##이뿌니": 6494,
      "##하튼": 6495,
      "##줄게": 6496,
      "##았는데": 6497,
      "말한": 6498,
      "수준": 6499,
      "홧팅": 6500,
      "##나루": 6501,
      "##거고": 6502,
      "ㅇㅈ": 6503,
      "신한": 6504,
      "어때": 6505,
      "조심히": 6506,
      "회의": 6507,
      "##스럽": 6508,
      "##ㄱㅋ": 6509,
      "3장": 6510,
      "##구래": 6511,
      "##이긴": 6512,
      "##머니": 6513,
      "##ㅋㅋㅋㅋㅋㅋㅋㅋㅋㅋㅋㅋㅋㅋㅋㅋㅋㅋ": 6514,
      "##00원": 6515,
      "거라": 6516,
      "나중에": 6517,
      "듣고": 6518,
      "들고": 6519,
      "뭐지": 6520,
      "커플": 6521,
      "##오는": 6522,
      "어디서": 6523,
      "이러고": 6524,
      "갖고": 6525,
      "미아내": 6526,
      "애가": 6527,
      "없지": 6528,
      "있져": 6529,
      "##이드": 6530,
      "##줘야": 6531,
      "ㅠㅠㅠㅠㅠㅠㅠㅠㅠㅠㅠㅠㅠ": 6532,
      "일케": 6533,
      "있자나": 6534,
      "했어": 6535,
      "##했을": 6536,
      "##했던": 6537,
      "##번째": 6538,
      "##할게": 6539,
      "##미안": 6540,
      "ㅎㅎㅎ": 6541,
      "인나쪄": 6542,
      "뭐라": 6543,
      "##이썬": 6544,
      "##으으": 6545,
      "이상한": 6546,
      "선택": 6547,
      "시켜": 6548,
      "앞으로": 6549,
      "오오": 6550,
      "이걸": 6551,
      "인생": 6552,
      "##제로": 6553,
      "##나바": 6554,
      "##퓨터": 6555,
      "##갔다": 6556,
      "도전": 6557,
      "되어": 6558,
      "사롱": 6559,
      "오면": 6560,
      "##나게": 6561,
      "ㅋㅋㅋㅋ오": 6562,
      "##너무너무": 6563,
      "보구싶": 6564,
      "##잘자구": 6565,
      "파일": 6566,
      "10분": 6567,
      "귀엽": 6568,
      "나갈": 6569,
      "되는데": 6570,
      "만날": 6571,
      "물론": 6572,
      "성장": 6573,
      "##스크": 6574,
      "##지마": 6575,
      "사람은": 6576,
      "사람들이": 6577,
      "안되는": 6578,
      "스트": 6579,
      "인터": 6580,
      "##애애": 6581,
      "댕이한테": 6582,
      "시간이": 6583,
      "그치": 6584,
      "할까": 6585,
      "##하다고": 6586,
      "##나랑": 6587,
      "##oid": 6588,
      "##성이": 6589,
      "##ㅋㅋㅋㅋㅋㅋㅋㅋㅋㅋㅋㅋㅋㅋㅋㅋㅋㅋㅋㅋ": 6590,
      "##댕이야": 6591,
      "가지고": 6592,
      "오는": 6593,
      "타고": 6594,
      "##역시": 6595,
      "ㅋㅋㅋㅋㅋㅋㅋㅋㅋㅋㅋㅋㅋㅋㅋㅋㅋㅋㅋㅋㅋㅋ": 6596,
      "같긴": 6597,
      "너랑": 6598,
      "##아냐": 6599,
      "##옹동": 6600,
      "##치는": 6601,
      "같다": 6602,
      "이쁘": 6603,
      "졸려": 6604,
      "##그때": 6605,
      "##면접": 6606,
      "##나서": 6607,
      "##나라": 6608,
      "##기만": 6609,
      "##공부": 6610,
      "##공방": 6611,
      "##ode": 6612,
      "##비스": 6613,
      "##ine": 6614,
      "ㅋㅋㅋㅋㅋㅋㅋㅋㅋㅋㅋㅋㅋㅋㅋㅋㅋㅋㅋㅋㅋㅋㅋ": 6615,
      "이번에": 6616,
      "부족": 6617,
      "없이": 6618,
      "없을": 6619,
      "영상": 6620,
      "##사실": 6621,
      "##하냐": 6622,
      "교육": 6623,
      "꼬마오": 6624,
      "나올": 6625,
      "자신": 6626,
      "정신": 6627,
      "##다른": 6628,
      "##어차피": 6629,
      "##ㅂㅇ": 6630,
      "##nd": 6631,
      "##겠지만": 6632,
      "##엄청": 6633,
      "가자": 6634,
      "무조건": 6635,
      "있으": 6636,
      "찡찡": 6637,
      "할튼": 6638,
      "##정이": 6639,
      "##솔직히": 6640,
      "##해주는": 6641,
      "개발자": 6642,
      "2번": 6643,
      "갈까": 6644,
      "궁금": 6645,
      "되고": 6646,
      "뭔데": 6647,
      "보러": 6648,
      "차이": 6649,
      "한번": 6650,
      "##아까": 6651,
      "##져떠": 6652,
      "##ㄴㄴ": 6653,
      "##ㅎㅎㅋ": 6654,
      "상태": 6655,
      "새로": 6656,
      "올려": 6657,
      "한국": 6658,
      "확실": 6659,
      "##지게": 6660,
      "##치고": 6661,
      "ㅋㅅㅋ": 6662,
      "모해": 6663,
      "뭐여": 6664,
      "벌써": 6665,
      "알지": 6666,
      "하자": 6667,
      "호고": 6668,
      "##여서": 6669,
      "##할까": 6670,
      "##시는": 6671,
      "##시야": 6672,
      "문제가": 6673,
      "두개": 6674,
      "발표": 6675,
      "보통": 6676,
      "오픈": 6677,
      "인정": 6678,
      "주말": 6679,
      "##보니": 6680,
      "##기업": 6681,
      "##머리": 6682,
      "##에서도": 6683,
      "##사랑하구": 6684,
      "이유가": 6685,
      "##이스톡": 6686,
      "1년": 6687,
      "ㅇㅂㅇ": 6688,
      "결과": 6689,
      "소마": 6690,
      "완전": 6691,
      "인천": 6692,
      "임베디드": 6693,
      "##까진": 6694,
      "##야겠다": 6695,
      "##ㅌㅌㅌㅌ": 6696,
      "도와": 6697,
      "도희": 6698,
      "바람": 6699,
      "앞에": 6700,
      "어느": 6701,
      "오댜": 6702,
      "화장": 6703,
      "확인": 6704,
      "##가고": 6705,
      "##무슨": 6706,
      "##ㅓㅏ": 6707,
      "맞춰": 6708,
      "알쪄": 6709,
      "이써": 6710,
      "이후": 6711,
      "##우는": 6712,
      "##댕아댕아": 6713,
      "50": 6714,
      "ㅁㅊ": 6715,
      "많아서": 6716,
      "살아": 6717,
      "저건": 6718,
      "책임": 6719,
      "##했고": 6720,
      "##le": 6721,
      "##iz": 6722,
      "스트레스": 6723,
      "거면": 6724,
      "게임": 6725,
      "입장": 6726,
      "모르게": 6727,
      "나와서": 6728,
      "분석": 6729,
      "사주": 6730,
      "시키": 6731,
      "예쁘": 6732,
      "있나": 6733,
      "치킨": 6734,
      "##는뎅": 6735,
      "##카톡": 6736,
      "##이미": 6737,
      "##니가": 6738,
      "##하대": 6739,
      "##을때": 6740,
      "##ct": 6741,
      "##빨리": 6742,
      "기업": 6743,
      "내용": 6744,
      "바빠": 6745,
      "안에": 6746,
      "##그걸": 6747,
      "##데이터": 6748,
      "##나한테": 6749,
      "##많이": 6750,
      "##커톤": 6751,
      "아닐까": 6752,
      "1도": 6753,
      "받는": 6754,
      "서류": 6755,
      "설명": 6756,
      "##그렇게": 6757,
      "##la": 6758,
      "##식이": 6759,
      "##hil": 6760,
      "끝내": 6761,
      "서운": 6762,
      "쓰면": 6763,
      "어플": 6764,
      "오호": 6765,
      "##스로": 6766,
      "##am": 6767,
      "##르는": 6768,
      "##까지는": 6769,
      "##오빠가": 6770,
      "str": 6771,
      "ㄱㅊ": 6772,
      "너한테": 6773,
      "다들": 6774,
      "들었": 6775,
      "모든": 6776,
      "미쳤": 6777,
      "바보": 6778,
      "신경": 6779,
      "있다고": 6780,
      "지난": 6781,
      "##put": 6782,
      "##저녁": 6783,
      "##ㅋㅋㅋㅋㅋㅋㅋㅋㅋㅋㅋㅋㅋㅋㅋㅋㅋㅋㅋ": 6784,
      "회사가여": 6785,
      "나오는": 6786,
      "없져": 6787,
      "위에": 6788,
      "자주": 6789,
      "취준": 6790,
      "하다가": 6791,
      "##그렇": 6792,
      "##다면": 6793,
      "##기를": 6794,
      "##뭔가": 6795,
      "##ata": 6796,
      "ㅎㅅㅎ": 6797,
      "거랑": 6798,
      "그로": 6799,
      "먹는": 6800,
      "받은": 6801,
      "알써": 6802,
      "절대": 6803,
      "크게": 6804,
      "한시간": 6805,
      "##이자나": 6806,
      "##일에": 6807,
      "##땜에": 6808,
      "##버렸": 6809,
      "##cl": 6810,
      "아니다": 6811,
      "만나서": 6812,
      "뒤에": 6813,
      "서비스": 6814,
      "##대가": 6815,
      "##마트": 6816,
      "##oo": 6817,
      "##해주고": 6818,
      "퇴근햐": 6819,
      "건지": 6820,
      "너도": 6821,
      "말이지": 6822,
      "사용": 6823,
      "이뿌": 6824,
      "이름": 6825,
      "질문": 6826,
      "##일이": 6827,
      "##라리": 6828,
      "고생해또": 6829,
      "##ead": 6830,
      "나쁘": 6831,
      "대한": 6832,
      "봐도": 6833,
      "추천": 6834,
      "했던": 6835,
      "##알쪄": 6836,
      "ㅋㅋㅋㅋㅋㅋㅋㅋㅋㅋㅋㅋㅋㅋㅋㅋㅋㅋㅋㅋㅋㅋㅋㅋㅋㅋㅋㅋ": 6837,
      "아이디어": 6838,
      "머거떠": 6839,
      "가여": 6840,
      "니가": 6841,
      "알아서": 6842,
      "잘해떠": 6843,
      "제대로": 6844,
      "##되는데": 6845,
      "##웃기": 6846,
      "##아아아": 6847,
      "나옴": 6848,
      "달라": 6849,
      "롯데": 6850,
      "몰랐": 6851,
      "생겼": 6852,
      "시러": 6853,
      "아녀": 6854,
      "여러": 6855,
      "여친": 6856,
      "일이": 6857,
      "자고": 6858,
      "자야": 6859,
      "잘해또": 6860,
      "##12": 6861,
      "##사가": 6862,
      "##라이": 6863,
      "##히려": 6864,
      "##맨날": 6865,
      "ㅋㅋㅋㅋㅋㅋㅋㅋ댕이": 6866,
      "생각하는": 6867,
      "incl": 6868,
      "include": 6869,
      "구니까": 6870,
      "잘해": 6871,
      "컴공": 6872,
      "##다는데": 6873,
      "##이노": 6874,
      "##라면": 6875,
      "##리지": 6876,
      "##귀여": 6877,
      "괜찮아": 6878,
      "##000원": 6879,
      "대체": 6880,
      "대충": 6881,
      "땜에": 6882,
      "우음": 6883,
      "자리": 6884,
      "챙겨": 6885,
      "##두이노": 6886,
      "##력이": 6887,
      "되었습니다": 6888,
      "굳이": 6889,
      "기본": 6890,
      "방법": 6891,
      "보냈": 6892,
      "빼고": 6893,
      "싶당": 6894,
      "##고로": 6895,
      "##소스": 6896,
      "##ㅁㅇ": 6897,
      "##픈데": 6898,
      "모르겠다": 6899,
      "아침에": 6900,
      "##ize": 6901,
      "나쁜": 6902,
      "노트": 6903,
      "때도": 6904,
      "말야": 6905,
      "않는": 6906,
      "컴퓨터": 6907,
      "코딩": 6908,
      "##다음": 6909,
      "##년에": 6910,
      "##니께": 6911,
      "##찌찌": 6912,
      "##르게": 6913,
      "##봐야": 6914,
      "ㅋㅋㅋㅋㅋㅋㅋㅋㅋㅋㅋㅋㅋㅋㅋㅋㅋㅋㅋㅋㅋㅋㅋㅋㅋㅋㅋㅋㅋㅋㅋㅋㅋㅋㅋㅋㅋㅋㅋㅋㅋㅋㅋㅋㅋㅋㅋㅋㅋㅋㅋㅋㅋㅋㅋㅋㅋ": 6915,
      "귀찮": 6916,
      "기준": 6917,
      "이용": 6918,
      "##이여": 6919,
      "##학기": 6920,
      "##리즘": 6921,
      "##겠다고": 6922,
      "##항상": 6923,
      "##ㅋㅋㅋㅋ이거": 6924,
      "##ort": 6925,
      "가까": 6926,
      "성공": 6927,
      "싶어서": 6928,
      "어렵": 6929,
      "연애": 6930,
      "##또케": 6931,
      "둘이": 6932,
      "먹으러": 6933,
      "안됨": 6934,
      "여행": 6935,
      "최고": 6936,
      "##아빠": 6937,
      "##하께": 6938,
      "##ㅅㅂ": 6939,
      "##처기": 6940,
      "ㅠㅠㅠㅠㅠㅠㅠㅠ": 6941,
      "그렇지": 6942,
      "보구시포": 6943,
      "공모": 6944,
      "머글": 6945,
      "자끄야": 6946,
      "해커톤": 6947,
      "##여친": 6948,
      "##이란": 6949,
      "##집에": 6950,
      "##오면": 6951,
      "##할튼": 6952,
      "##전공": 6953,
      "##인거": 6954,
      "##um": 6955,
      "##거기": 6956,
      "##ㄹㅇ": 6957,
      "좋아하는": 6958,
      "나아": 6959,
      "동기": 6960,
      "되면": 6961,
      "때매": 6962,
      "많았": 6963,
      "사는": 6964,
      "없네": 6965,
      "저기": 6966,
      "##해죠": 6967,
      "##일케": 6968,
      "##나보": 6969,
      "##기고": 6970,
      "##젝트": 6971,
      "##얼른": 6972,
      "똑같은": 6973,
      "13": 6974,
      "AI": 6975,
      "de": 6976,
      "탔져": 6977,
      "##주에": 6978,
      "##아나": 6979,
      "##어떠": 6980,
      "##당히": 6981,
      "##ap": 6982,
      "##적이": 6983,
      "##좋은": 6984,
      "우리가": 6985,
      "하나만": 6986,
      "input": 6987,
      "아닌가": 6988,
      "대해": 6989,
      "돌려": 6990,
      "때려": 6991,
      "메시지": 6992,
      "백동원": 6993,
      "사귀": 6994,
      "신기": 6995,
      "아아": 6996,
      "어쩔": 6997,
      "옆에": 6998,
      "정리": 6999,
      "제가": 7000,
      "##이에": 7001,
      "##을텐데": 7002,
      "##거의": 7003,
      "##천히": 7004,
      "##ion": 7005,
      "##눈뎅": 7006,
      "##튜브": 7007,
      "그러고": 7008,
      "그러니까": 7009,
      "귀여워": 7010,
      "머야": 7011,
      "뭔지": 7012,
      "미리": 7013,
      "이것": 7014,
      "자여": 7015,
      "지나": 7016,
      "직접": 7017,
      "##었던": 7018,
      "##거임": 7019,
      "##건가": 7020,
      "##ㅠㅠㅠㅠㅠ": 7021,
      "##아니면": 7022,
      "기다려": 7023,
      "간다": 7024,
      "그대로": 7025,
      "만났": 7026,
      "성격": 7027,
      "안보": 7028,
      "오ㅑ": 7029,
      "주변": 7030,
      "##했네": 7031,
      "##수록": 7032,
      "##네이버": 7033,
      "##걱정": 7034,
      "##없이": 7035,
      "##볼게": 7036,
      "아니아니": 7037,
      "모르겠어": 7038,
      "25": 7039,
      "3번": 7040,
      "그만": 7041,
      "댓글": 7042,
      "맞지": 7043,
      "장난": 7044,
      "저게": 7045,
      "##시고": 7046,
      "##호선": 7047,
      "##점심": 7048,
      "##ㄱㅊ": 7049,
      "구냥": 7050,
      "앞에서": 7051,
      "##주일": 7052,
      "##할거": 7053,
      "##나봐": 7054,
      "##로그": 7055,
      "##끼리": 7056,
      "ㅠㅠㅋㅋㅋㅋ": 7057,
      "##이라서": 7058,
      "ㅌㅌ": 7059,
      "너는": 7060,
      "동아리": 7061,
      "뭐냐": 7062,
      "안들": 7063,
      "완료": 7064,
      "이랬": 7065,
      "있긴": 7066,
      "정보": 7067,
      "##이상": 7068,
      "##용♡": 7069,
      "##야해": 7070,
      "##ㅇㅅㅇ": 7071,
      "잘자떠": 7072,
      "다녀": 7073,
      "말도": 7074,
      "못하는": 7075,
      "임티": 7076,
      "##어요": 7077,
      "##하러": 7078,
      "##대서": 7079,
      "##을듯": 7080,
      "##남자": 7081,
      "##ig": 7082,
      "##계속": 7083,
      "##베리": 7084,
      "생각보다": 7085,
      "타롱햐": 7086,
      "끝나고": 7087,
      "여기서": 7088,
      "3개": 7089,
      "기술": 7090,
      "나만": 7091,
      "남았": 7092,
      "놀아": 7093,
      "마감": 7094,
      "매일": 7095,
      "바꿔": 7096,
      "봤는데": 7097,
      "설마": 7098,
      "어떡": 7099,
      "토스": 7100,
      "합격": 7101,
      "##티콘": 7102,
      "##ro": 7103,
      "아니냐": 7104,
      "고생해떠": 7105,
      "ㅇㅋㅇㅋ": 7106,
      "어쩌고": 7107,
      "마곡나루": 7108,
      "신한은행": 7109,
      "14": 7110,
      "검색": 7111,
      "나의": 7112,
      "맛난": 7113,
      "애초에": 7114,
      "야근": 7115,
      "파이썬": 7116,
      "현실": 7117,
      "##러닝": 7118,
      "##여자": 7119,
      "##주면": 7120,
      "##가면": 7121,
      "##라니": 7122,
      "##하며": 7123,
      "##먹고": 7124,
      "##걸로": 7125,
      "ㅋㅋㅋㅋ아니": 7126,
      "ㅠㅠ댕이": 7127,
      "웅냐웅냐": 7128,
      "오늘도": 7129,
      "##스러워": 7130,
      "void": 7131,
      "것만": 7132,
      "때는": 7133,
      "무시": 7134,
      "보기": 7135,
      "보낸": 7136,
      "않나": 7137,
      "엄빠": 7138,
      "없으면": 7139,
      "추가": 7140,
      "화이팅": 7141,
      "##수업": 7142,
      "##할때": 7143,
      "##누가": 7144,
      "지금까지": 7145,
      "모르는": 7146,
      "size": 7147,
      "ㅇㅎ": 7148,
      "가끔": 7149,
      "옛날": 7150,
      "주고": 7151,
      "진행": 7152,
      "커피": 7153,
      "##운데": 7154,
      "##보단": 7155,
      "##이너": 7156,
      "##야하는": 7157,
      "##시켜": 7158,
      "##쳐서": 7159,
      "##동생": 7160,
      "##저런": 7161,
      "##였는데": 7162,
      "일어나서": 7163,
      "바부야": 7164,
      "el": 7165,
      "기야오": 7166,
      "난리": 7167,
      "뭐해": 7168,
      "사고": 7169,
      "읽씹": 7170,
      "##지구": 7171,
      "##한다는": 7172,
      "##ed": 7173,
      "##점이": 7174,
      "##알떠": 7175,
      "##르면": 7176,
      "##경이": 7177,
      "하나도": 7178,
      "엄마한테": 7179,
      "부모님": 7180,
      "else": 7181,
      "개빡": 7182,
      "공감": 7183,
      "대신": 7184,
      "만든": 7185,
      "전공": 7186,
      "##부분": 7187,
      "##세여": 7188,
      "##뭐가": 7189,
      "##스템": 7190,
      "##대한": 7191,
      "##ss": 7192,
      "##ost": 7193,
      "##애들": 7194,
      "##봐도": 7195,
      "##짓말": 7196,
      "##ce": 7197,
      "그런거": 7198,
      "16": 7199,
      "6시": 7200,
      "가께": 7201,
      "거리": 7202,
      "기사": 7203,
      "답장": 7204,
      "바꾸": 7205,
      "받을": 7206,
      "아냥": 7207,
      "웅아": 7208,
      "이모": 7209,
      "잠들": 7210,
      "코로나": 7211,
      "하다": 7212,
      "힘드로": 7213,
      "##에스": 7214,
      "##고고": 7215,
      "##시키": 7216,
      "##력을": 7217,
      "##즈베리": 7218,
      "웅냐♡": 7219,
      "그러는": 7220,
      "오빠는": 7221,
      "##이었는데": 7222,
      "그렇군": 7223,
      "옹동이": 7224,
      "자체가": 7225,
      "cout": 7226,
      "18": 7227,
      "2개": 7228,
      "ㄷㄷㄷㄷㄷ": 7229,
      "느껴": 7230,
      "때마다": 7231,
      "라는": 7232,
      "먹자": 7233,
      "식으로": 7234,
      "애기": 7235,
      "##서로": 7236,
      "##이크": 7237,
      "##이션": 7238,
      "##야할": 7239,
      "##히는": 7240,
      "##ㄱㅋㅋ": 7241,
      "##명이": 7242,
      "##얼마": 7243,
      "##OS": 7244,
      "ㅠㅠ나": 7245,
      "ㅋㅋㅋㅋㅋㅋㅋㅋㅋㅋㅋㅋㅋㅋㅋㅋㅋㅋㅋㅋㅋㅋㅋㅋㅋㅋㅋ": 7246,
      "##ent": 7247,
      "4장": 7248,
      "은굥": 7249,
      "있다는": 7250,
      "풀어": 7251,
      "하네": 7252,
      "##랴서": 7253,
      "##거리": 7254,
      "##욜에": 7255,
      "##심지어": 7256,
      "##파이": 7257,
      "ㅋㅋㅋㅋ히히": 7258,
      "댕이두": 7259,
      "지금은": 7260,
      "##int": 7261,
      "고마오": 7262,
      "프로젝트": 7263,
      "0x": 7264,
      "거라고": 7265,
      "안좋": 7266,
      "애매": 7267,
      "왔다": 7268,
      "표정": 7269,
      "##보통": 7270,
      "##여♡": 7271,
      "##아이": 7272,
      "##코드": 7273,
      "##겠군": 7274,
      "##토리": 7275,
      "##알또": 7276,
      "##언능": 7277,
      "아빠가": 7278,
      "다음에": 7279,
      "1시간": 7280,
      "ans": 7281,
      "미워": 7282,
      "알게": 7283,
      "와따": 7284,
      "왔는데": 7285,
      "정확": 7286,
      "##수는": 7287,
      "##학과": 7288,
      "##자꾸": 7289,
      "##제일": 7290,
      "##마워": 7291,
      "##나저나": 7292,
      "##린다": 7293,
      "댕이♡": 7294,
      "댕이의": 7295,
      "것은": 7296,
      "내렸": 7297,
      "모습": 7298,
      "문과": 7299,
      "봤을": 7300,
      "애들이": 7301,
      "약속": 7302,
      "있던": 7303,
      "해떠": 7304,
      "##고야": 7305,
      "##야하는데": 7306,
      "##일찍": 7307,
      "##마넌": 7308,
      "##ㅇㅎ": 7309,
      "##중간": 7310,
      "##겨서": 7311,
      "##랄까": 7312,
      "생각을": 7313,
      "##해야지": 7314,
      "해야지": 7315,
      "ㅇㅇㅇ": 7316,
      "##더라도": 7317,
      "아무리": 7318,
      "##ite": 7319,
      "배고파": 7320,
      "ai": 7321,
      "ne": 7322,
      "뛰어": 7323,
      "먹으": 7324,
      "선배": 7325,
      "순간": 7326,
      "신청": 7327,
      "않은": 7328,
      "인났": 7329,
      "일반": 7330,
      "했다": 7331,
      "호곡": 7332,
      "##우면": 7333,
      "##냐구": 7334,
      "##ot": 7335,
      "##5분": 7336,
      "##회사": 7337,
      "##물론": 7338,
      "##왤케": 7339,
      "ㅋㅋㅋㅋㅋㅋㅋㅋㅋㅋㅋㅋㅋㅋㅋㅋㅋㅋㅋㅋㅋㅋㅋㅋㅋㅋ": 7340,
      "마음이": 7341,
      "그것": 7342,
      "넘어": 7343,
      "댱아": 7344,
      "떠올": 7345,
      "빨래": 7346,
      "안가": 7347,
      "영어": 7348,
      "오류": 7349,
      "입고": 7350,
      "자동": 7351,
      "종설": 7352,
      "##그럴": 7353,
      "##도록": 7354,
      "##아침": 7355,
      "##오디": 7356,
      "##시쯤": 7357,
      "##마지막": 7358,
      "##200": 7359,
      "##조심히": 7360,
      "##저씨": 7361,
      "ㅋㅋㅋㅋㅋㅋㅋㅋㅋㅋㅋㅋㅋㅋㅋㅋㅋㅋㅋㅋㅋㅋㅋㅋㅋㅋㅋㅋㅋㅋㅋㅋ": 7362,
      "20분": 7363,
      "강남": 7364,
      "것을": 7365,
      "안내": 7366,
      "이뻐": 7367,
      "자께": 7368,
      "적이": 7369,
      "##지를": 7370,
      "##88": 7371,
      "##기여": 7372,
      "##정말": 7373,
      "##한대": 7374,
      "##ue": 7375,
      "##갠차나": 7376,
      "댕이댕이": 7377,
      "##ㅠㅠㅠㅠㅠㅠㅠㅠㅠㅠㅠㅠㅠㅠㅠㅠ": 7378,
      "기획": 7379,
      "넣어": 7380,
      "디자": 7381,
      "맞다": 7382,
      "바쁘": 7383,
      "불안": 7384,
      "슬슬": 7385,
      "안할": 7386,
      "우울": 7387,
      "입사": 7388,
      "저러": 7389,
      "전과": 7390,
      "출력": 7391,
      "탔어": 7392,
      "현재": 7393,
      "##트업": 7394,
      "##an": 7395,
      "##되고": 7396,
      "##교수님": 7397,
      "##봐서": 7398,
      "##괜찮": 7399,
      "ㅎㅎㅎㅎ": 7400,
      "남자가": 7401,
      "넘모넘모": 7402,
      "당연히": 7403,
      "공모전": 7404,
      "감사": 7405,
      "걸까": 7406,
      "그것도": 7407,
      "넘어가": 7408,
      "바뀌": 7409,
      "뽀뽀": 7410,
      "아두이노": 7411,
      "에바": 7412,
      "인턴": 7413,
      "직무": 7414,
      "타러": 7415,
      "##정신": 7416,
      "##ain": 7417,
      "##였어": 7418,
      "##눈데": 7419,
      "##쪽으로": 7420,
      "##랜만에": 7421,
      "##겹살": 7422,
      "여자가": 7423,
      "아무것도": 7424,
      "##드로이드": 7425,
      "결정": 7426,
      "관리": 7427,
      "구현": 7428,
      "근처": 7429,
      "말아": 7430,
      "좀만": 7431,
      "힘든": 7432,
      "##보자": 7433,
      "##자낭": 7434,
      "##개월": 7435,
      "##대는": 7436,
      "##오오오": 7437,
      "친구들": 7438,
      "마니마니": 7439,
      "##이이이이": 7440,
      "갈겡": 7441,
      "같고": 7442,
      "대화": 7443,
      "문화": 7444,
      "사업": 7445,
      "영화": 7446,
      "우선": 7447,
      "자자": 7448,
      "자랑": 7449,
      "좋겠": 7450,
      "진심": 7451,
      "##수강": 7452,
      "##하려고": 7453,
      "##영이": 7454,
      "##방에": 7455,
      "##ㅁㅊ": 7456,
      "##저것": 7457,
      "##르고": 7458,
      "##깃헙": 7459,
      "##결국": 7460,
      "너무너무": 7461,
      "ㅋㅋㅋㅋㅋㅋㅋㅋㅋㅋㅋㅋㅋㅋㅋㅋㅋㅋㅋㅋㅋㅋㅋㅋㅋㅋㅋㅋㅋ": 7462,
      "정도면": 7463,
      "똑같이": 7464,
      "상관없": 7465,
      "ret": 7466,
      "거니까": 7467,
      "거시야": 7468,
      "기회": 7469,
      "넘게": 7470,
      "소개": 7471,
      "오홍": 7472,
      "유튜브": 7473,
      "한다고": 7474,
      "##집에서": 7475,
      "##시포": 7476,
      "##자리": 7477,
      "##만한": 7478,
      "##우우": 7479,
      "##인줄": 7480,
      "##졌어": 7481,
      "##후음": 7482,
      "##웃곀": 7483,
      "##퇴근": 7484,
      "##이라니": 7485,
      "##ㅜㅜㅜㅜ": 7486,
      "인터넷": 7487,
      "화장실": 7488,
      "네가": 7489,
      "도움": 7490,
      "보니": 7491,
      "보굽": 7492,
      "어릴": 7493,
      "잘했": 7494,
      "평생": 7495,
      "흐움": 7496,
      "##도가": 7497,
      "##맛있": 7498,
      "##었고": 7499,
      "##대체": 7500,
      "##한거": 7501,
      "##엔드": 7502,
      "##달라고": 7503,
      "##혹시": 7504,
      "##ㅋㅋㅋㅋㅋㅋㅋㅋㅋㅋㅋㅋㅋㅋㅋㅋㅋㅋㅋㅋㅋ": 7505,
      "알았는데": 7506,
      "알고리즘": 7507,
      "확실히": 7508,
      "string": 7509,
      "000원": 7510,
      "2년": 7511,
      "가기": 7512,
      "같음": 7513,
      "관련": 7514,
      "다양": 7515,
      "되나": 7516,
      "두고": 7517,
      "많은데": 7518,
      "몰랑": 7519,
      "받으": 7520,
      "수상": 7521,
      "예약": 7522,
      "오케": 7523,
      "오히려": 7524,
      "통해": 7525,
      "한달": 7526,
      "##이해": 7527,
      "##번은": 7528,
      "##해줘": 7529,
      "##었음": 7530,
      "##인터": 7531,
      "##미친": 7532,
      "##ㅅ8": 7533,
      "##삼성": 7534,
      "##꼬야": 7535,
      "##UT": 7536,
      "ㅋㅋㅋㅋㅋㅋㅋㅋㅋㅋㅋㅋㅋㅋㅋㅋㅋㅋㅋㅋㅋㅋㅋㅋㅋㅋㅋㅋㅋㅋ": 7537,
      "모르겠는데": 7538,
      "행복한": 7539,
      "고맙구": 7540,
      "##ㅓㅏㅓㅏ": 7541,
      "눈치": 7542,
      "대박": 7543,
      "마리": 7544,
      "만드는": 7545,
      "말은": 7546,
      "먹어야": 7547,
      "비교": 7548,
      "삭제": 7549,
      "인하대": 7550,
      "휴학": 7551,
      "##러서": 7552,
      "##하하": 7553,
      "##었져": 7554,
      "##rea": 7555,
      "##되면": 7556,
      "##is": 7557,
      "만들고": 7558,
      "기억이": 7559,
      "이모티콘": 7560,
      "가도": 7561,
      "군대": 7562,
      "남아": 7563,
      "머해": 7564,
      "메일": 7565,
      "무엇": 7566,
      "불가능": 7567,
      "왜냐면": 7568,
      "울댕이": 7569,
      "이쁜": 7570,
      "인스타": 7571,
      "표현": 7572,
      "했더니": 7573,
      "##에선": 7574,
      "##구낭": 7575,
      "##까봐": 7576,
      "##나마": 7577,
      "##인듯": 7578,
      "##았다": 7579,
      "##ㄱㅋㅋㅋ": 7580,
      "##쨌든": 7581,
      "우리는": 7582,
      "모르겠지만": 7583,
      "경험을": 7584,
      "이래서": 7585,
      "5분": 7586,
      "느끼": 7587,
      "머그": 7588,
      "못하고": 7589,
      "수정": 7590,
      "안대": 7591,
      "에구": 7592,
      "오또케": 7593,
      "올겡": 7594,
      "팀원": 7595,
      "포함": 7596,
      "##아가": 7597,
      "##까지만": 7598,
      "##야야": 7599,
      "##게따": 7600,
      "##30": 7601,
      "##저기": 7602,
      "##피곤": 7603,
      "##ED": 7604,
      "##ㅏㅏㅏㅏㅏㅏㅏㅏ": 7605,
      "re": 7606,
      "걸려": 7607,
      "고집": 7608,
      "과목": 7609,
      "급행": 7610,
      "답답": 7611,
      "동안": 7612,
      "맘에": 7613,
      "먹으면": 7614,
      "싫다": 7615,
      "앙데": 7616,
      "자료": 7617,
      "전남친": 7618,
      "차라리": 7619,
      "천천히": 7620,
      "최소": 7621,
      "큰일": 7622,
      "##고기": 7623,
      "##학점": 7624,
      "##전자": 7625,
      "##들을": 7626,
      "##거라": 7627,
      "##누구": 7628,
      "##플로": 7629,
      "##셔틀": 7630,
      "##ㅋㅋㅋㅋ이": 7631,
      "##ㅠㅠㅠㅠㅠㅠ": 7632,
      "##♡♡♡♡♡": 7633,
      "생각하고": 7634,
      "정도로": 7635,
      "나와떠": 7636,
      "##all": 7637,
      "ㅇㅈㄹ": 7638,
      "vs": 7639,
      "나이": 7640,
      "노래": 7641,
      "놓고": 7642,
      "단톡": 7643,
      "맞는데": 7644,
      "번에": 7645,
      "저장": 7646,
      "존나": 7647,
      "좋겠다": 7648,
      "취소": 7649,
      "하긴": 7650,
      "##카드": 7651,
      "##카카오": 7652,
      "##상이": 7653,
      "##오고": 7654,
      "##하던": 7655,
      "##었네": 7656,
      "##나지": 7657,
      "##머지": 7658,
      "##버려": 7659,
      "##르르": 7660,
      "##매일": 7661,
      "도착했": 7662,
      "##ㄷㄷㄷ": 7663,
      "##오늘도": 7664,
      "##이었던": 7665,
      "##그러면": 7666,
      "##시반에": 7667,
      "보구시퍼": 7668,
      "##mport": 7669,
      "나야": 7670,
      "말하면": 7671,
      "무서": 7672,
      "뭐래": 7673,
      "성적": 7674,
      "아닠": 7675,
      "안하는": 7676,
      "와여": 7677,
      "와쪄": 7678,
      "위험": 7679,
      "이짜나": 7680,
      "있네": 7681,
      "정처기": 7682,
      "충분": 7683,
      "해죠": 7684,
      "##다ㅋㅋㅋㅋ": 7685,
      "##아마": 7686,
      "##시퍼": 7687,
      "##라우": 7688,
      "##스가": 7689,
      "##하니": 7690,
      "##미아내": 7691,
      "##거면": 7692,
      "##없는": 7693,
      "##앵이": 7694,
      "##ㄹㄹ": 7695,
      "##ㅋㅋㅋㅋ나": 7696,
      "##ㅋㅋㅋㅋㅋㅋㅋㅋㅋㅋㅋㅋㅋㅋㅋㅋㅋㅋㅋㅋㅋㅋㅋㅋ": 7697,
      "은경이가": 7698,
      "들어가서": 7699,
      "##zzzz": 7700,
      "다양한": 7701,
      "LED": 7702,
      "or": 7703,
      "가는데": 7704,
      "놀러": 7705,
      "대답": 7706,
      "듣는": 7707,
      "마시": 7708,
      "만난": 7709,
      "말라고": 7710,
      "미래": 7711,
      "불편": 7712,
      "안될": 7713,
      "오휴": 7714,
      "위해서": 7715,
      "이쪄": 7716,
      "인사": 7717,
      "제출": 7718,
      "##보다는": 7719,
      "##내는": 7720,
      "##어떤": 7721,
      "##시아": 7722,
      "##시부터": 7723,
      "##지로": 7724,
      "##있을": 7725,
      "##리는데": 7726,
      "##나중에": 7727,
      "##전화": 7728,
      "##알아": 7729,
      "##셔서": 7730,
      "아니니까": 7731,
      "그래두": 7732,
      "ㅋㅋㅋㅋㅋㅋㅋㅋㅋㅋㅋㅋㅋㅋㅋㅋㅋㅋㅋㅋㅋㅋㅋㅋㅋㅋㅋㅋㅋㅋㅋ": 7733,
      "끝나면": 7734,
      "잘게용": 7735,
      "선물했습니다": 7736,
      "동원이": 7737,
      "일어났": 7738,
      "이모티콘을": 7739,
      "21": 7740,
      "22": 7741,
      "24": 7742,
      "2시간": 7743,
      "pr": 7744,
      "금융": 7745,
      "나름": 7746,
      "동영상": 7747,
      "들어서": 7748,
      "만약": 7749,
      "목소리": 7750,
      "못한": 7751,
      "신호": 7752,
      "신입": 7753,
      "왔어": 7754,
      "좋은데": 7755,
      "행동": 7756,
      "##이냐": 7757,
      "##사롱해": 7758,
      "##시험": 7759,
      "##스터": 7760,
      "##하쟈": 7761,
      "##들도": 7762,
      "##머거": 7763,
      "##ur": 7764,
      "##메일": 7765,
      "##처음": 7766,
      "아니구": 7767,
      "사람들은": 7768,
      "이유는": 7769,
      "잠깐만": 7770,
      "오픈소스": 7771,
      "메시지입니다": 7772,
      "511": 7773,
      "고객": 7774,
      "깨워": 7775,
      "않을": 7776,
      "전부": 7777,
      "제공": 7778,
      "좋지": 7779,
      "찍어": 7780,
      "학생": 7781,
      "##그램": 7782,
      "##러드": 7783,
      "##했지": 7784,
      "##간다": 7785,
      "##아예": 7786,
      "##할지": 7787,
      "##지지": 7788,
      "##리네": 7789,
      "##역에서": 7790,
      "##앙대": 7791,
      "##dd": 7792,
      "##적성": 7793,
      "##달라": 7794,
      "ㅋㅋㅋㅋ이": 7795,
      "우리나라": 7796,
      "만나면": 7797,
      "보고싶": 7798,
      "힘들어": 7799,
      "스타트업": 7800,
      "us": 7801,
      "당장": 7802,
      "또한": 7803,
      "모두": 7804,
      "비싸": 7805,
      "없다고": 7806,
      "있지만": 7807,
      "있으니까": 7808,
      "점점": 7809,
      "주는": 7810,
      "틀렸": 7811,
      "##카지": 7812,
      "##이니": 7813,
      "##주께": 7814,
      "##어ㅏ": 7815,
      "##레기": 7816,
      "##ㅂㄷ": 7817,
      "##ail": 7818,
      "##방금": 7819,
      "##종일": 7820,
      "##되어": 7821,
      "##ic": 7822,
      "있어야": 7823,
      "그렇고": 7824,
      "행복해": 7825,
      "사이에": 7826,
      "##타롱하구": 7827,
      "17": 7828,
      "ㅇㅁㅇ": 7829,
      "ㅠㅜ": 7830,
      "경쟁": 7831,
      "낫지": 7832,
      "논문": 7833,
      "목표": 7834,
      "뭐랄까": 7835,
      "부담": 7836,
      "슬퍼": 7837,
      "싶습니다": 7838,
      "택시": 7839,
      "하게": 7840,
      "한숨": 7841,
      "해요": 7842,
      "했지": 7843,
      "훨씬": 7844,
      "힘내": 7845,
      "##다리": 7846,
      "##해요": 7847,
      "##사친": 7848,
      "##레이": 7849,
      "##할듯": 7850,
      "##하시": 7851,
      "##먹구": 7852,
      "##있어": 7853,
      "##있음": 7854,
      "##리러": 7855,
      "##인트": 7856,
      "##rite": 7857,
      "##알바": 7858,
      "##왔는데": 7859,
      "사람도": 7860,
      "필요한": 7861,
      "아무도": 7862,
      "노트북": 7863,
      "과정": 7864,
      "덕분에": 7865,
      "때부터": 7866,
      "본인": 7867,
      "어딨": 7868,
      "업써": 7869,
      "예뿌": 7870,
      "왔져": 7871,
      "작년": 7872,
      "전까지": 7873,
      "좋다": 7874,
      "최종": 7875,
      "했을": 7876,
      "##도네": 7877,
      "##어로": 7878,
      "##가가": 7879,
      "##학생": 7880,
      "##기면": 7881,
      "##당초": 7882,
      "##테니까": 7883,
      "##애가": 7884,
      "##위치": 7885,
      "##모르": 7886,
      "##약간": 7887,
      "##벌써": 7888,
      "나오면": 7889,
      "은경아": 7890,
      "##정도면": 7891,
      "##여기서": 7892,
      "import": 7893,
      "들오": 7894,
      "모델": 7895,
      "병원": 7896,
      "빡세": 7897,
      "수는": 7898,
      "싸우": 7899,
      "아는데": 7900,
      "안와": 7901,
      "업떠": 7902,
      "예쁜": 7903,
      "와또": 7904,
      "원하는": 7905,
      "위한": 7906,
      "일본": 7907,
      "전체": 7908,
      "카드": 7909,
      "##도착": 7910,
      "##주의": 7911,
      "##진다": 7912,
      "##행복": 7913,
      "##짜리": 7914,
      "##너도": 7915,
      "##저는": 7916,
      "댕아댕아나": 7917,
      "##이라구": 7918,
      "내일은": 7919,
      "있을까": 7920,
      "##오빠는": 7921,
      "사랑해♡": 7922,
      "이해가": 7923,
      "머거여": 7924,
      "##lay": 7925,
      "가족": 7926,
      "골라": 7927,
      "구박": 7928,
      "그리구": 7929,
      "머거야": 7930,
      "보이는": 7931,
      "빅데이터": 7932,
      "있오": 7933,
      "자기가": 7934,
      "피자": 7935,
      "##부러": 7936,
      "##해따": 7937,
      "##내서": 7938,
      "##어떻게": 7939,
      "##코테": 7940,
      "##와중에": 7941,
      "##볼까": 7942,
      "ㅠㅠ댕아": 7943,
      "##으로도": 7944,
      "ㅎㅎㅋㅋㅋㅋ": 7945,
      "잘자여": 7946,
      "회사에서": 7947,
      "져아해": 7948,
      "##어야지": 7949,
      "끝나쪄": 7950,
      "가는중": 7951,
      "괜찮은": 7952,
      "std": 7953,
      "19": 7954,
      "당황": 7955,
      "딱히": 7956,
      "맛나게": 7957,
      "맞네": 7958,
      "뭔소리": 7959,
      "보면서": 7960,
      "분야": 7961,
      "시스템": 7962,
      "아저씨": 7963,
      "안해서": 7964,
      "입력": 7965,
      "재미": 7966,
      "중인데": 7967,
      "참여": 7968,
      "특히": 7969,
      "학점": 7970,
      "회식": 7971,
      "##그니까": 7972,
      "##했다고": 7973,
      "##ㄷ0": 7974,
      "##100": 7975,
      "##니터": 7976,
      "##시다": 7977,
      "##더라고": 7978,
      "##겠징": 7979,
      "##ㅅ는데": 7980,
      "##봤자": 7981,
      "ㅋㅋㅋㅋ와": 7982,
      "댕이나": 7983,
      "댕아♡": 7984,
      "##으로는": 7985,
      "사랑하는": 7986,
      "모르고": 7987,
      "타롱해♡": 7988,
      "15분": 7989,
      "1번": 7990,
      "end": 7991,
      "결제": 7992,
      "된다": 7993,
      "때가": 7994,
      "많고": 7995,
      "못하": 7996,
      "못해서": 7997,
      "문자": 7998,
      "받아서": 7999,
      "쉽게": 8000,
      "실패": 8001,
      "써도": 8002,
      "읽어": 8003,
      "할머니": 8004,
      "했자나": 8005,
      "##그치": 8006,
      "##운동": 8007,
      "##뭐지": 8008,
      "##만히": 8009,
      "##마리": 8010,
      "##나요": 8011,
      "##재밌": 8012,
      "##더더": 8013,
      "##로는": 8014,
      "##렸는데": 8015,
      "##ul": 8016,
      "##50": 8017,
      "##겠습니다": 8018,
      "##ial": 8019,
      "##식을": 8020,
      "##려는": 8021,
      "##ㅔㅔ": 8022,
      "##왜냐면": 8023,
      "##받아": 8024,
      "만나는": 8025,
      "시간에": 8026,
      "끝나구": 8027,
      "##은경이": 8028,
      "##가지구": 8029,
      "오디야": 8030,
      "##igit": 8031,
      "200": 8032,
      "60": 8033,
      "cin": 8034,
      "head": 8035,
      "par": 8036,
      "나보다": 8037,
      "남은": 8038,
      "담에": 8039,
      "대단": 8040,
      "말하": 8041,
      "뭐라고": 8042,
      "에어": 8043,
      "연봉": 8044,
      "이또": 8045,
      "일주일": 8046,
      "작은": 8047,
      "주안": 8048,
      "##래도": 8049,
      "##시미": 8050,
      "##ㅈㄴ": 8051,
      "##일까": 8052,
      "##자구": 8053,
      "##있는데": 8054,
      "##ㅍㅍ": 8055,
      "##ai": 8056,
      "##바부": 8057,
      "##말이": 8058,
      "##저건": 8059,
      "##유ㅓ": 8060,
      "##맞아": 8061,
      "##처리": 8062,
      "##언니": 8063,
      "ㅋㅋㅋㅋㅋㅋㅋㅋㅋㅋㅋㅋ댕이": 8064,
      "물어보": 8065,
      "##잘자떠": 8066,
      "##ㅎㅋㅎㅋㅎㅋㅎㅋ": 8067,
      "1000": 8068,
      "돌아가": 8069,
      "##아직도": 8070,
      "##hile": 8071,
      "num": 8072,
      "기간": 8073,
      "넘넘": 8074,
      "다운": 8075,
      "때까지": 8076,
      "말하고": 8077,
      "바라": 8078,
      "분명": 8079,
      "사회": 8080,
      "삼전": 8081,
      "새끼": 8082,
      "앉아": 8083,
      "얘가": 8084,
      "케이스": 8085,
      "해줄": 8086,
      "##도희": 8087,
      "##이걸": 8088,
      "##내고": 8089,
      "##시로": 8090,
      "##라가": 8091,
      "##워니": 8092,
      "##마어": 8093,
      "##져아": 8094,
      "##조금": 8095,
      "##te": 8096,
      "##ist": 8097,
      "##배고": 8098,
      "##준다": 8099,
      "##ㄱㅋㅋㅋㅋ": 8100,
      "##알고": 8101,
      "##먼저": 8102,
      "ㅋㅋㅋㅋㅋㅋㅋㅋ나": 8103,
      "##그래두": 8104,
      "##어어어어": 8105,
      "##스러운": 8106,
      "##ames": 8107,
      "이것저것": 8108,
      "##igital": 8109,
      "글치": 8110,
      "남편": 8111,
      "라즈베리": 8112,
      "못가": 8113,
      "스펙": 8114,
      "시켰": 8115,
      "심각": 8116,
      "없자나": 8117,
      "에러": 8118,
      "이직": 8119,
      "자세": 8120,
      "잡아": 8121,
      "전혀": 8122,
      "축하": 8123,
      "한명": 8124,
      "했음": 8125,
      "##카페": 8126,
      "##했으면": 8127,
      "##제가": 8128,
      "##너는": 8129,
      "##너랑": 8130,
      "##드가": 8131,
      "##돼서": 8132,
      "##당께": 8133,
      "##들의": 8134,
      "##nt": 8135,
      "##미쳤": 8136,
      "##말고": 8137,
      "##르륵": 8138,
      "##치킨": 8139,
      "##댕이한테": 8140,
      "이러한": 8141,
      "인나떠": 8142,
      "이번주": 8143,
      "11시": 8144,
      "귀여운": 8145,
      "40": 8146,
      "digital": 8147,
      "거는": 8148,
      "계산": 8149,
      "괜히": 8150,
      "넘무": 8151,
      "머리가": 8152,
      "미국": 8153,
      "버즈": 8154,
      "스마트": 8155,
      "써서": 8156,
      "안함": 8157,
      "안됐": 8158,
      "알겠": 8159,
      "오고": 8160,
      "웃기": 8161,
      "웃긴": 8162,
      "은행": 8163,
      "쪼끔": 8164,
      "편지": 8165,
      "함께": 8166,
      "힘드": 8167,
      "##수랑": 8168,
      "##이번에": 8169,
      "##해용": 8170,
      "##진심": 8171,
      "##하루": 8172,
      "##선물": 8173,
      "##잠깐": 8174,
      "##돌아": 8175,
      "##과제": 8176,
      "##장님": 8177,
      "##취업": 8178,
      "##ㅋㅋㅋㅋㅋㅋㅋㅋㅋㅋㅋㅋㅋㅋㅋㅋㅋㅋㅋㅋㅋㅋㅋ": 8179,
      "ㅋㅋㅋㅋㅋㅋㅋㅋ아": 8180,
      "##해야대": 8181,
      "##이었어": 8182,
      "##ㅋㅋㅋㅋㅋㅋㅋㅋㅋㅋㅋㅋㅋㅋㅋㅋㅋㅋㅋㅋㅋㅋㅋㅋㅋㅋㅋㅋㅋㅋㅋㅋㅋㅋㅋㅋㅋㅋㅋㅋㅋㅋㅋㅋㅋㅋㅋㅋㅋㅋㅋㅋㅋㅋㅋㅋㅋㅋㅋㅋㅋㅋㅋㅋ": 8183,
      "어디야": 8184,
      "나가서": 8185,
      "나왔는데": 8186,
      "거기서": 8187,
      "3시간": 8188,
      "chil": 8189,
      "같기도": 8190,
      "거짓말": 8191,
      "내내": 8192,
      "대표": 8193,
      "돈이": 8194,
      "맞추": 8195,
      "배터": 8196,
      "보다": 8197,
      "불러": 8198,
      "속이": 8199,
      "실수": 8200,
      "안드로이드": 8201,
      "애들은": 8202,
      "오지게": 8203,
      "오랜만에": 8204,
      "올해": 8205,
      "융냐": 8206,
      "이럴": 8207,
      "자바": 8208,
      "적당히": 8209,
      "처리": 8210,
      "프사": 8211,
      "후에": 8212,
      "##이자": 8213,
      "##아버": 8214,
      "##하느라": 8215,
      "##었지": 8216,
      "##줘떠": 8217,
      "##fc": 8218,
      "##wit": 8219,
      "##잘해떠": 8220,
      "##ㅁㅁ": 8221,
      "##였던": 8222,
      "##였습니다": 8223,
      "##분이": 8224,
      "##씻구": 8225,
      "##갈게": 8226,
      "##별로": 8227,
      "##났다": 8228,
      "##굳이": 8229,
      "아니라고": 8230,
      "ㅋㅋㅋㅋㅋㅋㅋㅋㅋㅋㅋㅋㅋㅋㅋㅋㅋㅋㅋㅋㅋㅋㅋㅋㅋㅋㅋㅋㅋㅋㅋㅋㅋ": 8231,
      "그러게": 8232,
      "그거는": 8233,
      "##우리가": 8234,
      "있었어": 8235,
      "##ㅌㅌㅌ": 8236,
      "##erial": 8237,
      "##엄마랑": 8238,
      "##어디서": 8239,
      "안된다": 8240,
      "child": 8241,
      "##witch": 8242,
      "3시": 8243,
      "4시": 8244,
      "개인": 8245,
      "거자나": 8246,
      "금요일": 8247,
      "마라": 8248,
      "말씀": 8249,
      "문재": 8250,
      "봐바": 8251,
      "설정": 8252,
      "쉬고": 8253,
      "않음": 8254,
      "올리": 8255,
      "우웅": 8256,
      "우린": 8257,
      "졸리": 8258,
      "지쨔": 8259,
      "해보": 8260,
      "했고": 8261,
      "##했자나": 8262,
      "##ㅎㅅㅎ": 8263,
      "##년도": 8264,
      "##세용": 8265,
      "##음이": 8266,
      "##인디": 8267,
      "##와떠": 8268,
      "##성을": 8269,
      "##된다": 8270,
      "##장에": 8271,
      "##99": 8272,
      "##분위": 8273,
      "##UL": 8274,
      "##ㅋㅋㅋㅋ오": 8275,
      "들어왔": 8276,
      "문제는": 8277,
      "어디가": 8278,
      "저녁에": 8279,
      "정도는": 8280,
      "물어봤": 8281,
      "생각해보니까": 8282,
      "하루종일": 8283,
      "스타일": 8284,
      "중간에": 8285,
      "주말에": 8286,
      "3년": 8287,
      "Switch": 8288,
      "가방": 8289,
      "것보다": 8290,
      "계약": 8291,
      "기엽": 8292,
      "나은": 8293,
      "넘어서": 8294,
      "데려": 8295,
      "두번": 8296,
      "들을": 8297,
      "상처": 8298,
      "생활": 8299,
      "아래": 8300,
      "어떠": 8301,
      "에이": 8302,
      "예전에": 8303,
      "인간": 8304,
      "있잖아": 8305,
      "자려구": 8306,
      "제어": 8307,
      "제발": 8308,
      "직장": 8309,
      "충격": 8310,
      "치마": 8311,
      "테스트": 8312,
      "##야함": 8313,
      "##짜증": 8314,
      "##긴한데": 8315,
      "##감이": 8316,
      "##fs": 8317,
      "##동기": 8318,
      "##케이션": 8319,
      "##비가": 8320,
      "##되게": 8321,
      "##배가": 8322,
      "##등학교": 8323,
      "##모야": 8324,
      "##저렇게": 8325,
      "##듯이": 8326,
      "##ve": 8327,
      "그러네": 8328,
      "##지금은": 8329,
      "몰라서": 8330,
      "기분이": 8331,
      "프로그램": 8332,
      "사롱하구": 8333,
      "new": 8334,
      "parent": 8335,
      "##ULL": 8336,
      "5시": 8337,
      "te": 8338,
      "고딩": 8339,
      "그론": 8340,
      "나눠": 8341,
      "노노": 8342,
      "다리": 8343,
      "멘토": 8344,
      "못함": 8345,
      "백엔드": 8346,
      "보는데": 8347,
      "스스로": 8348,
      "아쥬": 8349,
      "안고": 8350,
      "안하면": 8351,
      "익숙": 8352,
      "있게": 8353,
      "자는": 8354,
      "잠만": 8355,
      "주소": 8356,
      "##그리구": 8357,
      "##데이트": 8358,
      "##다들": 8359,
      "##했음": 8360,
      "##구야": 8361,
      "##이구": 8362,
      "##19": 8363,
      "##야징": 8364,
      "##할텐데": 8365,
      "##자의": 8366,
      "##뭐라": 8367,
      "##지하철": 8368,
      "##개발": 8369,
      "##있고": 8370,
      "##으까": 8371,
      "##거얌": 8372,
      "##느냐": 8373,
      "##pa": 8374,
      "##계가": 8375,
      "##물이": 8376,
      "##물어": 8377,
      "##꾸야": 8378,
      "##ㅋㅋㅋㅋ댕이": 8379,
      "모르겠고": 8380,
      "구래구래": 8381,
      "ㅠㅠㅠㅠㅠㅠㅠㅠㅠㅠ": 8382,
      "##얼마나": 8383,
      "##urn": 8384,
      "300": 8385,
      "5장": 8386,
      "8ㅅ8": 8387,
      "SOS": 8388,
      "data": 8389,
      "간단": 8390,
      "감동": 8391,
      "거에": 8392,
      "겁나": 8393,
      "그리": 8394,
      "글쎄": 8395,
      "기대": 8396,
      "너를": 8397,
      "더욱": 8398,
      "되니까": 8399,
      "드는": 8400,
      "매우": 8401,
      "밑에": 8402,
      "비싼": 8403,
      "실제로": 8404,
      "싶었": 8405,
      "안남": 8406,
      "없으니까": 8407,
      "연차": 8408,
      "월급": 8409,
      "잘겡": 8410,
      "저번에": 8411,
      "전여친": 8412,
      "집중": 8413,
      "채용": 8414,
      "피고": 8415,
      "할게": 8416,
      "해주는": 8417,
      "##이당": 8418,
      "##현재": 8419,
      "##네가": 8420,
      "##상을": 8421,
      "##할거야": 8422,
      "##하군": 8423,
      "##하라고": 8424,
      "##지니": 8425,
      "##기다": 8426,
      "##땡이": 8427,
      "##인은": 8428,
      "##문에": 8429,
      "##들고": 8430,
      "##들이랑": 8431,
      "##한게": 8432,
      "##겠다는": 8433,
      "##되지": 8434,
      "##였다": 8435,
      "##블리": 8436,
      "##OR": 8437,
      "##홧팅": 8438,
      "##ㅋㅋㅋㅋㅋㅋㅋㅋㅋㅋㅋㅋㅋㅋㅋㅋㅋㅋㅋㅋㅋㅋ": 8439,
      "##ㅋㅋㅋㅋㅋㅋㅋㅋㅋㅋㅋㅋㅋㅋㅋㅋㅋㅋㅋㅋㅋㅋㅋㅋㅋㅋㅋ": 8440,
      "있었습니다": 8441,
      "이러면": 8442,
      "알았어": 8443,
      "arr1": 8444,
      "옹동아": 8445,
      "어려운": 8446,
      "##도네시아": 8447,
      "가슴": 8448,
      "공유": 8449,
      "기능": 8450,
      "까먹": 8451,
      "동방": 8452,
      "드라": 8453,
      "생긴": 8454,
      "소비": 8455,
      "수학": 8456,
      "안쓰": 8457,
      "어린": 8458,
      "없구": 8459,
      "예뻐": 8460,
      "오때": 8461,
      "의견": 8462,
      "있구": 8463,
      "자식": 8464,
      "잘생": 8465,
      "최대한": 8466,
      "키워": 8467,
      "##다행": 8468,
      "##이뿌": 8469,
      "##아파": 8470,
      "##난다": 8471,
      "##시면": 8472,
      "##하거나": 8473,
      "##무조건": 8474,
      "##한텐": 8475,
      "##os": 8476,
      "##신가": 8477,
      "##신청": 8478,
      "##케팅": 8479,
      "##위에": 8480,
      "##형이": 8481,
      "##ㅐㅐ": 8482,
      "사람을": 8483,
      "그러지": 8484,
      "엄마는": 8485,
      "얘기하는": 8486,
      "만들어서": 8487,
      "이러면서": 8488,
      "안해도": 8489,
      "갈아입": 8490,
      "비슷한": 8491,
      "##동영상동영상": 8492,
      "2주": 8493,
      "sw": 8494,
      "while": 8495,
      "걸리": 8496,
      "계획": 8497,
      "괜차나": 8498,
      "그지": 8499,
      "링크": 8500,
      "먹지": 8501,
      "문경": 8502,
      "받으면": 8503,
      "보이": 8504,
      "설치": 8505,
      "오후": 8506,
      "오껭": 8507,
      "용돈": 8508,
      "이것도": 8509,
      "인적성": 8510,
      "일을": 8511,
      "일요일": 8512,
      "접근": 8513,
      "찍은": 8514,
      "활동": 8515,
      "##이군": 8516,
      "##부모": 8517,
      "##해줘서": 8518,
      "##먹는": 8519,
      "##생이": 8520,
      "##들한테": 8521,
      "##렸다": 8522,
      "##바지": 8523,
      "##씨가": 8524,
      "##되서": 8525,
      "##였지": 8526,
      "##였음": 8527,
      "##였나": 8528,
      "##장을": 8529,
      "##ㅃㄹ": 8530,
      "##ㅋㅋㅋㅋㅋㅋㅋㅋㅋㅋㅋㅋㅋㅋㅋㅋㅋㅋㅋㅋㅋㅋㅋㅋㅋㅋㅋㅋ": 8531,
      "##아니야": 8532,
      "오빠한테": 8533,
      "하나하나": 8534,
      "이러는": 8535,
      "##ers": 8536,
      "##고생해또": 8537,
      "##지구청": 8538,
      "7시": 8539,
      "tr": 8540,
      "가격": 8541,
      "갖구": 8542,
      "고쳐": 8543,
      "괴롭": 8544,
      "나라": 8545,
      "내꺼": 8546,
      "높은": 8547,
      "대기업": 8548,
      "말할": 8549,
      "매번": 8550,
      "머그러": 8551,
      "몇번": 8552,
      "빠르게": 8553,
      "사서": 8554,
      "사과": 8555,
      "싶지": 8556,
      "아나": 8557,
      "안드": 8558,
      "에휴": 8559,
      "예배": 8560,
      "오지": 8561,
      "위주": 8562,
      "이고": 8563,
      "이은경": 8564,
      "자나": 8565,
      "자취": 8566,
      "조심": 8567,
      "체크": 8568,
      "화면": 8569,
      "휴가": 8570,
      "##아닌": 8571,
      "##어여": 8572,
      "##어쩌": 8573,
      "##야겠당": 8574,
      "##뭐야": 8575,
      "##마곡": 8576,
      "##원이": 8577,
      "##치면": 8578,
      "ㅋㅋㅋㅋ내가": 8579,
      "##댕이를": 8580,
      "ㅋㅋㅋㅋㅋㅋㅋㅋ댕아": 8581,
      "##♡♡ㅋㅋㅋㅋ": 8582,
      "생각하면": 8583,
      "들어갔": 8584,
      "10시": 8585,
      "가야지": 8586,
      "##eap": 8587,
      "##생각해보": 8588,
      "##ㅣㅣㅣㅣ": 8589,
      "names": 8590,
      "갔다가": 8591,
      "같지": 8592,
      "걸어": 8593,
      "검사": 8594,
      "그려": 8595,
      "끝날": 8596,
      "나갔": 8597,
      "담주": 8598,
      "들으면": 8599,
      "떠오": 8600,
      "몸이": 8601,
      "무리": 8602,
      "백준": 8603,
      "버리고": 8604,
      "벌어": 8605,
      "블로그": 8606,
      "안자": 8607,
      "좋고": 8608,
      "지수": 8609,
      "최근": 8610,
      "후후": 8611,
      "##구랭": 8612,
      "##보여": 8613,
      "##보드": 8614,
      "##이잉": 8615,
      "##네요": 8616,
      "##해져": 8617,
      "##♡나": 8618,
      "##어때": 8619,
      "##스는": 8620,
      "##하까": 8621,
      "##대학": 8622,
      "##기사": 8623,
      "##드려": 8624,
      "##소개": 8625,
      "##코로나": 8626,
      "##바일": 8627,
      "##애초에": 8628,
      "##모해": 8629,
      "##버거": 8630,
      "##장은": 8631,
      "##죠아": 8632,
      "##확실": 8633,
      "##혼자": 8634,
      "ㅋㅋㅋㅋ난": 8635,
      "아니자나": 8636,
      "생각은": 8637,
      "있을게": 8638,
      "##그러고": 8639,
      "찌찌야": 8640,
      "return": 8641,
      "2차": 8642,
      "9시": 8643,
      "건강": 8644,
      "내리": 8645,
      "너네": 8646,
      "더워": 8647,
      "도망": 8648,
      "되자나": 8649,
      "머시": 8650,
      "바쁜": 8651,
      "반차": 8652,
      "버려": 8653,
      "봐서": 8654,
      "부탁": 8655,
      "쓰지": 8656,
      "안하": 8657,
      "여름": 8658,
      "있대": 8659,
      "잘장": 8660,
      "쟈철": 8661,
      "전기": 8662,
      "집으로": 8663,
      "첨에": 8664,
      "치고": 8665,
      "클래": 8666,
      "##이든": 8667,
      "##해줄": 8668,
      "##아님": 8669,
      "##트가": 8670,
      "##스를": 8671,
      "##만나": 8672,
      "##무리": 8673,
      "##당연": 8674,
      "##바닥": 8675,
      "##pt": 8676,
      "##30분": 8677,
      "##완전": 8678,
      "##갈비": 8679,
      "##줬으면": 8680,
      "##몰라": 8681,
      "##롯데": 8682,
      "우리집": 8683,
      "ㅋㅋㅋㅋㅋㅋㅋㅋㅋㅋㅋㅋㅋㅋㅋㅋㅋㅋㅋㅋㅋㅋㅋㅋㅋㅋㅋㅋㅋㅋㅋㅋㅋㅋㅋㅋ": 8684,
      "오빠랑": 8685,
      "물어봐": 8686,
      "피곤해서": 8687,
      "##옹동이": 8688,
      "이후로": 8689,
      "은굥이": 8690,
      "보굽파": 8691,
      "23": 8692,
      "27": 8693,
      "기계": 8694,
      "나타": 8695,
      "대회": 8696,
      "데리러": 8697,
      "맛있는": 8698,
      "맞았": 8699,
      "먹기": 8700,
      "모름": 8701,
      "반응": 8702,
      "보자": 8703,
      "봤어": 8704,
      "분위": 8705,
      "뽑뽀": 8706,
      "샐러드": 8707,
      "수강": 8708,
      "실력": 8709,
      "안한": 8710,
      "애당초": 8711,
      "오른": 8712,
      "위치": 8713,
      "중국": 8714,
      "지워": 8715,
      "확진": 8716,
      "##래서": 8717,
      "##해봐": 8718,
      "##해ㅋㅋㅋㅋ": 8719,
      "##하셨": 8720,
      "##대에": 8721,
      "##을거야": 8722,
      "##인천": 8723,
      "##때는": 8724,
      "##로만": 8725,
      "##잘못": 8726,
      "##ㄴ데": 8727,
      "공부하고": 8728,
      "잘못한": 8729,
      "친구가": 8730,
      "##스트코": 8731,
      "이따가": 8732,
      "아침부터": 8733,
      "사라져": 8734,
      "배고프": 8735,
      "호고동": 8736,
      "간당": 8737,
      "감정": 8738,
      "것이": 8739,
      "것처럼": 8740,
      "공채": 8741,
      "교회": 8742,
      "금방": 8743,
      "내고": 8744,
      "단어": 8745,
      "마찬": 8746,
      "먹은": 8747,
      "못할": 8748,
      "배가": 8749,
      "번도": 8750,
      "보낼": 8751,
      "불쌍": 8752,
      "싫은": 8753,
      "안아": 8754,
      "안해주": 8755,
      "안들어": 8756,
      "얌마": 8757,
      "예상": 8758,
      "월요일": 8759,
      "이론": 8760,
      "조아": 8761,
      "좋을": 8762,
      "창업": 8763,
      "쳐다": 8764,
      "하던": 8765,
      "한두": 8766,
      "합니다": 8767,
      "해줘": 8768,
      "확신": 8769,
      "##에엥": 8770,
      "##다니까": 8771,
      "##주가": 8772,
      "##오호": 8773,
      "##세상": 8774,
      "##60": 8775,
      "##생활": 8776,
      "##머님": 8777,
      "##ㄱㅋㅋㅋㅋㅋ": 8778,
      "##버림": 8779,
      "##경영": 8780,
      "생각도": 8781,
      "도착하면": 8782,
      "오빠도": 8783,
      "##ㅏㅏㅏ": 8784,
      "ㅜㅜㅜ": 8785,
      "문제를": 8786,
      "공부를": 8787,
      "안되는데": 8788,
      "이미지": 8789,
      "처음에": 8790,
      "끝났져": 8791,
      "보구싶당": 8792,
      "새로운": 8793,
      "##ORT": 8794,
      "9200": 8795,
      "led": 8796,
      "pin": 8797,
      "가만히": 8798,
      "곳이": 8799,
      "그만큼": 8800,
      "꾸준": 8801,
      "끝까지": 8802,
      "냄새": 8803,
      "누워": 8804,
      "눌러": 8805,
      "드디어": 8806,
      "라인": 8807,
      "만큼": 8808,
      "먹여": 8809,
      "모터": 8810,
      "바지": 8811,
      "방학": 8812,
      "사러": 8813,
      "실화": 8814,
      "쓰러": 8815,
      "않냐": 8816,
      "인성": 8817,
      "있다가": 8818,
      "지켜": 8819,
      "투자": 8820,
      "페북": 8821,
      "해주고": 8822,
      "흐음": 8823,
      "##그로": 8824,
      "##러워": 8825,
      "##이플": 8826,
      "##오휴": 8827,
      "##어져": 8828,
      "##시러": 8829,
      "##라는데": 8830,
      "##었나": 8831,
      "##리케이션": 8832,
      "##기야": 8833,
      "##졌다": 8834,
      "##때도": 8835,
      "##프트": 8836,
      "##머지는": 8837,
      "##ab": 8838,
      "##회의": 8839,
      "##떠ㅋㅋㅋㅋ": 8840,
      "##ㄱㅋㅋㅋㅋㅋㅋ": 8841,
      "##피티": 8842,
      "##랜드": 8843,
      "##ㅋㅋㅋㅋㅋㅋㅋㅋㅋㅋㅋㅋㅋㅋㅋㅋㅋㅋㅋㅋㅋㅋㅋㅋㅋㅋㅋㅋㅋ": 8844,
      "##한테는": 8845,
      "ㅋㅋ이거": 8846,
      "##하지마": 8847,
      "미안한데": 8848,
      "##ㅜㅜㅜ": 8849,
      "남자애": 8850,
      "##내일은": 8851,
      "##스트로": 8852,
      "요즘에": 8853,
      "12시": 8854,
      "##ont": 8855,
      "느낌이": 8856,
      "상황이": 8857,
      "##ㅇㅋㅇㅋ": 8858,
      "같긴한데": 8859,
      "바보야": 8860,
      "##웃기넼": 8861,
      "왔다갔다": 8862,
      "##라우드": 8863,
      "90": 8864,
      "ch": 8865,
      "main": 8866,
      "거잖아": 8867,
      "결론": 8868,
      "공대": 8869,
      "구글": 8870,
      "낼봐": 8871,
      "누군": 8872,
      "마케팅": 8873,
      "물리": 8874,
      "배우": 8875,
      "보지": 8876,
      "삼겹살": 8877,
      "세계": 8878,
      "싶다고": 8879,
      "쓰레기": 8880,
      "알람": 8881,
      "오프": 8882,
      "이야": 8883,
      "이라고": 8884,
      "점수": 8885,
      "집안": 8886,
      "풀고": 8887,
      "플젝": 8888,
      "할수": 8889,
      "할래": 8890,
      "활용": 8891,
      "##그나저나": 8892,
      "##서울": 8893,
      "##주지": 8894,
      "##해지": 8895,
      "##으려고": 8896,
      "##기간": 8897,
      "##게임": 8898,
      "##인뎅": 8899,
      "##냐하면": 8900,
      "##힘들": 8901,
      "##한가": 8902,
      "##ds": 8903,
      "##양이": 8904,
      "##타이": 8905,
      "##반기": 8906,
      "##댱아": 8907,
      "##장히": 8908,
      "##분투": 8909,
      "##출발": 8910,
      "##ck": 8911,
      "##찾아": 8912,
      "ㅋㅋㅋㅋㅋㅋㅋㅋㅋㅋㅋㅋㅋㅋㅋㅋㅋㅋㅋㅋㅋㅋㅋㅋㅋㅋㅋㅋㅋㅋㅋㅋㅋㅋ": 8913,
      "그렇다고": 8914,
      "끝나서": 8915,
      "생각해보면": 8916,
      "##itude": 8917,
      "짜증나": 8918,
      "##후후후후": 8919,
      "안된다고": 8920,
      "def": 8921,
      "가르": 8922,
      "갖다": 8923,
      "거다": 8924,
      "계절": 8925,
      "기말": 8926,
      "대로": 8927,
      "돈을": 8928,
      "됐어": 8929,
      "말까": 8930,
      "맞음": 8931,
      "머신": 8932,
      "모른": 8933,
      "모바일": 8934,
      "버전": 8935,
      "빠져": 8936,
      "설거지": 8937,
      "세수": 8938,
      "소설": 8939,
      "싶을": 8940,
      "어이": 8941,
      "여성": 8942,
      "와이": 8943,
      "작성": 8944,
      "전자": 8945,
      "쨌든": 8946,
      "참고로": 8947,
      "청소": 8948,
      "충전": 8949,
      "프린": 8950,
      "해봐": 8951,
      "해놓고": 8952,
      "##그랬": 8953,
      "##했대": 8954,
      "##고마워": 8955,
      "##아냉": 8956,
      "##어진": 8957,
      "##가구": 8958,
      "##할래": 8959,
      "##나보다": 8960,
      "##ser": 8961,
      "##소에": 8962,
      "##소마": 8963,
      "##ㅇ이": 8964,
      "##ㅇ아": 8965,
      "##로운": 8966,
      "##wow": 8967,
      "##노트": 8968,
      "##거라고": 8969,
      "##pp": 8970,
      "##준비": 8971,
      "##였으면": 8972,
      "##치네": 8973,
      "##큐ㅠㅠㅠㅠ": 8974,
      "##차낭": 8975,
      "##받는": 8976,
      "##Mode": 8977,
      "##ㅋㅋㅋㅋ아": 8978,
      "ㅋㅋㅋㅋ근데": 8979,
      "##ㅋㅋㅋㅋㅋㅋㅋㅋㅋㅋㅋㅋㅋㅋㅋㅋㅋㅋㅋㅋㅋㅋㅋㅋㅋ": 8980,
      "##이라면": 8981,
      "하나는": 8982,
      "시간은": 8983,
      "안되고": 8984,
      "안되지": 8985,
      "나오고": 8986,
      "필요해": 8987,
      "교수님이": 8988,
      "맛있게": 8989,
      "충분히": 8990,
      "using": 8991,
      "endl": 8992,
      "define": 8993,
      "IT": 8994,
      "PORT": 8995,
      "ㅈㄹ": 8996,
      "가게": 8997,
      "기반": 8998,
      "낼바": 8999,
      "눈이": 9000,
      "다섯": 9001,
      "따라서": 9002,
      "맞고": 9003,
      "반대": 9004,
      "발견": 9005,
      "봐야": 9006,
      "부서": 9007,
      "사면": 9008,
      "싶다는": 9009,
      "어찌": 9010,
      "이찌": 9011,
      "정상": 9012,
      "타이": 9013,
      "한대": 9014,
      "해당": 9015,
      "헷갈": 9016,
      "환불": 9017,
      "##그그": 9018,
      "##했구": 9019,
      "##구냥": 9020,
      "##1번": 9021,
      "##사는": 9022,
      "##어느": 9023,
      "##담주": 9024,
      "##하진": 9025,
      "##었다고": 9026,
      "##쯤에": 9027,
      "##인다": 9028,
      "##월에": 9029,
      "##크림": 9030,
      "##타고": 9031,
      "##겠넹": 9032,
      "##랫폼": 9033,
      "##와여": 9034,
      "##된다고": 9035,
      "##얘기": 9036,
      "##메라": 9037,
      "##Of": 9038,
      "##PUT": 9039,
      "##웨어": 9040,
      "##ㅋㅋㅋㅋㅋㅋㅋㅋㅋㅋㅋㅋㅋㅋㅋㅋㅋㅋㅋㅋㅋㅋㅋㅋㅋㅋ": 9041,
      "##이라는데": 9042,
      "도착해서": 9043,
      "들어오": 9044,
      "만나러": 9045,
      "해야하나": 9046,
      "회사가": 9047,
      "고생했져": 9048,
      "아이디": 9049,
      "떨어졌": 9050,
      "말해죠": 9051,
      "##ild": 9052,
      "30장": 9053,
      "##에에에에": 9054,
      "##타롱햐": 9055,
      "일어날": 9056,
      "##미안해": 9057,
      "보기엔": 9058,
      "1분": 9059,
      "3일": 9060,
      "35": 9061,
      "70": 9062,
      "wow": 9063,
      "가정": 9064,
      "개많": 9065,
      "굥이": 9066,
      "날이": 9067,
      "너의": 9068,
      "당요": 9069,
      "댜깅": 9070,
      "돼서": 9071,
      "딥러닝": 9072,
      "막차": 9073,
      "말라": 9074,
      "보안": 9075,
      "불가": 9076,
      "빠르": 9077,
      "사야": 9078,
      "새벽": 9079,
      "생기": 9080,
      "스위치": 9081,
      "싶으면": 9082,
      "양심": 9083,
      "엔지니": 9084,
      "온라인": 9085,
      "와써": 9086,
      "움직": 9087,
      "이뽀": 9088,
      "자서": 9089,
      "잠이": 9090,
      "재빈": 9091,
      "적은": 9092,
      "졸려서": 9093,
      "주면": 9094,
      "지가": 9095,
      "타면": 9096,
      "통과": 9097,
      "팩트": 9098,
      "하라고": 9099,
      "##는거": 9100,
      "##보내": 9101,
      "##이랬": 9102,
      "##해가": 9103,
      "##용이": 9104,
      "##사라": 9105,
      "##사롱": 9106,
      "##시만": 9107,
      "##스에": 9108,
      "##워크": 9109,
      "##있어서": 9110,
      "##안돼": 9111,
      "##대신": 9112,
      "##리게": 9113,
      "##기억": 9114,
      "##한다구": 9115,
      "##미리": 9116,
      "##2번": 9117,
      "##점을": 9118,
      "##량화": 9119,
      "##금티": 9120,
      "##저게": 9121,
      "##단계": 9122,
      "##응응": 9123,
      "##씻고": 9124,
      "##흐움": 9125,
      "##댓글": 9126,
      "##럭시": 9127,
      "##백동원": 9128,
      "##읽씹": 9129,
      "ㅋㅋㅋㅋㅋㅋㅋㅋㅋ댕이": 9130,
      "도착했어": 9131,
      "##그래밍": 9132,
      "해야대": 9133,
      "##지금까지": 9134,
      "물어본": 9135,
      "들어가구": 9136,
      "##ong": 9137,
      "##스럽게": 9138,
      "백동원님이": 9139,
      "##pace": 9140,
      "80": 9141,
      "tmp": 9142,
      "가입": 9143,
      "간다고": 9144,
      "갔는데": 9145,
      "광고": 9146,
      "능력": 9147,
      "다이": 9148,
      "대상": 9149,
      "댕니": 9150,
      "동시에": 9151,
      "되긴": 9152,
      "라이": 9153,
      "모니터": 9154,
      "뭔뎈": 9155,
      "뭘까": 9156,
      "빌려": 9157,
      "오오오오오": 9158,
      "오에스": 9159,
      "올렸": 9160,
      "은표": 9161,
      "이전": 9162,
      "정석": 9163,
      "초딩": 9164,
      "컴파일": 9165,
      "타구": 9166,
      "페미": 9167,
      "함수": 9168,
      "해보고": 9169,
      "했져": 9170,
      "했잖아": 9171,
      "헐랭": 9172,
      "##그야": 9173,
      "##터디": 9174,
      "##에바": 9175,
      "##서버": 9176,
      "##17": 9177,
      "##고민": 9178,
      "##해줬": 9179,
      "##상관": 9180,
      "##하다는": 9181,
      "##하세요": 9182,
      "##지기": 9183,
      "##있었": 9184,
      "##음을": 9185,
      "##좀만": 9186,
      "##마우": 9187,
      "##찌개": 9188,
      "##인을": 9189,
      "##들어가": 9190,
      "##lo": 9191,
      "##wer": 9192,
      "##th": 9193,
      "##ㄱㅅ": 9194,
      "##파이썬": 9195,
      "##ver": 9196,
      "##귀엽": 9197,
      "##컴공": 9198,
      "##댕이댕이": 9199,
      "##우리는": 9200,
      "이런식으로": 9201,
      "있어도": 9202,
      "해야하는": 9203,
      "안되서": 9204,
      "남자는": 9205,
      "점심은": 9206,
      "##어어어": 9207,
      "##이래서": 9208,
      "동생이": 9209,
      "##이번주": 9210,
      "대학원": 9211,
      "보구싶다": 9212,
      "어플리케이션": 9213,
      "print": 9214,
      "namespace": 9215,
      "2시": 9216,
      "th": 9217,
      "거여": 9218,
      "거얌": 9219,
      "걸렸": 9220,
      "나보고": 9221,
      "대부분": 9222,
      "도시": 9223,
      "동워니": 9224,
      "듣구": 9225,
      "매력": 9226,
      "받기": 9227,
      "비트": 9228,
      "살려": 9229,
      "승연": 9230,
      "싶고": 9231,
      "씻으러": 9232,
      "예민": 9233,
      "자연": 9234,
      "작업": 9235,
      "잘하는": 9236,
      "천재": 9237,
      "헬스": 9238,
      "흠냐": 9239,
      "##에여": 9240,
      "##이지만": 9241,
      "##해진": 9242,
      "##오께": 9243,
      "##어쩔": 9244,
      "##니당": 9245,
      "##가락": 9246,
      "##할수": 9247,
      "##지나": 9248,
      "##마디": 9249,
      "##나만": 9250,
      "##을걸": 9251,
      "##드리": 9252,
      "##한달": 9253,
      "##한시간": 9254,
      "##두고": 9255,
      "##삭제": 9256,
      "##귀탱": 9257,
      "##쟁이": 9258,
      "##ㅋㅋㅋㅋ댕아": 9259,
      "생각해서": 9260,
      "지금도": 9261,
      "들어와": 9262,
      "들어갈": 9263,
      "##이거든": 9264,
      "만나자": 9265,
      "##해야하는데": 9266,
      "있었고": 9267,
      "##해주께": 9268,
      "알아떠": 9269,
      "##하기도": 9270,
      "그랬는데": 9271,
      "공방에": 9272,
      "공방에서": 9273,
      "부분이": 9274,
      "재밌게": 9275,
      "com": 9276,
      "서비스를": 9277,
      "나쁘지": 9278,
      "##아빠가": 9279,
      "pinMode": 9280,
      "3분": 9281,
      "4개": 9282,
      "40분": 9283,
      "5번": 9284,
      "6개월": 9285,
      "8시": 9286,
      "가용": 9287,
      "것인가": 9288,
      "그동안": 9289,
      "그나저나": 9290,
      "그나마": 9291,
      "기존": 9292,
      "꿈을": 9293,
      "돈까": 9294,
      "된다고": 9295,
      "될듯": 9296,
      "말대로": 9297,
      "못했": 9298,
      "무섭": 9299,
      "반복": 9300,
      "뽑아": 9301,
      "스터디": 9302,
      "안전": 9303,
      "애는": 9304,
      "어셈": 9305,
      "업무": 9306,
      "없지만": 9307,
      "완벽": 9308,
      "인후": 9309,
      "일요일에": 9310,
      "잃어버": 9311,
      "있냐": 9312,
      "포인트": 9313,
      "하텍": 9314,
      "하자나": 9315,
      "하려고": 9316,
      "학습": 9317,
      "할지": 9318,
      "해외": 9319,
      "했다고": 9320,
      "확정": 9321,
      "##냥이": 9322,
      "##보이스톡": 9323,
      "##15": 9324,
      "##주구": 9325,
      "##해졌": 9326,
      "##아하": 9327,
      "##시숲": 9328,
      "##학기에": 9329,
      "##은굥": 9330,
      "##하려면": 9331,
      "##나를": 9332,
      "##기엔": 9333,
      "##ㅓ아": 9334,
      "##로써": 9335,
      "##로로": 9336,
      "##ase": 9337,
      "##21": 9338,
      "##거자나": 9339,
      "##과목": 9340,
      "##건지": 9341,
      "##3번": 9342,
      "##준다고": 9343,
      "##둘이": 9344,
      "##모든": 9345,
      "##였고": 9346,
      "##키로": 9347,
      "##분당": 9348,
      "##온다": 9349,
      "##끝나": 9350,
      "##차가": 9351,
      "##늦게": 9352,
      "##향이": 9353,
      "ㅋㅋㅋㅋ너": 9354,
      "생각합니다": 9355,
      "이거는": 9356,
      "있었음": 9357,
      "##더라구": 9358,
      "히히댕이": 9359,
      "해주께": 9360,
      "##아무리": 9361,
      "속상해": 9362,
      "##이어트": 9363,
      "디자이너": 9364,
      "에어컨": 9365,
      "500": 9366,
      "kfc": 9367,
      "같앙": 9368,
      "같다고": 9369,
      "그와중에": 9370,
      "깔끔": 9371,
      "나간": 9372,
      "놀구": 9373,
      "답이": 9374,
      "돼지": 9375,
      "마주": 9376,
      "문항": 9377,
      "미세": 9378,
      "배려": 9379,
      "배불": 9380,
      "봐봐": 9381,
      "붙여": 9382,
      "비번": 9383,
      "수지구청": 9384,
      "쉬운": 9385,
      "쉽지": 9386,
      "아픈": 9387,
      "안놀": 9388,
      "암것도": 9389,
      "어딜": 9390,
      "옆에서": 9391,
      "옹댕이": 9392,
      "옹댕아": 9393,
      "왼쪽": 9394,
      "이뿐": 9395,
      "인도네시아": 9396,
      "좋았": 9397,
      "좋아서": 9398,
      "중고": 9399,
      "중에서": 9400,
      "찾았": 9401,
      "취급": 9402,
      "평가": 9403,
      "플랫폼": 9404,
      "하냐": 9405,
      "할듯": 9406,
      "했지만": 9407,
      "흑흑": 9408,
      "##다매": 9409,
      "##용쓰": 9410,
      "##오래": 9411,
      "##트로": 9412,
      "##자를": 9413,
      "##하라": 9414,
      "##먹을": 9415,
      "##었대": 9416,
      "##었자나": 9417,
      "##대충": 9418,
      "##리를": 9419,
      "##공학": 9420,
      "##드라": 9421,
      "##화이팅": 9422,
      "##때까지": 9423,
      "##올게": 9424,
      "##ff": 9425,
      "##두부": 9426,
      "##방에서": 9427,
      "##님한테": 9428,
      "##혀서": 9429,
      "##놓은": 9430,
      "##버린": 9431,
      "##치기": 9432,
      "##갈아": 9433,
      "##처넌": 9434,
      "##받고": 9435,
      "##줌마": 9436,
      "##햌ㅅ": 9437,
      "##책임": 9438,
      "##갖고": 9439,
      "##댕이의": 9440,
      "생각했": 9441,
      "웅냐아": 9442,
      "타롱하는": 9443,
      "만나고": 9444,
      "##해야하는": 9445,
      "저나하구": 9446,
      "안되면": 9447,
      "이러는데": 9448,
      "##오빠랑": 9449,
      "은경이는": 9450,
      "나가면": 9451,
      "떨어진": 9452,
      "##타롱해♡": 9453,
      "다행이다": 9454,
      "##이러고": 9455,
      "갈아타": 9456,
      "세상에서": 9457,
      "##ㅓㅓㅓㅓ": 9458,
      "어느정도": 9459,
      "모르게써": 9460,
      "##ream": 9461,
      "##플로우": 9462,
      "test": 9463,
      "꾸준히": 9464,
      "1차": 9465,
      "50분": 9466,
      "NULL": 9467,
      "to": 9468,
      "갈래": 9469,
      "그랭": 9470,
      "그림": 9471,
      "금요일에": 9472,
      "깨달": 9473,
      "끝난": 9474,
      "남겨": 9475,
      "되겠지": 9476,
      "들은": 9477,
      "따뜻": 9478,
      "메모": 9479,
      "받지": 9480,
      "배운": 9481,
      "배웠": 9482,
      "배우고": 9483,
      "빤니": 9484,
      "시킨": 9485,
      "안했는데": 9486,
      "어울": 9487,
      "여유": 9488,
      "예뿌니": 9489,
      "위로": 9490,
      "자면": 9491,
      "적응": 9492,
      "즐거": 9493,
      "지랄": 9494,
      "찆쯰": 9495,
      "토요일": 9496,
      "특별": 9497,
      "##그것도": 9498,
      "##도라": 9499,
      "##도우": 9500,
      "##도로": 9501,
      "##ㅋㅌ": 9502,
      "##여행": 9503,
      "##주차": 9504,
      "##오케": 9505,
      "##오는데": 9506,
      "##니저": 9507,
      "##가면서": 9508,
      "##일어나": 9509,
      "##자소서": 9510,
      "##지원": 9511,
      "##리기": 9512,
      "##따라": 9513,
      "##의점": 9514,
      "##머해": 9515,
      "##페이": 9516,
      "##거장": 9517,
      "##호호": 9518,
      "##럽다": 9519,
      "##pi": 9520,
      "##엉엉": 9521,
      "##알써": 9522,
      "##버리고": 9523,
      "##맞는": 9524,
      "##디자": 9525,
      "##언어": 9526,
      "##좋아": 9527,
      "##0000": 9528,
      "ㅋㅋ오": 9529,
      "10년": 9530,
      "나오는데": 9531,
      "##♡♡♡ㅋㅋㅋㅋ": 9532,
      "##ㄱㄱㅋ": 9533,
      "기다리는": 9534,
      "##ㄷㄷㄷㄷㄷㄷㄷㄷ": 9535,
      "처음부터": 9536,
      "ㅠㅠㅠㅠㅠㅠㅠㅠㅠㅠㅠ": 9537,
      "##ess": 9538,
      "다니는": 9539,
      "그로묜": 9540,
      "##ool": 9541,
      "마리야": 9542,
      "삭제된": 9543,
      "마찬가지": 9544,
      "4번": 9545,
      "Node": 9546,
      "SW": 9547,
      "add": 9548,
      "개많이": 9549,
      "걔가": 9550,
      "거란": 9551,
      "계란": 9552,
      "나머지": 9553,
      "눈에": 9554,
      "달려": 9555,
      "데이트": 9556,
      "라면": 9557,
      "마스크": 9558,
      "막히": 9559,
      "말해서": 9560,
      "먹쟈": 9561,
      "방식": 9562,
      "부재": 9563,
      "슬프": 9564,
      "시픈": 9565,
      "않은데": 9566,
      "어딘": 9567,
      "없나": 9568,
      "없다는": 9569,
      "에서": 9570,
      "에타": 9571,
      "여사친": 9572,
      "연습": 9573,
      "오는데": 9574,
      "올린": 9575,
      "유명": 9576,
      "자야지": 9577,
      "초코": 9578,
      "친한": 9579,
      "탔오": 9580,
      "탔당": 9581,
      "프리": 9582,
      "허락": 9583,
      "희망": 9584,
      "##그대로": 9585,
      "##에다가": 9586,
      "##이기": 9587,
      "##네ㅋㅋㅋㅋ": 9588,
      "##어보": 9589,
      "##어ㅋㅋㅋㅋ": 9590,
      "##가다": 9591,
      "##자누": 9592,
      "##워야": 9593,
      "##하겠다": 9594,
      "##을게": 9595,
      "##문이": 9596,
      "##줘도": 9597,
      "##올라": 9598,
      "##ㅇㅈ": 9599,
      "##의미": 9600,
      "##fit": 9601,
      "##페이스톡": 9602,
      "##xt": 9603,
      "##바바": 9604,
      "##바람": 9605,
      "##졸업": 9606,
      "##흐음": 9607,
      "##절대": 9608,
      "ㅋㅋㅋㅋ그": 9609,
      "##는데도": 9610,
      "아니얌": 9611,
      "그래떠": 9612,
      "너무너무너무": 9613,
      "ㅋㅋㅋㅋㅋㅋㅋㅋㅋㅋㅋㅋㅋㅋㅋㅋㅋㅋㅋㅋㅋㅋㅋㅋㅋㅋㅋㅋㅋㅋㅋㅋㅋㅋㅋㅋㅋㅋ": 9614,
      "ㅋㅋㅋㅋㅋㅋㅋㅋㅋㅋㅋㅋㅋㅋㅋㅋㅋㅋㅋㅋㅋㅋㅋㅋㅋㅋㅋㅋㅋㅋㅋㅋㅋㅋㅋㅋㅋㅋㅋㅋ": 9615,
      "있는지": 9616,
      "같은디": 9617,
      "미안하구": 9618,
      "여자애": 9619,
      "개발을": 9620,
      "보내는": 9621,
      "생각해도": 9622,
      "기다료": 9623,
      "중요하지": 9624,
      "잘게댕이": 9625,
      "##사랑해♡": 9626,
      "ㅠㅠㅠㅠㅠㅠㅠㅠㅠㅠㅠㅠ": 9627,
      "자신이": 9628,
      "궁금한": 9629,
      "입장에서는": 9630,
      "##귀여워": 9631,
      "answer": 9632,
      "char": 9633,
      "28": 9634,
      "65": 9635,
      "it": 9636,
      "가면서": 9637,
      "개웃": 9638,
      "거실": 9639,
      "걸릴": 9640,
      "고기": 9641,
      "곱창": 9642,
      "날아": 9643,
      "더러": 9644,
      "됐는데": 9645,
      "땡이야": 9646,
      "먹을까": 9647,
      "무한": 9648,
      "뭐하는": 9649,
      "실망": 9650,
      "안써": 9651,
      "언젠": 9652,
      "연구": 9653,
      "온대": 9654,
      "와용": 9655,
      "웹툰": 9656,
      "이를": 9657,
      "인하": 9658,
      "일부러": 9659,
      "자용": 9660,
      "정장": 9661,
      "좋게": 9662,
      "죽을": 9663,
      "진짴": 9664,
      "하시": 9665,
      "하늘": 9666,
      "한다는": 9667,
      "해짜나": 9668,
      "##시가": 9669,
      "##은표": 9670,
      "##세계": 9671,
      "##자로": 9672,
      "##뭐여": 9673,
      "##하잖아": 9674,
      "##지ㅋㅋㅋㅋ": 9675,
      "##대도": 9676,
      "##리어": 9677,
      "##나나": 9678,
      "##넘무": 9679,
      "##기야오": 9680,
      "##랑께": 9681,
      "##당한": 9682,
      "##ㅇ웅": 9683,
      "##정은": 9684,
      "##한국": 9685,
      "##ag": 9686,
      "##님은": 9687,
      "##되나": 9688,
      "##댜기": 9689,
      "##말구": 9690,
      "##Write": 9691,
      "##관이": 9692,
      "##얼굴": 9693,
      "##연락": 9694,
      "##센터": 9695,
      "##Data": 9696,
      "##새끼": 9697,
      "##낼봐": 9698,
      "##빨래": 9699,
      "ㅋㅋㅋㅋ사진": 9700,
      "생각했는데": 9701,
      "사랑스러워": 9702,
      "모르는데": 9703,
      "ㅇㅇㅇㅇ": 9704,
      "보내면": 9705,
      "여기까지": 9706,
      "학교에서": 9707,
      "언니가": 9708,
      "##rofit": 9709,
      "digitalWrite": 9710,
      "오프라인": 9711,
      "머신러닝": 9712,
      "1등": 9713,
      "2분": 9714,
      "32": 9715,
      "cs": 9716,
      "공지": 9717,
      "극혐": 9718,
      "근무": 9719,
      "긍께": 9720,
      "나듀": 9721,
      "날씨": 9722,
      "내년": 9723,
      "너만": 9724,
      "늦어": 9725,
      "늦었": 9726,
      "되징": 9727,
      "등록": 9728,
      "똑똑": 9729,
      "물실": 9730,
      "바닥": 9731,
      "바꿨": 9732,
      "배송": 9733,
      "버튼": 9734,
      "보다가": 9735,
      "본인이": 9736,
      "부끄": 9737,
      "블루": 9738,
      "빼면": 9739,
      "소중": 9740,
      "시로": 9741,
      "시벌": 9742,
      "않으면": 9743,
      "양재": 9744,
      "온다": 9745,
      "올리고": 9746,
      "우산": 9747,
      "웅앙": 9748,
      "이사": 9749,
      "저번": 9750,
      "정문": 9751,
      "제품": 9752,
      "주작": 9753,
      "차단": 9754,
      "찾아서": 9755,
      "초큼": 9756,
      "카메라": 9757,
      "팀플": 9758,
      "평균": 9759,
      "피피티": 9760,
      "하더라": 9761,
      "할거": 9762,
      "했으면": 9763,
      "호텔": 9764,
      "희영": 9765,
      "힘이": 9766,
      "##구리": 9767,
      "##이블": 9768,
      "##이잖아": 9769,
      "##이구나": 9770,
      "##이것도": 9771,
      "##14": 9772,
      "##진대": 9773,
      "##ㅎㅋㅋ": 9774,
      "##아닠": 9775,
      "##오키": 9776,
      "##야ㅋㅋㅋㅋ": 9777,
      "##트를": 9778,
      "##스마": 9779,
      "##지난": 9780,
      "##대에서": 9781,
      "##나와": 9782,
      "##선을": 9783,
      "##화가": 9784,
      "##el": 9785,
      "##뽀뽀": 9786,
      "##임베디드": 9787,
      "##겠는데": 9788,
      "##바이스": 9789,
      "##호텔": 9790,
      "##ir": 9791,
      "##려떠": 9792,
      "##ㄱㅋㅋㅋㅋㅋㅋㅋㅋ": 9793,
      "##ㄱㅋㅋㅋㅋㅋㅋㅋ": 9794,
      "##저히": 9795,
      "##얘가": 9796,
      "##작년": 9797,
      "##밤에": 9798,
      "##희영": 9799,
      "##병원": 9800,
      "##갈까": 9801,
      "##줬는데": 9802,
      "##cd": 9803,
      "##백준": 9804,
      "##흑흑": 9805,
      "##냄새": 9806,
      "댕아내가": 9807,
      "생각에": 9808,
      "도착해또": 9809,
      "만나까": 9810,
      "시간을": 9811,
      "그랬던": 9812,
      "인나서": 9813,
      "마음에": 9814,
      "상황에서": 9815,
      "아파서": 9816,
      "##아아아아아": 9817,
      "조금씩": 9818,
      "##생각보다": 9819,
      "##child": 9820,
      "세상에": 9821,
      "##ame": 9822,
      "이랬는데": 9823,
      "numOf": 9824,
      "문재인": 9825,
      "##확실히": 9826,
      "1시": 9827,
      "5만원": 9828,
      "iost": 9829,
      "op": 9830,
      "ㄷㄷㄷㄷ": 9831,
      "개봉": 9832,
      "경찰": 9833,
      "구체": 9834,
      "구로": 9835,
      "다가": 9836,
      "단순": 9837,
      "당이": 9838,
      "대해서": 9839,
      "대앵이": 9840,
      "동의": 9841,
      "되구": 9842,
      "마이": 9843,
      "마랴": 9844,
      "만져": 9845,
      "모를": 9846,
      "뭘로": 9847,
      "미팅": 9848,
      "믿고": 9849,
      "반지": 9850,
      "번만": 9851,
      "사죠": 9852,
      "상상": 9853,
      "생겨": 9854,
      "설계": 9855,
      "손절": 9856,
      "쉬는": 9857,
      "시도": 9858,
      "신발": 9859,
      "싸움": 9860,
      "안정": 9861,
      "영빈": 9862,
      "예나": 9863,
      "오타": 9864,
      "요청": 9865,
      "이틀": 9866,
      "이젠": 9867,
      "일하고": 9868,
      "자또": 9869,
      "자르": 9870,
      "전환": 9871,
      "정치": 9872,
      "책상": 9873,
      "텐데": 9874,
      "통신": 9875,
      "학기": 9876,
      "해봤": 9877,
      "해봤는데": 9878,
      "행보": 9879,
      "현대": 9880,
      "화가": 9881,
      "후회": 9882,
      "##러리": 9883,
      "##이넹": 9884,
      "##주세요": 9885,
      "##아는": 9886,
      "##니깤": 9887,
      "##하당": 9888,
      "##었을": 9889,
      "##당ㅋㅋㅋㅋ": 9890,
      "##화점": 9891,
      "##들에게": 9892,
      "##op": 9893,
      "##ter": 9894,
      "##im": 9895,
      "##말도": 9896,
      "##함수": 9897,
      "##토닥": 9898,
      "##알려": 9899,
      "##옹냐": 9900,
      "##옹댕아": 9901,
      "##앞에서": 9902,
      "##심이": 9903,
      "##초과": 9904,
      "##왔다": 9905,
      "##순위": 9906,
      "ㅋㅋㅋㅋ헐": 9907,
      "생각할": 9908,
      "##하구나": 9909,
      "ㅋㅋㅋㅋㅋㅋㅋㅋㅋㅋㅋㅋㅋㅋㅋㅋㅋㅋㅋㅋㅋㅋㅋㅋㅋㅋㅋㅋㅋㅋㅋㅋㅋㅋㅋㅋㅋ": 9910,
      "ㅋㅋㅋㅋㅋㅋㅋㅋㅋㅋㅋㅋㅋㅋㅋㅋㅋㅋㅋㅋㅋㅋㅋㅋㅋㅋㅋㅋㅋㅋㅋㅋㅋㅋㅋ": 9911,
      "하는게": 9912,
      "모르지": 9913,
      "그런데": 9914,
      "그거랑": 9915,
      "엄마도": 9916,
      "##이었음": 9917,
      "10만원": 9918,
      "##해주면": 9919,
      "퇴근해여": 9920,
      "좋아해": 9921,
      "그렇다": 9922,
      "##오빠도": 9923,
      "저녁은": 9924,
      "필요가": 9925,
      "그랬나": 9926,
      "고마어": 9927,
      "물어볼": 9928,
      "인나또": 9929,
      "몰라도": 9930,
      "떨어져": 9931,
      "##ㅎㅋㅎㅋㅎㅋ": 9932,
      "##넘모넘모": 9933,
      "당연하지": 9934,
      "경우가": 9935,
      "남친이": 9936,
      "거시야요": 9937,
      "받으세요": 9938,
      "##ult": 9939,
      "미세먼": 9940,
      "iostream": 9941,
      "5개": 9942,
      "Serial": 9943,
      "가려구": 9944,
      "같다는": 9945,
      "과거": 9946,
      "교내": 9947,
      "교통": 9948,
      "꺼내": 9949,
      "꼰대": 9950,
      "내는": 9951,
      "내려서": 9952,
      "늘어": 9953,
      "담주에": 9954,
      "대놓고": 9955,
      "메이플": 9956,
      "모지": 9957,
      "빨간": 9958,
      "살고": 9959,
      "세개": 9960,
      "승재": 9961,
      "싶지만": 9962,
      "아이고": 9963,
      "않아서": 9964,
      "않는다": 9965,
      "오바": 9966,
      "이어": 9967,
      "이루": 9968,
      "인재": 9969,
      "잊어버": 9970,
      "자요": 9971,
      "재수강": 9972,
      "죄송": 9973,
      "주거": 9974,
      "차이가": 9975,
      "쿠팡": 9976,
      "타는": 9977,
      "판단": 9978,
      "하려면": 9979,
      "했다가": 9980,
      "홀랭": 9981,
      "##그것": 9982,
      "##러스": 9983,
      "##는가": 9984,
      "##데이": 9985,
      "##서가": 9986,
      "##이것": 9987,
      "##13": 9988,
      "##해지는": 9989,
      "##오픈": 9990,
      "##일듯": 9991,
      "##라라": 9992,
      "##하장": 9993,
      "##개빡": 9994,
      "##개웃곀": 9995,
      "##대급": 9996,
      "##나물": 9997,
      "##을거": 9998,
      "##인나": 9999,
      "##인게": 10000,
      "##화장": 10001,
      "##로도": 10002,
      "##정처기": 10003,
      "##ub": 10004,
      "##eg": 10005,
      "##as": 10006,
      "##페이지": 10007,
      "##mo": 10008,
      "##gle": 10009,
      "##앞으로": 10010,
      "##졸려": 10011,
      "##살이": 10012,
      "##헤어": 10013,
      "##났져": 10014,
      "##OW": 10015,
      "ㅋㅋㅋㅋ내": 10016,
      "ㅠㅠ내가": 10017,
      "생각하": 10018,
      "##아니지": 10019,
      "##이었다": 10020,
      "##이었고": 10021,
      "어디로": 10022,
      "여자는": 10023,
      "힘들어서": 10024,
      "행복하게": 10025,
      "죠아해": 10026,
      "고민중": 10027,
      "올라가": 10028,
      "기여어": 10029,
      "마지막에": 10030,
      "쉬어여": 10031,
      "##마곡나루": 10032,
      "6시에": 10033,
      "and": 10034,
      "lo": 10035,
      "ㅎㅋㅋㅋㅋ": 10036,
      "굉장히": 10037,
      "그랴": 10038,
      "내부": 10039,
      "던져": 10040,
      "되서": 10041,
      "두번째": 10042,
      "뜨는": 10043,
      "로그": 10044,
      "만족": 10045,
      "말했는데": 10046,
      "먹어서": 10047,
      "멘탈": 10048,
      "받음": 10049,
      "밤에": 10050,
      "부르": 10051,
      "부평": 10052,
      "붙어": 10053,
      "사촌": 10054,
      "살짝": 10055,
      "시바": 10056,
      "시픈데": 10057,
      "쓰기": 10058,
      "않이": 10059,
      "업데이트": 10060,
      "오해": 10061,
      "외주": 10062,
      "이때": 10063,
      "읽고": 10064,
      "입구": 10065,
      "있겠지": 10066,
      "잌ㅅ": 10067,
      "장인": 10068,
      "조시미": 10069,
      "질투": 10070,
      "참고": 10071,
      "초반": 10072,
      "칼퇴": 10073,
      "통화": 10074,
      "파이": 10075,
      "편하게": 10076,
      "허허": 10077,
      "헤헤": 10078,
      "혁배": 10079,
      "##서류": 10080,
      "##다닥": 10081,
      "##1년": 10082,
      "##주말": 10083,
      "##해놓고": 10084,
      "##아야": 10085,
      "##아닝": 10086,
      "##아쥬": 10087,
      "##오잉": 10088,
      "##하징": 10089,
      "##지네": 10090,
      "##있으면": 10091,
      "##히영": 10092,
      "##으려나": 10093,
      "##렸어": 10094,
      "##한당": 10095,
      "##클래": 10096,
      "##2년": 10097,
      "##24": 10098,
      "##비는": 10099,
      "##님이랑": 10100,
      "##쟈♡": 10101,
      "##려다가": 10102,
      "##싶다": 10103,
      "##없어": 10104,
      "##치가": 10105,
      "##분석": 10106,
      "##린지": 10107,
      "##합격": 10108,
      "##겤ㅅ": 10109,
      "##뒤에": 10110,
      "ㅋㅋㅋㅋ이건": 10111,
      "아니네": 10112,
      "그래그래": 10113,
      "우리도": 10114,
      "도착해": 10115,
      "있었던": 10116,
      "해야할": 10117,
      "고생이": 10118,
      "만들어야": 10119,
      "##그러네": 10120,
      "나가는": 10121,
      "다음주": 10122,
      "이뿌니가": 10123,
      "##고생해떠": 10124,
      "그걸로": 10125,
      "사라졌": 10126,
      "##esult": 10127,
      "알려주": 10128,
      "어려워": 10129,
      "##그렇군": 10130,
      "정확히": 10131,
      "ㅎㅎㅎㅎㅎ": 10132,
      "문화경영": 10133,
      "들오가": 10134,
      "##배고파": 10135,
      "라즈베리파이": 10136,
      "위주로": 10137,
      "오른쪽": 10138,
      "9200번": 10139,
      "다이소": 10140,
      "the": 10141,
      "1개": 10142,
      "1층": 10143,
      "45": 10144,
      "wh": 10145,
      "갈거": 10146,
      "같구": 10147,
      "같으면": 10148,
      "거나": 10149,
      "관계": 10150,
      "기초": 10151,
      "나누": 10152,
      "단지": 10153,
      "리스트": 10154,
      "막상": 10155,
      "말자": 10156,
      "맞나": 10157,
      "맥주": 10158,
      "모햐": 10159,
      "목요일": 10160,
      "못봐": 10161,
      "뭔뎅": 10162,
      "뮤ㅓ": 10163,
      "미루": 10164,
      "배열": 10165,
      "버거": 10166,
      "비밀": 10167,
      "빠른": 10168,
      "사와": 10169,
      "사준": 10170,
      "상담": 10171,
      "속도": 10172,
      "시킬": 10173,
      "실습": 10174,
      "싫어서": 10175,
      "아푸": 10176,
      "안녕": 10177,
      "않지": 10178,
      "없으니": 10179,
      "열정": 10180,
      "오전": 10181,
      "오키": 10182,
      "완성": 10183,
      "외부": 10184,
      "울어": 10185,
      "이쓰": 10186,
      "이혼": 10187,
      "작년에": 10188,
      "잘나": 10189,
      "잘하고": 10190,
      "잡고": 10191,
      "접속": 10192,
      "정의": 10193,
      "팀장": 10194,
      "해써": 10195,
      "회장": 10196,
      "##에구": 10197,
      "##에휴": 10198,
      "##했나": 10199,
      "##했지만": 10200,
      "##구마": 10201,
      "##여나": 10202,
      "##이징": 10203,
      "##이요": 10204,
      "##이름": 10205,
      "##16": 10206,
      "##사를": 10207,
      "##하겠지": 10208,
      "##었오": 10209,
      "##었습니다": 10210,
      "##만약": 10211,
      "##속상": 10212,
      "##제어": 10213,
      "##리도": 10214,
      "##마음": 10215,
      "##너한테": 10216,
      "##전남친": 10217,
      "##게찌": 10218,
      "##때마다": 10219,
      "##25": 10220,
      "##동아리": 10221,
      "##애기": 10222,
      "##릴게": 10223,
      "##설마": 10224,
      "##큐ㅠㅠㅠ": 10225,
      "##틀린": 10226,
      "##욤❓": 10227,
      "##살려": 10228,
      "##텐츠": 10229,
      "##몸이": 10230,
      "##컴퓨터": 10231,
      "##can": 10232,
      "##활동": 10233,
      "##커피": 10234,
      "##볶이": 10235,
      "##ㅋㅋㅋㅋㅋㅋㅋㅋㅋㅋㅋㅋㅋㅋㅋㅋㅋㅋㅋㅋㅋㅋㅋㅋㅋㅋㅋㅋㅋㅋ": 10236,
      "##댕이두": 10237,
      "생각함": 10238,
      "사람이랑": 10239,
      "##00일": 10240,
      "그런듯": 10241,
      "공부해야": 10242,
      "회사에": 10243,
      "힝구댕이": 10244,
      "모르겠네": 10245,
      "카톡을": 10246,
      "출발해": 10247,
      "그랬어": 10248,
      "인나따": 10249,
      "이번엔": 10250,
      "가능성": 10251,
      "기다리고": 10252,
      "마음을": 10253,
      "##♡♡♡♡♡♡": 10254,
      "##ear": 10255,
      "##ㅡㅡㅡㅡ": 10256,
      "거기에": 10257,
      "옹동이가": 10258,
      "##어디가": 10259,
      "노력을": 10260,
      "고마워여": 10261,
      "의미가": 10262,
      "머글까": 10263,
      "ㅇㅎㅇㅎ": 10264,
      "##아침에": 10265,
      "도움이": 10266,
      "000원을": 10267,
      "해요보이스톡": 10268,
      "##잠깐만": 10269,
      "지수쟝": 10270,
      "##삭제된": 10271,
      "1학년": 10272,
      "6장": 10273,
      "각자": 10274,
      "걸림": 10275,
      "겨우": 10276,
      "고야": 10277,
      "내리면": 10278,
      "당당": 10279,
      "되어버": 10280,
      "뒤집": 10281,
      "뒤로": 10282,
      "로망": 10283,
      "마쟈": 10284,
      "말만": 10285,
      "망할": 10286,
      "먄해": 10287,
      "먹어도": 10288,
      "먹었어": 10289,
      "무거": 10290,
      "믿어": 10291,
      "바꼈": 10292,
      "복잡": 10293,
      "비포": 10294,
      "사건": 10295,
      "살까": 10296,
      "소름": 10297,
      "신고": 10298,
      "심하게": 10299,
      "쓸까": 10300,
      "운이": 10301,
      "이ㅛ": 10302,
      "인데": 10303,
      "인프": 10304,
      "일은": 10305,
      "임마": 10306,
      "잔다": 10307,
      "잤어": 10308,
      "전역": 10309,
      "좋다고": 10310,
      "지식": 10311,
      "직전": 10312,
      "진경": 10313,
      "집착": 10314,
      "출신": 10315,
      "컨셉": 10316,
      "하러": 10317,
      "하까": 10318,
      "하트": 10319,
      "하느라": 10320,
      "할인": 10321,
      "확률": 10322,
      "후문": 10323,
      "##구로": 10324,
      "##구파": 10325,
      "##수를": 10326,
      "##보기": 10327,
      "##18": 10328,
      "##10분": 10329,
      "##아도": 10330,
      "##아프": 10331,
      "##오네": 10332,
      "##오ㅑ": 10333,
      "##가용": 10334,
      "##스톤": 10335,
      "##하다구": 10336,
      "##하끄야": 10337,
      "##옛날": 10338,
      "##66": 10339,
      "##드폰": 10340,
      "##냐냐": 10341,
      "##냐곸": 10342,
      "##예인": 10343,
      "##ㅇㄷ": 10344,
      "##ㅇㅁㅇ": 10345,
      "##코딩": 10346,
      "##ee": 10347,
      "##ect": 10348,
      "##두근": 10349,
      "##신한": 10350,
      "##if": 10351,
      "##등록": 10352,
      "##질거": 10353,
      "##ㅜㅑ": 10354,
      "##장난": 10355,
      "##명서": 10356,
      "##엄빠": 10357,
      "##출근": 10358,
      "##낼바": 10359,
      "##ㅋㅋㅋㅋ아니": 10360,
      "ㅋㅋㅋㅋㅋㅋㅋㅋㅋㅋㅋㅋㅋ댕이": 10361,
      "##하는게": 10362,
      "사람한테": 10363,
      "있는거": 10364,
      "하나씩": 10365,
      "얘기를": 10366,
      "##시간이": 10367,
      "문제지": 10368,
      "아냐아냐": 10369,
      "알아야": 10370,
      "미안하다": 10371,
      "##ㅜㅜㅠ": 10372,
      "고마웠": 10373,
      "생각해보니": 10374,
      "가야겠다": 10375,
      "##이이이": 10376,
      "찌찌가": 10377,
      "##잘자여": 10378,
      "가능한": 10379,
      "기다리": 10380,
      "오께♡": 10381,
      "나왔져": 10382,
      "##ate": 10383,
      "경험이": 10384,
      "사라져떠": 10385,
      "##사람이": 10386,
      "오디가": 10387,
      "##하겠습니다": 10388,
      "시키는": 10389,
      "뭐해욤❓": 10390,
      "##맛있게": 10391,
      "드라마": 10392,
      "##ㅃㄹㅃㄹ": 10393,
      "train": 10394,
      "확진자": 10395,
      "2월": 10396,
      "8월": 10397,
      "LOW": 10398,
      "개꿀": 10399,
      "갤럭시": 10400,
      "거징": 10401,
      "거심": 10402,
      "거리는": 10403,
      "그정도": 10404,
      "김에": 10405,
      "낮잠": 10406,
      "놀고": 10407,
      "됐다": 10408,
      "들었는데": 10409,
      "등등": 10410,
      "마나": 10411,
      "만점": 10412,
      "말함": 10413,
      "말하지": 10414,
      "먹게": 10415,
      "며칠": 10416,
      "뭐든": 10417,
      "반에": 10418,
      "부터": 10419,
      "사자": 10420,
      "사줄": 10421,
      "생리": 10422,
      "시절": 10423,
      "실제": 10424,
      "싶었던": 10425,
      "아버": 10426,
      "아뉘": 10427,
      "아쉬": 10428,
      "아줌마": 10429,
      "안아주": 10430,
      "어머님": 10431,
      "여신": 10432,
      "예시": 10433,
      "예를": 10434,
      "은근": 10435,
      "이정도": 10436,
      "일수": 10437,
      "있으니": 10438,
      "잘라": 10439,
      "잘거야": 10440,
      "전압": 10441,
      "제한": 10442,
      "제목": 10443,
      "찍고": 10444,
      "참내": 10445,
      "참가": 10446,
      "타쪄": 10447,
      "탔는데": 10448,
      "푸는": 10449,
      "한마디": 10450,
      "##는다고": 10451,
      "##에만": 10452,
      "##수로": 10453,
      "##오히려": 10454,
      "##오에스": 10455,
      "##야돼": 10456,
      "##자낰": 10457,
      "##지에": 10458,
      "##만이": 10459,
      "##석이": 10460,
      "##대면": 10461,
      "##으라고": 10462,
      "##나의": 10463,
      "##무원": 10464,
      "##냐는": 10465,
      "##소설": 10466,
      "##감을": 10467,
      "##로워": 10468,
      "##요♡": 10469,
      "##호관": 10470,
      "##종설": 10471,
      "##려궁": 10472,
      "##ㄱㅋㅋㅋㅋㅋㅋㅋㅋㅋ": 10473,
      "##랬는데": 10474,
      "##치지": 10475,
      "##린데": 10476,
      "##교육": 10477,
      "##갈겡": 10478,
      "##봐바": 10479,
      "##결이": 10480,
      "##열심히": 10481,
      "##cr": 10482,
      "##괜히": 10483,
      "##립니다": 10484,
      "##필요": 10485,
      "아니잖아": 10486,
      "생각하지": 10487,
      "우리의": 10488,
      "ㅋㅋㅋㅋㅋㅋㅋ댕이": 10489,
      "##ㅎㅎㅎ": 10490,
      "사진은": 10491,
      "##해야겠다": 10492,
      "##이었으면": 10493,
      "있어요": 10494,
      "아니라서": 10495,
      "물어보고": 10496,
      "아무래도": 10497,
      "중요해": 10498,
      "아빠랑": 10499,
      "떨어지면": 10500,
      "이뿌니는": 10501,
      "많아여": 10502,
      "애들도": 10503,
      "먹어여": 10504,
      "##이어떠": 10505,
      "커플티": 10506,
      "인터뷰": 10507,
      "##lass": 10508,
      "엄빠랑": 10509,
      "안좋아": 10510,
      "##오디야": 10511,
      "탔어용": 10512,
      "무서워": 10513,
      "2점": 10514,
      "2명": 10515,
      "4학년": 10516,
      "59": 10517,
      "is": 10518,
      "post": 10519,
      "set": 10520,
      "ㅂㅅ": 10521,
      "갈거야": 10522,
      "갑댜기": 10523,
      "같던데": 10524,
      "개웃곀": 10525,
      "거래": 10526,
      "건너": 10527,
      "걸린": 10528,
      "걸어가": 10529,
      "곳에": 10530,
      "곳에서": 10531,
      "교수": 10532,
      "구매": 10533,
      "국내": 10534,
      "끊어": 10535,
      "나고": 10536,
      "나면": 10537,
      "내릴": 10538,
      "노는": 10539,
      "누르면": 10540,
      "돼써": 10541,
      "들었어": 10542,
      "땡이가": 10543,
      "룽냐": 10544,
      "만낭": 10545,
      "많네": 10546,
      "많지": 10547,
      "머겄": 10548,
      "뭐고": 10549,
      "바꿀": 10550,
      "밖에서": 10551,
      "방송": 10552,
      "보이스톡": 10553,
      "본사": 10554,
      "부딪": 10555,
      "상대": 10556,
      "손해": 10557,
      "수시": 10558,
      "싫다고": 10559,
      "싶기도": 10560,
      "않게": 10561,
      "어휴": 10562,
      "언어": 10563,
      "없오": 10564,
      "없떠": 10565,
      "올래": 10566,
      "옴총": 10567,
      "인날": 10568,
      "입니다": 10569,
      "자유": 10570,
      "장단": 10571,
      "재택": 10572,
      "전문": 10573,
      "절반": 10574,
      "좋구": 10575,
      "줄어": 10576,
      "찾는": 10577,
      "추워": 10578,
      "탔옹": 10579,
      "틀린": 10580,
      "편의점": 10581,
      "하니": 10582,
      "하금티": 10583,
      "한잔": 10584,
      "할라": 10585,
      "해쪄": 10586,
      "해준": 10587,
      "해본": 10588,
      "해줬": 10589,
      "##그랴서": 10590,
      "##는ㄷ0": 10591,
      "##했오": 10592,
      "##했더니": 10593,
      "##부가": 10594,
      "##주는데": 10595,
      "##해준": 10596,
      "##♡ㅋㅋㅋㅋㅋㅋㅋㅋ": 10597,
      "##어이": 10598,
      "##맛나게": 10599,
      "##시래": 10600,
      "##ㅈㅅ": 10601,
      "##라스": 10602,
      "##하넹": 10603,
      "##son": 10604,
      "##예정": 10605,
      "##예요": 10606,
      "##ast": 10607,
      "##ans": 10608,
      "##비슷": 10609,
      "##누군": 10610,
      "##강의": 10611,
      "##위로": 10612,
      "##ive": 10613,
      "##모레": 10614,
      "##실에": 10615,
      "##실제로": 10616,
      "##최소": 10617,
      "##엌ㅋㅋㅋㅋㅋㅋㅋ": 10618,
      "##디오": 10619,
      "##차라리": 10620,
      "##ㅑㅑ": 10621,
      "##순간": 10622,
      "ㅋㅋㅋㅋ왜": 10623,
      "ㅋㅋㅋㅋ우리": 10624,
      "ㅋㅋㅋㅋ나도": 10625,
      "댕이다": 10626,
      "진짜진짜": 10627,
      "생각하기": 10628,
      "들어야": 10629,
      "사진이": 10630,
      "시간표": 10631,
      "해야하는데": 10632,
      "퇴근해": 10633,
      "오구오구": 10634,
      "친구랑": 10635,
      "알았다": 10636,
      "안나와": 10637,
      "ㅎㅋㅎㅋ": 10638,
      "아파트": 10639,
      "가져가": 10640,
      "한번도": 10641,
      "바빠서": 10642,
      "이뿌나": 10643,
      "주변에": 10644,
[...]
