{"version":"1.0","truncation":null,"padding":null,"added_tokens":[{"id":0,"special":true,"content":"<s>","single_word":false,"lstrip":false,"rstrip":false,"normalized":false},{"id":1,"special":true,"content":"<pad>","single_word":false,"lstrip":false,"rstrip":false,"normalized":false},{"id":2,"special":true,"content":"</s>","single_word":false,"lstrip":false,"rstrip":false,"normalized":false},{"id":3,"special":true,"content":"<unk>","single_word":false,"lstrip":false,"rstrip":false,"normalized":false},{"id":4,"special":true,"content":"<mask>","single_word":false,"lstrip":false,"rstrip":false,"normalized":false}],"normalizer":{"type":"BertNormalizer","clean_text":true,"handle_chinese_chars":true,"strip_accents":false,"lowercase":false},"pre_tokenizer":{"type":"BertPreTokenizer"},"post_processor":null,"decoder":{"type":"WordPiece","prefix":"##","cleanup":true},"model":{"type":"WordPiece","unk_token":"[UNK]","continuing_subword_prefix":"##","max_input_chars_per_word":100,"vocab":{"<s>":0,"<pad>":1,"</s>":2,"<unk>":3,"<mask>":4,"!":5,"\"":6,"#":7,"%":8,"&":9,"'":10,"(":11,")":12,"*":13,"+":14,",":15,"-":16,".":17,"/":18,"0":19,"1":20,"2":21,"3":22,"4":23,"5":24,"6":25,"7":26,"8":27,"9":28,";":29,"<":30,"=":31,">":32,"?":33,"@":34,"A":35,"B":36,"C":37,"D":38,"E":39,"F":40,"G":41,"H":42,"I":43,"J":44,"K":45,"L":46,"M":47,"N":48,"O":49,"P":50,"Q":51,"R":52,"S":53,"T":54,"U":55,"V":56,"W":57,"X":58,"Y":59,"Z":60,"[":61,"\\":62,"]":63,"^":64,"_":65,"`":66,"a":67,"b":68,"c":69,"d":70,"e":71,"f":72,"g":73,"h":74,"i":75,"j":76,"k":77,"l":78,"m":79,"n":80,"o":81,"p":82,"q":83,"r":84,"s":85,"t":86,"u":87,"v":88,"w":89,"x":90,"y":91,"z":92,"{":93,"|":94,"}":95,"~":96,"²":97,"·":98,"×":99,"÷":100,"˙":101,"҉":102,"ቼ":103,"ኈ":104,"ዽ":105,"ጿ":106,"ᗜ":107,"ᵔ":108,"—":109,"‘":110,"’":111,"“":112,"”":113,"•":114,"…":115,"‧":116,"※":117,"‼":118,"⃝":119,"℃":120,"→":121,"↘":122,"∇":123,"⊂":124,"⌒":125,"⍤":126,"⏱":127,"①":128,"②":129,"③":130,"④":131,"⑤":132,"┳":133,"┻":134,"▒":135,"▶":136,"▽":137,"◀":138,"○":139,"●":140,"☀":141,"★":142,"☆":143,"☝":144,"☹":145,"☺":146,"♀":147,"♂":148,"♡":149,"♥":150,"♧":151,"⚓":152,"⚠":153,"⛴":154,"✍":155,"✔":156,"❄":157,"❌":158,"❓":159,"❣":160,"❤":161,"⠀":162,"づ":163,"ㄱ":164,"ㄲ":165,"ㄳ":166,"ㄴ":167,"ㄵ":168,"ㄶ":169,"ㄷ":170,"ㄸ":171,"ㄹ":172,"ㄺ":173,"ㄻ":174,"ㄽ":175,"ㅁ":176,"ㅂ":177,"ㅃ":178,"ㅄ":179,"ㅅ":180,"ㅆ":181,"ㅇ":182,"ㅈ":183,"ㅉ":184,"ㅊ":185,"ㅋ":186,"ㅌ":187,"ㅍ":188,"ㅎ":189,"ㅏ":190,"ㅐ":191,"ㅑ":192,"ㅒ":193,"ㅓ":194,"ㅔ":195,"ㅕ":196,"ㅖ":197,"ㅗ":198,"ㅘ":199,"ㅙ":200,"ㅚ":201,"ㅛ":202,"ㅜ":203,"ㅝ":204,"ㅞ":205,"ㅟ":206,"ㅠ":207,"ㅡ":208,"ㅢ":209,"ㅣ":210,"ㆍ":211,"㈜":212,"㎞":213,"㎡":214,"下":215,"件":216,"句":217,"對":218,"法":219,"與":220,"限":221,"靑":222,"非":223,"ꉂ":224,"가":225,"각":226,"갂":227,"간":228,"갇":229,"갈":230,"갉":231,"감":232,"갑":233,"값":234,"갓":235,"갔":236,"강":237,"갖":238,"갗":239,"갘":240,"같":241,"갚":242,"갛":243,"개":244,"객":245,"갠":246,"갤":247,"갬":248,"갭":249,"갯":250,"갰":251,"갱":252,"갲":253,"갴":254,"갷":255,"갸":256,"갹":257,"갼":258,"걀":259,"걉":260,"걋":261,"걌":262,"걍":263,"걐":264,"걑":265,"걔":266,"걘":267,"거":268,"걱":269,"건":270,"걷":271,"걸":272,"검":273,"겁":274,"것":275,"겄":276,"겅":277,"겆":278,"겇":279,"겈":280,"겉":281,"겋":282,"게":283,"겍":284,"겎":285,"겐":286,"겓":287,"겔":288,"겜":289,"겟":290,"겠":291,"겡":292,"겤":293,"겥":294,"겧":295,"겨":296,"격":297,"겪":298,"견":299,"겯":300,"결":301,"겸":302,"겹":303,"겻":304,"겼":305,"경":306,"곀":307,"곁":308,"계":309,"곈":310,"곗":311,"고":312,"곡":313,"곤":314,"곧":315,"골":316,"곪":317,"곬":318,"곰":319,"곱":320,"곳":321,"공":322,"곶":323,"곸":324,"곹":325,"곻":326,"과":327,"곽":328,"관":329,"괄":330,"괏":331,"광":332,"괔":333,"괘":334,"괜":335,"괨":336,"괭":337,"괴":338,"굇":339,"굉":340,"교":341,"굑":342,"굔":343,"굣":344,"굥":345,"굨":346,"굩":347,"구":348,"국":349,"군":350,"굳":351,"굴":352,"굵":353,"굶":354,"굼":355,"굽":356,"굿":357,"궁":358,"궄":359,"궆":360,"궈":361,"궉":362,"권":363,"궐":364,"궜":365,"궤":366,"궨":367,"궭":368,"귀":369,"귄":370,"귈":371,"귐":372,"귓":373,"귘":374,"규":375,"귝":376,"균":377,"귣":378,"귤":379,"귬":380,"귭":381,"귱":382,"귴":383,"그":384,"극":385,"근":386,"귿":387,"글":388,"긁":389,"금":390,"급":391,"긋":392,"긌":393,"긍":394,"긎":395,"긐":396,"긑":397,"긓":398,"긔":399,"기":400,"긱":401,"긲":402,"긴":403,"긷":404,"길":405,"긹":406,"김":407,"깁":408,"깃":409,"깄":410,"깅":411,"깆":412,"깈":413,"깉":414,"깊":415,"깋":416,"까":417,"깍":418,"깎":419,"깐":420,"깔":421,"깜":422,"깝":423,"깟":424,"깠":425,"깡":426,"깢":427,"깤":428,"깥":429,"깧":430,"깨":431,"깩":432,"깬":433,"깰":434,"깸":435,"깻":436,"깼":437,"깽":438,"꺄":439,"꺅":440,"꺌":441,"꺔":442,"꺘":443,"꺙":444,"꺵":445,"꺼":446,"꺽":447,"꺾":448,"껀":449,"껄":450,"껌":451,"껍":452,"껏":453,"껐":454,"껑":455,"껓":456,"껗":457,"께":458,"껙":459,"껜":460,"껟":461,"껨":462,"껭":463,"껰":464,"껳":465,"껴":466,"껶":467,"꼈":468,"꼐":469,"꼬":470,"꼭":471,"꼰":472,"꼳":473,"꼴":474,"꼼":475,"꼽":476,"꼿":477,"꽁":478,"꽂":479,"꽃":480,"꽆":481,"꽈":482,"꽉":483,"꽐":484,"꽝":485,"꽤":486,"꽥":487,"꾀":488,"꾜":489,"꾤":490,"꾸":491,"꾹":492,"꾼":493,"꾾":494,"꿀":495,"꿇":496,"꿈":497,"꿉":498,"꿋":499,"꿍":500,"꿎":501,"꿑":502,"꿔":503,"꿧":504,"꿨":505,"꿩":506,"꿰":507,"뀌":508,"뀐":509,"뀓":510,"뀔":511,"뀜":512,"뀤":513,"뀨":514,"뀬":515,"뀰":516,"뀸":517,"끄":518,"끈":519,"끊":520,"끌":521,"끓":522,"끔":523,"끕":524,"끗":525,"끙":526,"끜":527,"끝":528,"끵":529,"끼":530,"끽":531,"낀":532,"낄":533,"낌":534,"낑":535,"낔":536,"낗":537,"나":538,"낙":539,"낚":540,"난":541,"낟":542,"날":543,"낡":544,"남":545,"납":546,"낫":547,"났":548,"낭":549,"낮":550,"낯":551,"낰":552,"낱":553,"낳":554,"내":555,"낵":556,"낶":557,"낸":558,"낼":559,"냄":560,"냅":561,"냇":562,"냈":563,"냉":564,"냌":565,"냍":566,"냏":567,"냐":568,"냑":569,"냔":570,"냘":571,"냠":572,"냡":573,"냣":574,"냤":575,"냥":576,"냨":577,"냫":578,"냬":579,"냿":580,"넀":581,"넄":582,"너":583,"넉":584,"넊":585,"넋":586,"넌":587,"넏":588,"널":589,"넓":590,"넘":591,"넙":592,"넛":593,"넜":594,"넝":595,"넠":596,"넣":597,"네":598,"넥":599,"넨":600,"넫":601,"넬":602,"넴":603,"넵":604,"넷":605,"넹":606,"넺":607,"넼":608,"넽":609,"녀":610,"녁":611,"년":612,"녇":613,"녈":614,"념":615,"녓":616,"녔":617,"녕":618,"녘":619,"녜":620,"녬":621,"노":622,"녹":623,"논":624,"녿":625,"놀":626,"놈":627,"놉":628,"놋":629,"농":630,"놐":631,"높":632,"놓":633,"놔":634,"놧":635,"놨":636,"놩":637,"놬":638,"놰":639,"뇌":640,"뇨":641,"뇬":642,"뇸":643,"뇽":644,"누":645,"눅":646,"눈":647,"눌":648,"눔":649,"눕":650,"눗":651,"눙":652,"눜":653,"눠":654,"눴":655,"눼":656,"뉍":657,"뉑":658,"뉘":659,"뉠":660,"뉭":661,"뉰":662,"뉴":663,"뉵":664,"뉸":665,"뉼":666,"늄":667,"늉":668,"느":669,"늑":670,"는":671,"늗":672,"늘":673,"늙":674,"늠":675,"능":676,"늦":677,"늧":678,"늨":679,"늪":680,"늫":681,"늬":682,"늰":683,"닁":684,"니":685,"닉":686,"닌":687,"닏":688,"닐":689,"님":690,"닙":691,"닛":692,"닝":693,"닞":694,"닠":695,"닣":696,"다":697,"닥":698,"닦":699,"단":700,"닪":701,"닫":702,"달":703,"닭":704,"닮":705,"닳":706,"담":707,"답":708,"닷":709,"당":710,"닺":711,"닼":712,"닽":713,"닿":714,"대":715,"댁":716,"댂":717,"댄":718,"댇":719,"댈":720,"댐":721,"댑":722,"댓":723,"댔":724,"댕":725,"댗":726,"댘":727,"댙":728,"댛":729,"댜":730,"댝":731,"댠":732,"댣":733,"댤":734,"댯":735,"댰":736,"댱":737,"댴":738,"댵":739,"댷":740,"덌":741,"더":742,"덕":743,"던":744,"덛":745,"덜":746,"덞":747,"덟":748,"덤":749,"덥":750,"덧":751,"덩":752,"덫":753,"덬":754,"덮":755,"덯":756,"데":757,"덱":758,"덴":759,"덷":760,"델":761,"뎀":762,"뎁":763,"뎃":764,"뎄":765,"뎅":766,"뎈":767,"뎉":768,"뎌":769,"뎐":770,"뎝":771,"뎠":772,"뎡":773,"뎤":774,"뎨":775,"뎬":776,"도":777,"독":778,"돈":779,"돋":780,"돌":781,"돔":782,"돕":783,"돗":784,"동":785,"돜":786,"돟":787,"돠":788,"돨":789,"돰":790,"돼":791,"돾":792,"됄":793,"됌":794,"됏":795,"됐":796,"됑":797,"됔":798,"됗":799,"되":800,"된":801,"됟":802,"될":803,"됧":804,"됨":805,"됩":806,"됭":807,"됮":808,"됴":809,"됸":810,"둉":811,"두":812,"둑":813,"둔":814,"둗":815,"둘":816,"둠":817,"둡":818,"둣":819,"둥":820,"둬":821,"뒀":822,"뒈":823,"뒝":824,"뒤":825,"뒵":826,"뒷":827,"뒹":828,"듀":829,"듄":830,"듈":831,"듐":832,"듓":833,"듕":834,"드":835,"득":836,"든":837,"듢":838,"듣":839,"들":840,"듦":841,"듨":842,"듬":843,"듭":844,"듯":845,"등":846,"듴":847,"듷":848,"디":849,"딕":850,"딖":851,"딘":852,"딜":853,"딤":854,"딥":855,"딧":856,"딨":857,"딩":858,"딪":859,"딬":860,"딭":861,"딯":862,"따":863,"딱":864,"딴":865,"딷":866,"딸":867,"땀":868,"땁":869,"땃":870,"땄":871,"땅":872,"땈":873,"땋":874,"때":875,"땍":876,"땐":877,"땓":878,"땜":879,"땝":880,"땟":881,"땠":882,"땡":883,"땤":884,"땨":885,"땩":886,"땯":887,"땳":888,"땸":889,"땽":890,"떄":891,"떔":892,"떙":893,"떠":894,"떡":895,"떤":896,"떨":897,"떰":898,"떳":899,"떴":900,"떵":901,"떸":902,"떻":903,"떼":904,"떽":905,"뗀":906,"뗄":907,"뗌":908,"뗐":909,"뗘":910,"뗙":911,"뗭":912,"뗴":913,"또":914,"똑":915,"똔":916,"똗":917,"똘":918,"똠":919,"똣":920,"똥":921,"똨":922,"똫":923,"뙇":924,"뙈":925,"뙤":926,"뚀":927,"뚁":928,"뚕":929,"뚜":930,"뚝":931,"뚠":932,"뚤":933,"뚫":934,"뚱":935,"뚸":936,"뛔":937,"뛰":938,"뛴":939,"뛸":940,"뜀":941,"뜌":942,"뜍":943,"뜛":944,"뜨":945,"뜩":946,"뜬":947,"뜯":948,"뜰":949,"뜸":950,"뜹":951,"뜻":952,"띀":953,"띁":954,"띄":955,"띔":956,"띕":957,"띠":958,"띡":959,"띨":960,"띰":961,"띱":962,"띵":963,"라":964,"락":965,"띾":966,"란":967,"랂":968,"랃":969,"랄":970,"람":971,"랍":972,"랏":973,"랐":974,"랑":975,"랒":976,"랔":977,"랕":978,"랖":979,"랗":980,"래":981,"랙":982,"랚":983,"랜":984,"랟":985,"랠":986,"램":987,"랩":988,"랫":989,"랬":990,"랭":991,"랰":992,"랱":993,"랳":994,"랴":995,"략":996,"랶":997,"랸":998,"럄":999,"럅":1000,"럈":1001,"량":1002,"럌":1003,"러":1004,"럭":1005,"런":1006,"럳":1007,"럴":1008,"럼":1009,"럽":1010,"럾":1011,"럿":1012,"렀":1013,"렁":1014,"렂":1015,"렄":1016,"렇":1017,"레":1018,"렉":1019,"렌":1020,"렐":1021,"렘":1022,"렙":1023,"렛":1024,"렜":1025,"렝":1026,"렠":1027,"려":1028,"력":1029,"렦":1030,"련":1031,"렬":1032,"렴":1033,"렵":1034,"렷":1035,"렸":1036,"령":1037,"렼":1038,"례":1039,"롕":1040,"로":1041,"록":1042,"론":1043,"롣":1044,"롤":1045,"롥":1046,"롬":1047,"롭":1048,"롯":1049,"롰":1050,"롱":1051,"롴":1052,"롷":1053,"롸":1054,"롹":1055,"뢌":1056,"뢔":1057,"뢩":1058,"뢰":1059,"뢴":1060,"료":1061,"룎":1062,"룐":1063,"룜":1064,"룟":1065,"룠":1066,"룡":1067,"루":1068,"룩":1069,"룬":1070,"룯":1071,"룰":1072,"룸":1073,"룹":1074,"룻":1075,"룽":1076,"뤃":1077,"뤄":1078,"뤈":1079,"뤌":1080,"뤔":1081,"뤘":1082,"뤠":1083,"뤳":1084,"뤴":1085,"뤵":1086,"뤼":1087,"륄":1088,"륌":1089,"륑":1090,"류":1091,"륙":1092,"륜":1093,"률":1094,"륨":1095,"륩":1096,"륭":1097,"륳":1098,"르":1099,"륵":1100,"른":1101,"를":1102,"륽":1103,"름":1104,"릅":1105,"릇":1106,"릉":1107,"릌":1108,"릎":1109,"릏":1110,"릥":1111,"리":1112,"릭":1113,"린":1114,"릳":1115,"릴":1116,"림":1117,"립":1118,"릿":1119,"맀":1120,"링":1121,"맂":1122,"맃":1123,"맄":1124,"마":1125,"막":1126,"만":1127,"많":1128,"맏":1129,"말":1130,"맑":1131,"맘":1132,"맙":1133,"맛":1134,"맜":1135,"망":1136,"맞":1137,"맠":1138,"맡":1139,"맣":1140,"매":1141,"맥":1142,"맨":1143,"맬":1144,"맴":1145,"맵":1146,"맷":1147,"맸":1148,"맹":1149,"맺":1150,"맼":1151,"맿":1152,"먀":1153,"먄":1154,"먐":1155,"먔":1156,"먕":1157,"먖":1158,"먗":1159,"먘":1160,"먳":1161,"머":1162,"먹":1163,"먼":1164,"먿":1165,"멀":1166,"멂":1167,"멈":1168,"멋":1169,"멍":1170,"멎":1171,"멏":1172,"메":1173,"멕":1174,"멘":1175,"멜":1176,"멤":1177,"멧":1178,"멨":1179,"멩":1180,"멬":1181,"며":1182,"멱":1183,"면":1184,"멸":1185,"몀":1186,"몄":1187,"명":1188,"몆":1189,"몇":1190,"몈":1191,"몉":1192,"모":1193,"목":1194,"몫":1195,"몬":1196,"몰":1197,"몸":1198,"몹":1199,"못":1200,"몽":1201,"뫃":1202,"뫄":1203,"뫜":1204,"뫵":1205,"묘":1206,"묜":1207,"묨":1208,"묭":1209,"묯":1210,"묰":1211,"무":1212,"묵":1213,"묶":1214,"문":1215,"묻":1216,"물":1217,"묽":1218,"뭄":1219,"뭇":1220,"뭉":1221,"뭌":1222,"뭐":1223,"뭔":1224,"뭘":1225,"뭠":1226,"뭡":1227,"뭣":1228,"뭥":1229,"뭨":1230,"뭫":1231,"뭬":1232,"뮤":1233,"뮨":1234,"뮫":1235,"뮬":1236,"뮴":1237,"뮷":1238,"뮹":1239,"므":1240,"믄":1241,"믈":1242,"믐":1243,"믓":1244,"믜":1245,"미":1246,"믹":1247,"민":1248,"믾":1249,"믿":1250,"밀":1251,"밈":1252,"밉":1253,"밋":1254,"밌":1255,"밍":1256,"및":1257,"밐":1258,"밑":1259,"바":1260,"박":1261,"밖":1262,"밗":1263,"반":1264,"받":1265,"발":1266,"밝":1267,"밟":1268,"밤":1269,"밥":1270,"밧":1271,"밨":1272,"방":1273,"밪":1274,"밬":1275,"밭":1276,"배":1277,"백":1278,"밴":1279,"밷":1280,"밸":1281,"뱀":1282,"뱃":1283,"뱅":1284,"뱉":1285,"뱌":1286,"뱍":1287,"뱔":1288,"뱡":1289,"버":1290,"벅":1291,"벆":1292,"번":1293,"벋":1294,"벌":1295,"범":1296,"법":1297,"벗":1298,"벙":1299,"벚":1300,"벜":1301,"벟":1302,"베":1303,"벡":1304,"벤":1305,"벨":1306,"벱":1307,"벳":1308,"벵":1309,"벻":1310,"벼":1311,"벽":1312,"변":1313,"별":1314,"볍":1315,"볏":1316,"병":1317,"볔":1318,"볕":1319,"보":1320,"복":1321,"볶":1322,"본":1323,"볻":1324,"볼":1325,"볽":1326,"봄":1327,"봅":1328,"봇":1329,"봈":1330,"봉":1331,"봌":1332,"봏":1333,"봐":1334,"봒":1335,"봠":1336,"봣":1337,"봤":1338,"봥":1339,"봨":1340,"봬":1341,"뵁":1342,"뵈":1343,"뵐":1344,"뵙":1345,"뵤":1346,"뵨":1347,"부":1348,"북":1349,"분":1350,"붇":1351,"불":1352,"붉":1353,"붐":1354,"붓":1355,"붕":1356,"붖":1357,"붘":1358,"붙":1359,"붸":1360,"뷔":1361,"뷰":1362,"뷱":1363,"뷴":1364,"뷸":1365,"븀":1366,"븃":1367,"븅":1368,"븉":1369,"브":1370,"븍":1371,"븎":1372,"븐":1373,"블":1374,"븜":1375,"비":1376,"빅":1377,"빈":1378,"빌":1379,"빔":1380,"빕":1381,"빗":1382,"빙":1383,"빚":1384,"빛":1385,"빜":1386,"빝":1387,"빠":1388,"빡":1389,"빤":1390,"빧":1391,"빨":1392,"빱":1393,"빳":1394,"빴":1395,"빵":1396,"빸":1397,"빻":1398,"빼":1399,"빽":1400,"뺀":1401,"뺄":1402,"뺌":1403,"뺍":1404,"뺏":1405,"뺐":1406,"뺑":1407,"뺘":1408,"뺨":1409,"뺫":1410,"뺭":1411,"뺴":1412,"뻐":1413,"뻑":1414,"뻔":1415,"뻗":1416,"뻘":1417,"뻡":1418,"뻤":1419,"뻥":1420,"뼈":1421,"뼘":1422,"뼛":1423,"뼝":1424,"뽀":1425,"뽁":1426,"뽂":1427,"뽇":1428,"뽈":1429,"뽐":1430,"뽑":1431,"뽕":1432,"뽚":1433,"뽜":1434,"뽝":1435,"뽯":1436,"뾰":1437,"뾱":1438,"뿁":1439,"뿅":1440,"뿌":1441,"뿍":1442,"뿐":1443,"뿔":1444,"뿜":1445,"뿡":1446,"뿨":1447,"쀄":1448,"쀼":1449,"쁀":1450,"쁄":1451,"쁘":1452,"쁜":1453,"쁠":1454,"쁨":1455,"쁩":1456,"쁰":1457,"쁳":1458,"삐":1459,"삑":1460,"삘":1461,"삣":1462,"삥":1463,"사":1464,"삭":1465,"산":1466,"살":1467,"삶":1468,"삷":1469,"삻":1470,"삼":1471,"삽":1472,"삿":1473,"샀":1474,"상":1475,"샄":1476,"샅":1477,"샆":1478,"샇":1479,"새":1480,"색":1481,"샊":1482,"샌":1483,"샏":1484,"샐":1485,"샘":1486,"샛":1487,"샜":1488,"생":1489,"샡":1490,"샣":1491,"샤":1492,"샥":1493,"샬":1494,"샴":1495,"샵":1496,"샷":1497,"샸":1498,"샹":1499,"샼":1500,"샾":1501,"섀":1502,"서":1503,"석":1504,"섞":1505,"선":1506,"섣":1507,"설":1508,"섥":1509,"섧":1510,"섬":1511,"섭":1512,"섯":1513,"섰":1514,"성":1515,"섲":1516,"섴":1517,"섷":1518,"세":1519,"섹":1520,"섺":1521,"센":1522,"셀":1523,"셈":1524,"셉":1525,"셋":1526,"셌":1527,"셍":1528,"셐":1529,"셓":1530,"셔":1531,"셖":1532,"션":1533,"셜":1534,"셤":1535,"셥":1536,"셧":1537,"셨":1538,"셬":1539,"셰":1540,"솁":1541,"솊":1542,"소":1543,"속":1544,"손":1545,"솓":1546,"솔":1547,"솜":1548,"솟":1549,"송":1550,"솤":1551,"솥":1552,"솨":1553,"솬":1554,"쇄":1555,"쇠":1556,"쇼":1557,"쇽":1558,"숀":1559,"숄":1560,"숍":1561,"숏":1562,"숑":1563,"숗":1564,"수":1565,"숙":1566,"순":1567,"숟":1568,"술":1569,"숨":1570,"숩":1571,"숫":1572,"숭":1573,"숯":1574,"숰":1575,"숱":1576,"숲":1577,"숴":1578,"쉅":1579,"쉈":1580,"쉐":1581,"쉑":1582,"쉗":1583,"쉘":1584,"쉣":1585,"쉨":1586,"쉬":1587,"쉭":1588,"쉰":1589,"쉴":1590,"쉼":1591,"쉽":1592,"쉿":1593,"슂":1594,"슈":1595,"슉":1596,"슌":1597,"슐":1598,"슘":1599,"슙":1600,"슝":1601,"스":1602,"슥":1603,"슦":1604,"슨":1605,"슬":1606,"슭":1607,"슴":1608,"습":1609,"슷":1610,"승":1611,"슺":1612,"슻":1613,"슼":1614,"슿":1615,"싁":1616,"싈":1617,"싑":1618,"시":1619,"식":1620,"신":1621,"싣":1622,"실":1623,"싫":1624,"심":1625,"십":1626,"싯":1627,"싰":1628,"싱":1629,"싳":1630,"싴":1631,"싶":1632,"싷":1633,"싸":1634,"싹":1635,"싼":1636,"싿":1637,"쌀":1638,"쌈":1639,"쌉":1640,"쌋":1641,"쌌":1642,"쌍":1643,"쌐":1644,"쌓":1645,"쌔":1646,"쌤":1647,"쌨":1648,"쌩":1649,"쌰":1650,"쌱":1651,"썅":1652,"써":1653,"썩":1654,"썬":1655,"썰":1656,"썸":1657,"썹":1658,"썻":1659,"썼":1660,"썽":1661,"쎀":1662,"쎁":1663,"쎃":1664,"쎄":1665,"쎅":1666,"쎈":1667,"쎌":1668,"쎔":1669,"쎗":1670,"쎘":1671,"쎙":1672,"쎠":1673,"쎰":1674,"쏘":1675,"쏙":1676,"쏜":1677,"쏟":1678,"쏠":1679,"쏭":1680,"쏴":1681,"쐉":1682,"쐐":1683,"쐬":1684,"쑤":1685,"쑥":1686,"쑴":1687,"쒀":1688,"쒕":1689,"쒯":1690,"쒸":1691,"쓔":1692,"쓩":1693,"쓰":1694,"쓱":1695,"쓴":1696,"쓸":1697,"쓼":1698,"씀":1699,"씁":1700,"씃":1701,"씅":1702,"씋":1703,"씌":1704,"씐":1705,"씨":1706,"씩":1707,"씬":1708,"씯":1709,"씰":1710,"씸":1711,"씹":1712,"씻":1713,"씼":1714,"씽":1715,"씾":1716,"앀":1717,"아":1718,"악":1719,"앆":1720,"안":1721,"앉":1722,"않":1723,"앋":1724,"알":1725,"앍":1726,"앎":1727,"앐":1728,"앓":1729,"암":1730,"압":1731,"앖":1732,"앗":1733,"았":1734,"앙":1735,"앚":1736,"앛":1737,"앜":1738,"앝":1739,"앞":1740,"앟":1741,"애":1742,"액":1743,"앤":1744,"앧":1745,"앨":1746,"앰":1747,"앱":1748,"앴":1749,"앵":1750,"앸":1751,"앹":1752,"앻":1753,"야":1754,"약":1755,"앾":1756,"얀":1757,"얃":1758,"얄":1759,"얇":1760,"얌":1761,"얍":1762,"얏":1763,"얐":1764,"양":1765,"얔":1766,"얕":1767,"얖":1768,"얗":1769,"얘":1770,"얙":1771,"얜":1772,"얰":1773,"어":1774,"억":1775,"얶":1776,"언":1777,"얹":1778,"얺":1779,"얻":1780,"얼":1781,"얽":1782,"엄":1783,"업":1784,"없":1785,"엇":1786,"었":1787,"엉":1788,"엊":1789,"엌":1790,"엍":1791,"엎":1792,"엏":1793,"에":1794,"엑":1795,"엔":1796,"엗":1797,"엘":1798,"엠":1799,"엣":1800,"엥":1801,"엨":1802,"엫":1803,"여":1804,"역":1805,"엮":1806,"연":1807,"열":1808,"염":1809,"엽":1810,"엾":1811,"엿":1812,"였":1813,"영":1814,"옂":1815,"옄":1816,"옅":1817,"옆":1818,"옇":1819,"예":1820,"옐":1821,"옛":1822,"옝":1823,"오":1824,"옥":1825,"옦":1826,"온":1827,"옫":1828,"올":1829,"옭":1830,"옮":1831,"옯":1832,"옳":1833,"옴":1834,"옵":1835,"옶":1836,"옷":1837,"옸":1838,"옹":1839,"옼":1840,"옽":1841,"옿":1842,"와":1843,"왁":1844,"왂":1845,"완":1846,"왇":1847,"왈":1848,"왓":1849,"왔":1850,"왕":1851,"왘":1852,"왛":1853,"왜":1854,"왝":1855,"왠":1856,"왤":1857,"왬":1858,"왱":1859,"왴":1860,"외":1861,"왼":1862,"욌":1863,"요":1864,"욕":1865,"욖":1866,"욘":1867,"욜":1868,"욤":1869,"욥":1870,"욧":1871,"욨":1872,"용":1873,"욪":1874,"욬":1875,"욯":1876,"우":1877,"욱":1878,"운":1879,"욷":1880,"울":1881,"움":1882,"웁":1883,"웃":1884,"웄":1885,"웅":1886,"웇":1887,"웈":1888,"웉":1889,"웋":1890,"워":1891,"웍":1892,"웎":1893,"원":1894,"월":1895,"웜":1896,"웟":1897,"웠":1898,"웡":1899,"웢":1900,"웤":1901,"웧":1902,"웨":1903,"웩":1904,"웬":1905,"웰":1906,"웳":1907,"웸":1908,"웹":1909,"웻":1910,"위":1911,"윅":1912,"윈":1913,"윌":1914,"윔":1915,"윗":1916,"윙":1917,"유":1918,"육":1919,"윤":1920,"윧":1921,"율":1922,"윰":1923,"윳":1924,"융":1925,"윸":1926,"으":1927,"윽":1928,"은":1929,"읃":1930,"을":1931,"읊":1932,"읋":1933,"음":1934,"읍":1935,"읎":1936,"읏":1937,"응":1938,"읒":1939,"읓":1940,"읔":1941,"읗":1942,"의":1943,"읜":1944,"읭":1945,"읰":1946,"이":1947,"익":1948,"읶":1949,"인":1950,"읻":1951,"일":1952,"읽":1953,"잀":1954,"잃":1955,"임":1956,"입":1957,"잇":1958,"있":1959,"잉":1960,"잊":1961,"잋":1962,"잌":1963,"잍":1964,"잎":1965,"잏":1966,"자":1967,"작":1968,"잒":1969,"잔":1970,"잖":1971,"잗":1972,"잘":1973,"잛":1974,"잜":1975,"잠":1976,"잡":1977,"잣":1978,"잤":1979,"장":1980,"잦":1981,"잧":1982,"잨":1983,"잩":1984,"잫":1985,"재":1986,"잭":1987,"잰":1988,"잳":1989,"잴":1990,"잼":1991,"쟀":1992,"쟁":1993,"쟈":1994,"쟉":1995,"쟊":1996,"쟌":1997,"쟐":1998,"쟜":1999,"쟝":2000,"쟠":2001,"쟡":2002,"쟤":2003,"쟨":2004,"쟹":2005,"저":2006,"적":2007,"전":2008,"젇":2009,"절":2010,"젊":2011,"젍":2012,"점":2013,"접":2014,"젓":2015,"정":2016,"젖":2017,"젘":2018,"젙":2019,"젛":2020,"제":2021,"젝":2022,"젠":2023,"젤":2024,"젬":2025,"젭":2026,"젯":2027,"젱":2028,"젴":2029,"젵":2030,"져":2031,"젹":2032,"젺":2033,"젼":2034,"졀":2035,"졈":2036,"졋":2037,"졌":2038,"졍":2039,"졐":2040,"졓":2041,"조":2042,"족":2043,"존":2044,"졷":2045,"졸":2046,"좀":2047,"좁":2048,"좃":2049,"종":2050,"좆":2051,"좇":2052,"좋":2053,"좌":2054,"좡":2055,"좤":2056,"죄":2057,"죈":2058,"죙":2059,"죠":2060,"죤":2061,"죨":2062,"죰":2063,"죴":2064,"죵":2065,"죶":2066,"죸":2067,"죻":2068,"주":2069,"죽":2070,"준":2071,"줄":2072,"줅":2073,"줌":2074,"줍":2075,"줏":2076,"중":2077,"줔":2078,"줗":2079,"줘":2080,"줙":2081,"줚":2082,"줜":2083,"줟":2084,"줫":2085,"줬":2086,"줭":2087,"줮":2088,"줰":2089,"줴":2090,"쥐":2091,"쥑":2092,"쥔":2093,"쥘":2094,"쥠":2095,"쥥":2096,"쥬":2097,"쥭":2098,"쥰":2099,"쥴":2100,"쥼":2101,"즁":2102,"즈":2103,"즉":2104,"즌":2105,"즐":2106,"즒":2107,"즘":2108,"즙":2109,"즛":2110,"증":2111,"즤":2112,"지":2113,"직":2114,"진":2115,"짇":2116,"질":2117,"짊":2118,"짏":2119,"짐":2120,"집":2121,"짓":2122,"징":2123,"짖":2124,"짘":2125,"짙":2126,"짚":2127,"짛":2128,"짜":2129,"짝":2130,"짠":2131,"짢":2132,"짤":2133,"짧":2134,"짬":2135,"짭":2136,"짯":2137,"짰":2138,"짱":2139,"짴":2140,"째":2141,"짹":2142,"짺":2143,"짼":2144,"쨀":2145,"쨈":2146,"쨉":2147,"쨋":2148,"쨌":2149,"쨍":2150,"쨔":2151,"쨕":2152,"쨘":2153,"쨜":2154,"쨨":2155,"쨩":2156,"쨬":2157,"쨰":2158,"쩄":2159,"쩌":2160,"쩍":2161,"쩐":2162,"쩔":2163,"쩜":2164,"쩝":2165,"쩡":2166,"쩧":2167,"쪄":2168,"쪅":2169,"쪔":2170,"쪘":2171,"쪙":2172,"쪜":2173,"쪼":2174,"쪽":2175,"쫀":2176,"쫃":2177,"쫄":2178,"쫌":2179,"쫍":2180,"쫑":2181,"쫒":2182,"쫓":2183,"쫘":2184,"쫙":2185,"쬐":2186,"쬬":2187,"쬭":2188,"쬼":2189,"쬽":2190,"쭁":2191,"쭈":2192,"쭉":2193,"쭐":2194,"쭘":2195,"쭛":2196,"쭤":2197,"쮜":2198,"쮲":2199,"쮸":2200,"쮹":2201,"쯈":2202,"쯉":2203,"쯔":2204,"쯜":2205,"쯤":2206,"쯧":2207,"쯰":2208,"찆":2209,"찌":2210,"찍":2211,"찐":2212,"찔":2213,"찜":2214,"찝":2215,"찡":2216,"찢":2217,"찤":2218,"찧":2219,"차":2220,"착":2221,"찬":2222,"찮":2223,"찯":2224,"찰":2225,"참":2226,"찹":2227,"찻":2228,"찼":2229,"창":2230,"찾":2231,"챀":2232,"챂":2233,"채":2234,"책":2235,"챈":2236,"챋":2237,"챌":2238,"챔":2239,"챕":2240,"챗":2241,"챘":2242,"챙":2243,"챠":2244,"챡":2245,"챨":2246,"챱":2247,"챴":2248,"챵":2249,"챸":2250,"챺":2251,"처":2252,"척":2253,"천":2254,"철":2255,"첨":2256,"첩":2257,"첫":2258,"청":2259,"첰":2260,"첳":2261,"체":2262,"첵":2263,"첸":2264,"첼":2265,"쳄":2266,"쳇":2267,"쳌":2268,"쳐":2269,"쳔":2270,"쳘":2271,"쳡":2272,"쳣":2273,"쳤":2274,"쳥":2275,"쳧":2276,"쳨":2277,"쳬":2278,"초":2279,"촉":2280,"촌":2281,"촐":2282,"촘":2283,"총":2284,"촥":2285,"촬":2286,"촵":2287,"최":2288,"쵝":2289,"쵸":2290,"춌":2291,"춍":2292,"추":2293,"축":2294,"춘":2295,"춛":2296,"출":2297,"춟":2298,"춤":2299,"춥":2300,"충":2301,"춰":2302,"췄":2303,"췅":2304,"췌":2305,"췤":2306,"취":2307,"췻":2308,"츀":2309,"츄":2310,"츅":2311,"츈":2312,"츌":2313,"츙":2314,"츠":2315,"측":2316,"츤":2317,"츨":2318,"층":2319,"츼":2320,"칀":2321,"치":2322,"칙":2323,"친":2324,"칟":2325,"칠":2326,"침":2327,"칩":2328,"칫":2329,"칭":2330,"칰":2331,"칱":2332,"카":2333,"칵":2334,"칸":2335,"칼":2336,"캄":2337,"캇":2338,"캈":2339,"캉":2340,"캌":2341,"캍":2342,"캐":2343,"캔":2344,"캘":2345,"캠":2346,"캡":2347,"캣":2348,"캤":2349,"캥":2350,"캨":2351,"캬":2352,"캴":2353,"컄":2354,"커":2355,"컥":2356,"컨":2357,"컫":2358,"컬":2359,"컴":2360,"컵":2361,"컶":2362,"컷":2363,"컸":2364,"컹":2365,"컾":2366,"케":2367,"켈":2368,"켐":2369,"켓":2370,"켔":2371,"켕":2372,"켘":2373,"켛":2374,"켜":2375,"켠":2376,"켤":2377,"켭":2378,"켰":2379,"코":2380,"콕":2381,"콘":2382,"콜":2383,"콤":2384,"콧":2385,"콩":2386,"콬":2387,"콱":2388,"콴":2389,"콸":2390,"쾅":2391,"쾌":2392,"쿄":2393,"쿅":2394,"쿘":2395,"쿜":2396,"쿠":2397,"쿡":2398,"쿤":2399,"쿨":2400,"쿰":2401,"쿵":2402,"쿸":2403,"쿻":2404,"쿼":2405,"퀄":2406,"퀘":2407,"퀭":2408,"퀴":2409,"퀵":2410,"퀸":2411,"큐":2412,"큑":2413,"큘":2414,"큨":2415,"크":2416,"큭":2417,"큰":2418,"큳":2419,"클":2420,"큼":2421,"큽":2422,"킁":2423,"킄":2424,"킈":2425,"킌":2426,"키":2427,"킥":2428,"킨":2429,"킬":2430,"킴":2431,"킵":2432,"킷":2433,"킹":2434,"킼":2435,"킿":2436,"타":2437,"탁":2438,"탂":2439,"탄":2440,"탆":2441,"탈":2442,"탐":2443,"탑":2444,"탓":2445,"탔":2446,"탕":2447,"탘":2448,"탛":2449,"태":2450,"택":2451,"탠":2452,"탣":2453,"탤":2454,"탬":2455,"탭":2456,"탯":2457,"탱":2458,"탸":2459,"탹":2460,"턉":2461,"턍":2462,"터":2463,"턱":2464,"턴":2465,"턷":2466,"털":2467,"텀":2468,"텁":2469,"텄":2470,"텅":2471,"텈":2472,"테":2473,"텍":2474,"텐":2475,"텔":2476,"템":2477,"텝":2478,"텡":2479,"텤":2480,"텨":2481,"텼":2482,"텽":2483,"톄":2484,"토":2485,"톡":2486,"톤":2487,"톧":2488,"톨":2489,"톰":2490,"톱":2491,"톳":2492,"통":2493,"톼":2494,"퇴":2495,"툑":2496,"툥":2497,"투":2498,"툭":2499,"툰":2500,"툴":2501,"툼":2502,"퉁":2503,"퉅":2504,"퉈":2505,"퉝":2506,"퉤":2507,"튀":2508,"튁":2509,"튄":2510,"튈":2511,"튐":2512,"튕":2513,"튜":2514,"튝":2515,"튤":2516,"튬":2517,"튭":2518,"튱":2519,"트":2520,"특":2521,"튼":2522,"튿":2523,"틀":2524,"틈":2525,"틋":2526,"틍":2527,"틐":2528,"틔":2529,"티":2530,"틱":2531,"틴":2532,"틸":2533,"팀":2534,"팁":2535,"팃":2536,"팅":2537,"파":2538,"팍":2539,"판":2540,"팔":2541,"팜":2542,"팝":2543,"팟":2544,"팠":2545,"팡":2546,"팣":2547,"팤":2548,"팥":2549,"팦":2550,"패":2551,"팩":2552,"팬":2553,"팰":2554,"팸":2555,"팼":2556,"팽":2557,"퍀":2558,"퍄":2559,"퍈":2560,"퍕":2561,"퍘":2562,"퍙":2563,"퍜":2564,"퍞":2565,"퍼":2566,"퍽":2567,"펀":2568,"펃":2569,"펄":2570,"펌":2571,"펍":2572,"펏":2573,"펐":2574,"펑":2575,"펔":2576,"페":2577,"펙":2578,"펜":2579,"펠":2580,"펫":2581,"펭":2582,"펴":2583,"편":2584,"펼":2585,"폄":2586,"폅":2587,"폈":2588,"평":2589,"폌":2590,"폐":2591,"포":2592,"폭":2593,"폰":2594,"폴":2595,"폼":2596,"퐀":2597,"퐁":2598,"퐄":2599,"퐈":2600,"푀":2601,"표":2602,"푝":2603,"푠":2604,"푶":2605,"푸":2606,"푹":2607,"푼":2608,"풀":2609,"품":2610,"풋":2611,"풍":2612,"퓨":2613,"퓬":2614,"퓰":2615,"퓸":2616,"퓽":2617,"픂":2618,"픃":2619,"프":2620,"픅":2621,"픈":2622,"플":2623,"픔":2624,"픙":2625,"픜":2626,"픟":2627,"피":2628,"픽":2629,"핀":2630,"필":2631,"핌":2632,"핍":2633,"핏":2634,"핑":2635,"핒":2636,"하":2637,"학":2638,"한":2639,"핟":2640,"할":2641,"핡":2642,"핢":2643,"핥":2644,"핧":2645,"함":2646,"합":2647,"핫":2648,"핬":2649,"항":2650,"핮":2651,"핰":2652,"핳":2653,"해":2654,"핵":2655,"핶":2656,"핸":2657,"핻":2658,"핼":2659,"햄":2660,"햅":2661,"햇":2662,"했":2663,"행":2664,"햊":2665,"햌":2666,"햏":2667,"햐":2668,"햑":2669,"햒":2670,"햔":2671,"햘":2672,"햠":2673,"햤":2674,"향":2675,"햨":2676,"햫":2677,"햬":2678,"햿":2679,"헀":2680,"허":2681,"헉":2682,"헌":2683,"헏":2684,"헐":2685,"헑":2686,"험":2687,"헙":2688,"헛":2689,"헝":2690,"헞":2691,"헠":2692,"헡":2693,"헣":2694,"헤":2695,"헥":2696,"헨":2697,"헫":2698,"헬":2699,"헴":2700,"헷":2701,"헸":2702,"헹":2703,"헿":2704,"혀":2705,"혁":2706,"현":2707,"혈":2708,"혐":2709,"협":2710,"혓":2711,"혔":2712,"형":2713,"혘":2714,"혜":2715,"호":2716,"혹":2717,"혼":2718,"혿":2719,"홀":2720,"홈":2721,"홉":2722,"홋":2723,"홍":2724,"홐":2725,"홓":2726,"화":2727,"확":2728,"환":2729,"활":2730,"홤":2731,"홥":2732,"홧":2733,"황":2734,"홬":2735,"홯":2736,"홰":2737,"홱":2738,"횄":2739,"회":2740,"획":2741,"횟":2742,"횡":2743,"횤":2744,"효":2745,"횬":2746,"횽":2747,"후":2748,"훅":2749,"훈":2750,"훌":2751,"훍":2752,"훑":2753,"훓":2754,"훔":2755,"훗":2756,"훙":2757,"훟":2758,"훠":2759,"훤":2760,"훨":2761,"훵":2762,"훻":2763,"훼":2764,"휑":2765,"휘":2766,"휙":2767,"휜":2768,"휠":2769,"휨":2770,"휩":2771,"휫":2772,"휭":2773,"휴":2774,"휸":2775,"휼":2776,"휽":2777,"흄":2778,"흉":2779,"흊":2780,"흎":2781,"흐":2782,"흑":2783,"흔":2784,"흗":2785,"흘":2786,"흙":2787,"흠":2788,"흡":2789,"흣":2790,"흥":2791,"흨":2792,"흩":2793,"흫":2794,"희":2795,"흰":2796,"힄":2797,"히":2798,"힉":2799,"힌":2800,"힎":2801,"힐":2802,"힘":2803,"힙":2804,"힛":2805,"힝":2806,"힠":2807,"힡":2808,"힣":2809,"️":2810,"ﾉ":2811,"🌀":2812,"🌈":2813,"🌊":2814,"🌝":2815,"🌞":2816,"🌡":2817,"🍃":2818,"🎉":2819,"🎙":2820,"🎤":2821,"🎧":2822,"🎵":2823,"🎶":2824,"🎺":2825,"🏢":2826,"👀":2827,"👅":2828,"👈":2829,"👉":2830,"👋":2831,"👌":2832,"👏":2833,"👯":2834,"👿":2835,"💃":2836,"💓":2837,"💕":2838,"💖":2839,"💗":2840,"💝":2841,"💞":2842,"💟":2843,"💦":2844,"💨":2845,"💯":2846,"💰":2847,"📌":2848,"📖":2849,"📚":2850,"📝":2851,"📢":2852,"📣":2853,"🔊":2854,"🔞":2855,"🔥":2856,"🖕":2857,"🖤":2858,"😀":2859,"😂":2860,"😎":2861,"😔":2862,"😖":2863,"😘":2864,"😚":2865,"😡":2866,"😣":2867,"😥":2868,"😭":2869,"😱":2870,"😵":2871,"🙃":2872,"🙅":2873,"🙆":2874,"🙊":2875,"🚢":2876,"🚨":2877,"🚶":2878,"🛎":2879,"🛳":2880,"🤔":2881,"🤝":2882,"🤞":2883,"🤢":2884,"🤦":2885,"🤬":2886,"🤮":2887,"🤯":2888,"🤷":2889,"🤸":2890,"🥁":2891,"🥰":2892,"🥺":2893,"🦈":2894,"🧚":2895,"##히":2896,"##진":2897,"##짜":2898,"##어":2899,"##남":2900,"##미":2901,"##료":2902,"##였":2903,"##던":2904,"##통":2905,"##그":2906,"##성":2907,"##읔":2908,"##데":2909,"##약":2910,"##입":2911,"##니":2912,"##더":2913,"##g":2914,"##o":2915,"##나":2916,"##자":2917,"##기":2918,"##로":2919,"##하":2920,"##누":2921,"##고":2922,"##생":2923,"##인":2924,"##민":2925,"##구":2926,"##운":2927,"##위":2928,"##는":2929,"##끈":2930,"##댕":2931,"##이":2932,"##ㅠ":2933,"##안":2934,"##도":2935,"##애":2936,"##ㅐ":2937,"##앵":2938,"##용":2939,"##을":2940,"##만":2941,"##화":2942,"##짐":2943,"##심":2944,"##ㄷ":2945,"##근":2946,"##대":2947,"##서":2948,"##아":2949,"##빠":2950,"##가":2951,"##웹":2952,"##캠":2953,"##랑":2954,"##끼":2955,"##리":2956,"##지":2957,"##너":2958,"##각":2959,"##언":2960,"##제":2961,"##일":2962,"##피":2963,"##장":2964,"##크":2965,"##클":2966,"##밖":2967,"##에":2968,"##은":2969,"##야":2970,"##쁘":2971,"##다":2972,"##2":2973,"##포":2974,"##소":2975,"##ㅋ":2976,"##냥":2977,"##특":2978,"##으":2979,"##면":2980,"##해":2981,"##함":2982,"##오":2983,"##쳐":2984,"##졌":2985,"##음":2986,"##국":2987,"##마":2988,"##새":2989,"##라":2990,"##틀":2991,"##릴":2992,"##거":2993,"##예":2994,"##요":2995,"##표":2996,"##었":2997,"##괴":2998,"##감":2999,"##뚜":3000,"##깡":3001,"##보":3002,"##주":3003,"##공":3004,"##흐":3005,"##움":3006,"##모":3007,"##찍":3008,"##상":3009,"##병":3010,"##학":3011,"##컴":3012,"##ㅌ":3013,"##쾌":3014,"##ㅗ":3015,"##방":3016,"##불":3017,"##러":3018,"##침":3019,"##볼":3020,"##게":3021,"##든":3022,"##파":3023,"##시":3024,"##킬":3025,"##유":3026,"##부":3027,"##여":3028,"##봤":3029,"##렇":3030,"##군":3031,"##ㅎ":3032,"##의":3033,"##간":3034,"##랩":3035,"##멋":3036,"##떠":3037,"##망":3038,"##못":3039,"##셨":3040,"##버":3041,"##려":3042,"##올":3043,"##준":3044,"##루":3045,"##쫄":3046,"##먄":3047,"##울":3048,"##르":3049,"##겠":3050,"##스":3051,"##템":3052,"##혀":3053,"##닌":3054,"##얘":3055,"##들":3056,"##정":3057,"##했":3058,"##u":3059,"##s":3060,"##i":3061,"##n":3062,"##e":3063,"##팜":3064,"##때":3065,"##초":3066,"##승":3067,"##달":3068,"##당":3069,"##한":3070,"##쪄":3071,"##벽":3072,"##평":3073,"##갔":3074,"##전":3075,"##친":3076,"##과":3077,"##중":3078,"##맨":3079,"##임":3080,"##급":3081,"##우":3082,"##b":3083,"##꽂":3084,"##잖":3085,"##프":3086,"##런":3087,"##넼":3088,"##것":3089,"##단":3090,"##5":3091,"##날":3092,"##뻔":3093,"##왜":3094,"##영":3095,"##낌":3096,"##잘":3097,"##켰":3098,"##말":3099,"##찢":3100,"##1":3101,"##억":3102,"##욧":3103,"##원":3104,"##왱":3105,"##또":3106,"##끗":3107,"##터":3108,"##져":3109,"##내":3110,"##란":3111,"##실":3112,"##띠":3113,"##끄":3114,"##까":3115,"##굽":3116,"##와":3117,"##교":3118,"##수":3119,"##님":3120,"##잤":3121,"##네":3122,"##뎌":3123,"##취":3124,"##직":3125,"##튼":3126,"##문":3127,"##뉭":3128,"##결":3129,"##힝":3130,"##징":3131,"##동":3132,"##락":3133,"##질":3134,"##능":3135,"##0":3136,"##름":3137,"##비":3138,"##디":3139,"##험":3140,"##경":3141,"##줄":3142,"##♡":3143,"##사":3144,"##판":3145,"##ㅡ":3146,"##x":3147,"##f":3148,"##옴":3149,"##난":3150,"##냐":3151,"##있":3152,"##길":3153,"##래":3154,"##굼":3155,"##되":3156,"##귀":3157,"##찮":3158,"##왔":3159,"##줌":3160,"##쉬":3161,"##앞":3162,"##두":3163,"##덩":3164,"##뗘":3165,"##격":3166,"##킹":3167,"##독":3168,"##덴":3169,"##착":3170,"##막":3171,"##후":3172,"##휴":3173,"##골":3174,"##건":3175,"##겼":3176,"##협":3177,"##밤":3178,"##핳":3179,"##잉":3180,"##별":3181,"##점":3182,"##3":3183,"##습":3184,"##웅":3185,"##써":3186,"##신":3187,"##재":3188,"##를":3189,"##줬":3190,"##뿌":3191,"##듯":3192,"##p":3193,"##c":3194,"##v":3195,"##딱":3196,"##쑥":3197,"##될":3198,"##걍":3199,"##슌":3200,"##꺼":3201,"##퓨":3202,"##범":3203,"##ㅜ":3204,"##갓":3205,"##놓":3206,"##둡":3207,"##코":3208,"##드":3209,"##눈":3210,"##뽀":3211,"##글":3212,"##금":3213,"##토":3214,"##업":3215,"##선":3216,"##물":3217,"##룡":3218,"##닠":3219,"##쓰":3220,"##랭":3221,"##찌":3222,"##씨":3223,"##법":3224,"##세":3225,"##분":3226,"##키":3227,"##죠":3228,"##굉":3229,"##겨":3230,"##색":3231,"##롬":3232,"##창":3233,"##궁":3234,"##티":3235,"##껴":3236,"##떰":3237,"##집":3238,"##힌":3239,"##뭐":3240,"##트":3241,"##카":3242,"##냄":3243,"##멍":3244,"##청":3245,"##잠":3246,"##많":3247,"##ㅍ":3248,"##무":3249,"##북":3250,"##형":3251,"##껀":3252,"##봐":3253,"##늦":3254,"##ㅣ":3255,"##플":3256,"##났":3257,"##먹":3258,"##ㄹ":3259,"##ㅇ":3260,"##할":3261,"##윈":3262,"##희":3263,"##8":3264,"##6":3265,"##뜻":3266,"##저":3267,"##접":3268,"##명":3269,"##치":3270,"##석":3271,"##딩":3272,"##회":3273,"##택":3274,"##차":3275,"##탈":3276,"##설":3277,"##탕":3278,"##럽":3279,"##곤":3280,"##낭":3281,"##즘":3282,"##ㄱ":3283,"##빨":3284,"##목":3285,"##푸":3286,"##앙":3287,"##투":3288,"##늘":3289,"##논":3290,"##현":3291,"##역":3292,"##깄":3293,"##힘":3294,"##따":3295,"##바":3296,"##확":3297,"##갑":3298,"##칭":3299,"##댔":3300,"##케":3301,"##계":3302,"##뭔":3303,"##룽":3304,"##조":3305,"##삼":3306,"##엔":3307,"##산":3308,"##밋":3309,"##연":3310,"##린":3311,"##ㄴ":3312,"##곸":3313,"##멀":3314,"##쩡":3315,"##살":3316,"##받":3317,"##천":3318,"##밥":3319,"##편":3320,"##☆":3321,"##긴":3322,"##쫌":3323,"##슬":3324,"##픈":3325,"##땡":3326,"##ㅏ":3327,"##닭":3328,"##종":3329,"##워":3330,"##백":3331,"##겤":3332,"##ㅅ":3333,"##옹":3334,"##속":3335,"##력":3336,"##림":3337,"##반":3338,"##쓴":3339,"##뻑":3340,"##넹":3341,"##타":3342,"##롱":3343,"##관":3344,"##추":3345,"##테":3346,"##품":3347,"##쟈":3348,"##몽":3349,"##꾸":3350,"##놔":3351,"##V":3352,"##a":3353,"##l":3354,"##ㅑ":3355,"##4":3356,"##넜":3357,"##봉":3358,"##얄":3359,"##엄":3360,"##적":3361,"##블":3362,"##된":3363,"##ㅂ":3364,"##놨":3365,"##뎅":3366,"##됨":3367,"##9":3368,"##립":3369,"##께":3370,"##r":3371,"##퍼":3372,"##항":3373,"##합":3374,"##슷":3375,"##알":3376,"##족":3377,"##행":3378,"##매":3379,"##짱":3380,"##므":3381,"##잡":3382,"##솔":3383,"##갈":3384,"##개":3385,"##t":3386,"##쁠":3387,"##냈":3388,"##ㅛ":3389,"##양":3390,"##z":3391,"##y":3392,"##른":3393,"##염":3394,"##람":3395,"##참":3396,"##퇴":3397,"##권":3398,"##땜":3399,"##커":3400,"##느":3401,"##큼":3402,"##묜":3403,"##떻":3404,"##텐":3405,"##노":3406,"##룰":3407,"##뷴":3408,"##번":3409,"##째":3410,"##렸":3411,"##댜":3412,"##뇨":3413,"##딥":3414,"##빡":3415,"##례":3416,"##끌":3417,"##출":3418,"##흠":3419,"##복":3420,"##큰":3421,"##욤":3422,"##웃":3423,"##김":3424,"##몬":3425,"##환":3426,"##몸":3427,"##꼽":3428,"##머":3429,"##ㅊ":3430,"##발":3431,"##규":3432,"##봄":3433,"##량":3434,"##맛":3435,"##탱":3436,"##년":3437,"##갠":3438,"##체":3439,"##톡":3440,"##변":3441,"##텔":3442,"##콩":3443,"##d":3444,"##w":3445,"##떨":3446,"##얹":3447,"##온":3448,"##돼":3449,"##괜":3450,"##ㅁ":3451,"##팀":3452,"##월":3453,"##메":3454,"##뛰":3455,"##A":3456,"##I":3457,"##검":3458,"##걸":3459,"##패":3460,"##턴":3461,"##순":3462,"##땅":3463,"##헤":3464,"##활":3465,"##왠":3466,"##걱":3467,"##얼":3468,"##낼":3469,"##섯":3470,"##딴":3471,"##론":3472,"##배":3473,"##쩌":3474,"##햐":3475,"##곡":3476,"##굳":3477,"##옼":3478,"##돌":3479,"##웍":3480,"##본":3481,"##뎈":3482,"##흥":3483,"##쪽":3484,"##낸":3485,"##탄":3486,"##황":3487,"##호":3488,"##줘":3489,"##콘":3490,"##웠":3491,"##녀":3492,"##넌":3493,"##햇":3494,"##값":3495,"##닥":3496,"##향":3497,"##빈":3498,"##식":3499,"##얌":3500,"##팅":3501,"##춰":3502,"##겁":3503,"##벌":3504,"##숨":3505,"##브":3506,"##밀":3507,"##았":3508,"##듀":3509,"##즈":3510,"##쁜":3511,"##겅":3512,"##좀":3513,"##쥬":3514,"##뚝":3515,"##랐":3516,"##쉴":3517,"##쫑":3518,"##맞":3519,"##듣":3520,"##빴":3521,"##칼":3522,"##껭":3523,"##짝":3524,"##놀":3525,"##쌈":3526,"##쟤":3527,"##맙":3528,"##같":3529,"##쯤":3530,"##없":3531,"##축":3532,"##뜩":3533,"##레":3534,"##절":3535,"##등":3536,"##똑":3537,"##💦":3538,"##👅":3539,"##슴":3540,"##넘":3541,"##며":3542,"##힣":3543,"##열":3544,"##웤":3545,"##랜":3546,"##칠":3547,"##눙":3548,"##캣":3549,"##딸":3550,"##찰":3551,"##꼬":3552,"##굥":3553,"##슈":3554,"##긔":3555,"##삭":3556,"##셔":3557,"##뤄":3558,"##닼":3559,"##객":3560,"##렵":3561,"##쉐":3562,"##증":3563,"##웜":3564,"##빼":3565,"##액":3566,"##욜":3567,"##쁩":3568,"##철":3569,"##댘":3570,"##쓸":3571,"##럼":3572,"##털":3573,"##끝":3574,"##혹":3575,"##럴":3576,"##쩝":3577,"##낰":3578,"##뽂":3579,"##델":3580,"##링":3581,"##완":3582,"##얗":3583,"##처":3584,"##페":3585,"##둥":3586,"##픂":3587,"##돈":3588,"##좌":3589,"##책":3590,"##롷":3591,"##짴":3592,"##쌍":3593,"##햌":3594,"##웡":3595,"##쟝":3596,"##엇":3597,"##쩍":3598,"##뿐":3599,"##끔":3600,"##T":3601,"##L":3602,"##슨":3603,"##션":3604,"##겹":3605,"##츄":3606,"##렴":3607,"##뜯":3608,"##똥":3609,"##쟁":3610,"##채":3611,"##엘":3612,"##곱":3613,"##윰":3614,"##벚":3615,"##강":3616,"##롯":3617,"##뭘":3618,"##광":3619,"##땐":3620,"##짓":3621,"##싸":3622,"##균":3623,"##최":3624,"##즁":3625,"##씻":3626,"##ㅓ":3627,"##쿠":3628,"##박":3629,"##깎":3630,"##엑":3631,"##응":3632,"##핍":3633,"##겡":3634,"##E":3635,"##랄":3636,"##튜":3637,"##뇌":3638,"##육":3639,"##필":3640,"##작":3641,"##록":3642,"##앗":3643,"##롤":3644,"##굴":3645,"##옥":3646,"##홈":3647,"##둘":3648,"##찾":3649,"##뀌":3650,"##센":3651,"##뿜":3652,"##깐":3653,"##쌤":3654,"##깔":3655,"##몰":3656,"##닝":3657,"##엽":3658,"##떡":3659,"##톤":3660,"##7":3661,"##셈":3662,"##댈":3663,"##옆":3664,"##욱":3665,"##죽":3666,"##잼":3667,"##윤":3668,"##얔":3669,"##베":3670,"##핸":3671,"##폰":3672,"##렀":3673,"##🤔":3674,"##웨":3675,"##찡":3676,"##좆":3677,"##렬":3678,"##혼":3679,"##꼭":3680,"##덕":3681,"##램":3682,"##앱":3683,"##꿀":3684,"##짘":3685,"##곳":3686,"##엥":3687,"##칸":3688,"##P":3689,"##O":3690,"##S":3691,"##썼":3692,"##뜬":3693,"##득":3694,"##꽃":3695,"##먼":3696,"##쬬":3697,"##켜":3698,"##욬":3699,"##믄":3700,"##뇬":3701,"##긋":3702,"##맥":3703,"##술":3704,"##m":3705,"##꿔":3706,"##컷":3707,"##령":3708,"##ㅈ":3709,"##ㄲ":3710,"##랍":3711,"##떤":3712,"##랴":3713,"##쭉":3714,"##N":3715,"##랔":3716,"##맹":3717,"##답":3718,"##쏘":3719,"##궈":3720,"##헙":3721,"##뿔":3722,"##찝":3723,"##허":3724,"##턍":3725,"##홀":3726,"##잨":3727,"##쿨":3728,"##눠":3729,"##쉿":3730,"##푹":3731,"##빤":3732,"##굣":3733,"##뽑":3734,"##척":3735,"##엉":3736,"##담":3737,"##씹":3738,"##랬":3739,"##칙":3740,"##맴":3741,"##졸":3742,"##놈":3743,"##훈":3744,"##련":3745,"##쿸":3746,"##찐":3747,"##즌":3748,"##큐":3749,"##댄":3750,"##릿":3751,"##졍":3752,"##쩔":3753,"##섴":3754,"##좋":3755,"##꿈":3756,"##념":3757,"##맘":3758,"##팡":3759,"##눌":3760,"##층":3761,"##존":3762,"##폭":3763,"##맄":3764,"##찤":3765,"##셜":3766,"##몈":3767,"##깊":3768,"##쪼":3769,"##껄":3770,"##낮":3771,"##텅":3772,"##쎄":3773,"##익":3774,"##컨":3775,"##헣":3776,"##낀":3777,"##묻":3778,"##킨":3779,"##댱":3780,"##턱":3781,"##캐":3782,"##켓":3783,"##맠":3784,"##싫":3785,"##엌":3786,"##압":3787,"##쿤":3788,"##외":3789,"##태":3790,"##F":3791,"##G":3792,"##럿":3793,"##릭":3794,"##💃":3795,"##풋":3796,"##암":3797,"##벼":3798,"##D":3799,"##쳤":3800,"##엠":3801,"##냨":3802,"##녕":3803,"##십":3804,"##숙":3805,"##찬":3806,"##송":3807,"##셋":3808,"##률":3809,"##겎":3810,"##랖":3811,"##팔":3812,"##낄":3813,"##손":3814,"##꾼":3815,"##껨":3816,"##왴":3817,"##널":3818,"##쩐":3819,"##펙":3820,"##랱":3821,"##않":3822,"##팬":3823,"##댁":3824,"##뇸":3825,"##헐":3826,"##앜":3827,"##홧":3828,"##벅":3829,"##틈":3830,"##캬":3831,"##욥":3832,"##류":3833,"##깨":3834,"##쨌":3835,"##총":3836,"##휘":3837,"##삐":3838,"##렁":3839,"##풀":3840,"##혁":3841,"##ㅄ":3842,"##녁":3843,"##헌":3844,"##렌":3845,"##폼":3846,"##묘":3847,"##뼈":3848,"##탔":3849,"##퀴":3850,"##됐":3851,"##챙":3852,"##랰":3853,"##딕":3854,"##ㅔ":3855,"##륙":3856,"##W":3857,"##덜":3858,"##율":3859,"##뜰":3860,"##섭":3861,"##ㅕ":3862,"##잊":3863,"##첩":3864,"##롭":3865,"##j":3866,"##깅":3867,"##짠":3868,"##숴":3869,"##궜":3870,"##겄":3871,"##뉸":3872,"##흔":3873,"##뫄":3874,"##깃":3875,"##츠":3876,"##죙":3877,"##즤":3878,"##툰":3879,"##싹":3880,"##폴":3881,"##텍":3882,"##궄":3883,"##악":3884,"##뻐":3885,"##춘":3886,"##젤":3887,"##폐":3888,"##쇄":3889,"##극":3890,"##녜":3891,"##끊":3892,"##쮸":3893,"##쇼":3894,"##숍":3895,"##뱅":3896,"##쌀":3897,"##젝":3898,"##홍":3899,"##땽":3900,"##싶":3901,"##획":3902,"##젯":3903,"##잌":3904,"##봅":3905,"##뢔":3906,"##ㅃ":3907,"##갖":3908,"##곧":3909,"##샘":3910,"##촌":3911,"##꼈":3912,"##빵":3913,"##윽":3914,"##밍":3915,"##훗":3916,"##뜸":3917,"##썬":3918,"##읏":3919,"##잇":3920,"##탓":3921,"##캔":3922,"##씀":3923,"##옷":3924,"##륳":3925,"##곰":3926,"##븐":3927,"##옸":3928,"##H":3929,"##햤":3930,"##묵":3931,"##뻤":3932,"##칰":3933,"##뜌":3934,"##힐":3935,"##샄":3936,"##줭":3937,"##B":3938,"##C":3939,"##탐":3940,"##샷":3941,"##씯":3942,"##욘":3943,"##걌":3944,"##넠":3945,"##닫":3946,"##뷰":3947,"##씩":3948,"##닐":3949,"##칩":3950,"##옄":3951,"##궐":3952,"##췻":3953,"##푼":3954,"##챠":3955,"##꺄":3956,"##둣":3957,"##납":3958,"##냘":3959,"##곀":3960,"##ㅒ":3961,"##쒀":3962,"##뇽":3963,"##킵":3964,"##샾":3965,"##걔":3966,"##샹":3967,"##팝":3968,"##💓":3969,"##💖":3970,"##측":3971,"##햄":3972,"##엨":3973,"##h":3974,"##밴":3975,"##앨":3976,"##벨":3977,"##핑":3978,"##찼":3979,"##왕":3980,"##빛":3981,"##껟":3982,"##앉":3983,"##틴":3984,"##k":3985,"##렉":3986,"##쑤":3987,"##잔":3988,"##훨":3989,"##픽":3990,"##댐":3991,"##횡":3992,"##쎀":3993,"##럅":3994,"##밌":3995,"##꼴":3996,"##춟":3997,"##꿉":3998,"##팍":3999,"##렜":4000,"##짖":4001,"##챱":4002,"##ㅙ":4003,"##쿡":4004,"##뎝":4005,"##힠":4006,"##젇":4007,"##쉑":4008,"##왤":4009,"##됴":4010,"##찯":4011,"##읗":4012,"##맑":4013,"##샤":4014,"##샵":4015,"##왓":4016,"##핫":4017,"##뿡":4018,"##닉":4019,"##견":4020,"##뚤":4021,"##뷔":4022,"##냉":4023,"##뒤":4024,"##충":4025,"##겜":4026,"##떴":4027,"##쨔":4028,"##쎈":4029,"##●":4030,"##숲":4031,"##룩":4032,"##×":4033,"##댓":4034,"##떵":4035,"##룹":4036,"##떳":4037,"##팟":4038,"##Q":4039,"##U":4040,"##녔":4041,"##쨜":4042,"##떄":4043,"##릇":4044,"##쌩":4045,"##틱":4046,"##첨":4047,"##붙":4048,"##륜":4049,"##홉":4050,"##쨩":4051,"##짰":4052,"##갸":4053,"##ㅆ":4054,"##렼":4055,"##훌":4056,"##륭":4057,"##딨":4058,"##칵":4059,"##쉽":4060,"##흰":4061,"##뢰":4062,"##낫":4063,"##됧":4064,"##륨":4065,"##죄":4066,"##댵":4067,"##깜":4068,"##릉":4069,"##졐":4070,"##짬":4071,"##뽕":4072,"##멘":4073,"##몇":4074,"##늉":4075,"##붕":4076,"##봬":4077,"##깥":4078,"##툴":4079,"##볍":4080,"##캤":4081,"##뉵":4082,"##욨":4083,"##딪":4084,"##웟":4085,"##ㅢ":4086,"##닛":4087,"##븜":4088,"##젬":4089,"##똨":4090,"##짤":4091,"##싣":4092,"##늠":4093,"##깝":4094,"##깽":4095,"##깤":4096,"##굵":4097,"##왘":4098,"##풍":4099,"##픔":4100,"##효":4101,"##뒀":4102,"##쉈":4103,"##X":4104,"##퍙":4105,"##틸":4106,"##렦":4107,"##뎬":4108,"##😭":4109,"##랫":4110,"##얍":4111,"##q":4112,"##졀":4113,"##꺵":4114,"##뮤":4115,"##짹":4116,"##텨":4117,"##룬":4118,"##븀":4119,"##쁨":4120,"##둑":4121,"##혜":4122,"##웬":4123,"##쭈":4124,"##팠":4125,"##빌":4126,"##꼳":4127,"##M":4128,"##갷":4129,"##욕":4130,"##뿨":4131,"##밑":4132,"##앋":4133,"##킷":4134,"##딜":4135,"##뺌":4136,"##쪙":4137,"##옛":4138,"##혔":4139,"##좤":4140,"##줏":4141,"##됑":4142,"##젛":4143,"##냫":4144,"##싱":4145,"##촬":4146,"##늬":4147,"##튀":4148,"##탁":4149,"##펀":4150,"##돟":4151,"##팦":4152,"##셀":4153,"##걷":4154,"##핟":4155,"##첫":4156,"##핰":4157,"##씾":4158,"##툥":4159,"##J":4160,"##멤":4161,"##봣":4162,"##듕":4163,"##젠":4164,"##셥":4165,"##듬":4166,"##펑":4167,"##갹":4168,"##딘":4169,"##앀":4170,"##넥":4171,"##팰":4172,"##팩":4173,"##냅":4174,"##궉":4175,"##꽁":4176,"##헹":4177,"##셬":4178,"##농":4179,"##🔥":4180,"##엮":4181,"##퀘":4182,"##줗":4183,"##겈":4184,"##넛":4185,"##탘":4186,"##꽤":4187,"##뭣":4188,"##싼":4189,"##넣":4190,"##찜":4191,"##싷":4192,"##챈":4193,"##랗":4194,"##흑":4195,"##랙":4196,"##잭":4197,"##닦":4198,"##R":4199,"##짺":4200,"##듴":4201,"##헬":4202,"##갘":4203,"##읽":4204,"##갤":4205,"##럭":4206,"##😔":4207,"##춤":4208,"##몀":4209,"##봥":4210,"##닿":4211,"##귘":4212,"##팁":4213,"##슺":4214,"##엎":4215,"##닙":4216,"##핶":4217,"##벡":4218,"##싯":4219,"##꿍":4220,"##믿":4221,"##긐":4222,"##엊":4223,"##벗":4224,"##뜨":4225,"##찆":4226,"##쯰":4227,"##돋":4228,"##융":4229,"##슝":4230,"##👀":4231,"##숩":4232,"##섹":4233,"##떼":4234,"##갰":4235,"##럈":4236,"##덷":4237,"##닁":4238,"##몉":4239,"##겸":4240,"##릳":4241,"##즉":4242,"##렙":4243,"##쒸":4244,"##▶":4245,"##꽉":4246,"##핀":4247,"##씬":4248,"##죻":4249,"##샌":4250,"##갬":4251,"##솥":4252,"##넷":4253,"##즒":4254,"##긲":4255,"##섺":4256,"##욖":4257,"##냬":4258,"##궆":4259,"##낳":4260,"##낙":4261,"##빅":4262,"##퀄":4263,"##뀐":4264,"##욯":4265,"##칫":4266,"##뒝":4267,"##쏴":4268,"##ㄸ":4269,"##긍":4270,"##깰":4271,"##꼼":4272,"##겟":4273,"##K":4274,"##겐":4275,"##톱":4276,"##촉":4277,"##낔":4278,"##둗":4279,"##찹":4280,"##떽":4281,"##앤":4282,"##눅":4283,"##됔":4284,"##륵":4285,"##톨":4286,"##춌":4287,"##롴":4288,"##둠":4289,"##셉":4290,"##핥":4291,"##퀵":4292,"##빱":4293,"##멎":4294,"##햏":4295,"##댙":4296,"##넝":4297,"##큘":4298,"##귝":4299,"##꾀":4300,"##헝":4301,"##솤":4302,"##덱":4303,"##솓":4304,"##휸":4305,"##샐":4306,"##먀":4307,"##횟":4308,"##텀":4309,"##흙":4310,"##됩":4311,"##Y":4312,"##샛":4313,"##혐":4314,"##꿰":4315,"##띵":4316,"##솜":4317,"##슙":4318,"##ㅝ":4319,"##핏":4320,"##짧":4321,"##꺅":4322,"##빙":4323,"##쯜":4324,"##뉴":4325,"##롸":4326,"##앧":4327,"##컥":4328,"##뮬":4329,"##톰":4330,"##봒":4331,"##왼":4332,"##잃":4333,"##략":4334,"##삽":4335,"##잦":4336,"##뿅":4337,"##쇠":4338,"##걐":4339,"##뱍":4340,"##묭":4341,"##컵":4342,"##룸":4343,"##딬":4344,"##윗":4345,"##겉":4346,"##뭉":4347,"##짛":4348,"##춍":4349,"##셤":4350,"##틐":4351,"##뉘":4352,"##줰":4353,"##😂":4354,"##죵":4355,"##킿":4356,"##늙":4357,"##🙊":4358,"##빗":4359,"##높":4360,"##늨":4361,"##뭇":4362,"##쥐":4363,"##맷":4364,"##젓":4365,"##뤳":4366,"##읍":4367,"##쭛":4368,"##펭":4369,"##얽":4370,"##듭":4371,"##♀":4372,"##️":4373,"##핵":4374,"##좁":4375,"##믹":4376,"##잩":4377,"##섬":4378,"##숑":4379,"##듈":4380,"##컬":4381,"##헿":4382,"##웁":4383,"##쟠":4384,"##훠":4385,"##솨":4386,"##돔":4387,"##깈":4388,"##훅":4389,"##쏭":4390,"##📝":4391,"##찻":4392,"##훟":4393,"##얜":4394,"##펜":4395,"##틋":4396,"##챴":4397,"##볶":4398,"##깁":4399,"##뎐":4400,"##괄":4401,"##옮":4402,"##촐":4403,"##룜":4404,"##❣":4405,"##닞":4406,"##륑":4407,"##ጿ":4408,"##껑":4409,"##뤠":4410,"##껐":4411,"##싈":4412,"##랏":4413,"##갱":4414,"##콧":4415,"##옿":4416,"##킥":4417,"##흡":4418,"##땨":4419,"##렷":4420,"##쟀":4421,"##씸":4422,"##몫":4423,"##멸":4424,"##걀":4425,"##봨":4426,"##녘":4427,"##쪘":4428,"##♥":4429,"##뻥":4430,"##뤘":4431,"##훔":4432,"##꼰":4433,"##뺏":4434,"##썸":4435,"##뱌":4436,"##쌰":4437,"##룠":4438,"##켈":4439,"##뻗":4440,"##췄":4441,"##쏙":4442,"##탹":4443,"##퍽":4444,"##흘":4445,"##즐":4446,"##땠":4447,"##짙":4448,"##껰":4449,"##뒈":4450,"##겪":4451,"##쭘":4452,"##왁":4453,"##쌋":4454,"##뀨":4455,"##쥼":4456,"##큭":4457,"##탸":4458,"##쎙":4459,"##곹":4460,"##껍":4461,"##캉":4462,"##쯧":4463,"##촵":4464,"##헉":4465,"##튕":4466,"##궤":4467,"##윳":4468,"##둔":4469,"##녓":4470,"##넴":4471,"##펴":4472,"##덥":4473,"##챀":4474,"##홤":4475,"##늄":4476,"##챌":4477,"##얐":4478,"##댇":4479,"##얇":4480,"##켔":4481,"##숏":4482,"##젹":4483,"##앎":4484,"##읶":4485,"##밉":4486,"##얀":4487,"##옭":4488,"##⠀":4489,"##붓":4490,"##벳":4491,"##헠":4492,"##홓":4493,"##뎄":4494,"##뀜":4495,"##갇":4496,"##렐":4497,"##뎀":4498,"##붘":4499,"##햊":4500,"##킴":4501,"##ㄳ":4502,"##엿":4503,"##윙":4504,"##ㅉ":4505,"##싰":4506,"##삿":4507,"##덤":4508,"##맬":4509,"##뉠":4510,"##렛":4511,"##걘":4512,"##텼":4513,"##쥴":4514,"##뎃":4515,"##닷":4516,"##탯":4517,"##헥":4518,"##죤":4519,"##닮":4520,"##앓":4521,"##맀":4522,"##홋":4523,"##쿼":4524,"##휙":4525,"##섰":4526,"##죰":4527,"##줍":4528,"##캄":4529,"##샸":4530,"##킄":4531,"##쁀":4532,"##쉘":4533,"##쥭":4534,"##❤":4535,"##쬐":4536,"##펍":4537,"##숫":4538,"##콜":4539,"##멈":4540,"##쐉":4541,"##펐":4542,"##돨":4543,"##쁰":4544,"##롣":4545,"##옶":4546,"##😱":4547,"##웧":4548,"##눔":4549,"##렝":4550,"##졓":4551,"##벤":4552,"##앟":4553,"##쨋":4554,"##팽":4555,"##뺄":4556,"##땀":4557,"##쀼":4558,"##쨨":4559,"##씰":4560,"##눜":4561,"##댑":4562,"##Z":4563,"##쫓":4564,"##쉰":4565,"##싑":4566,"##뗭":4567,"##섞":4568,"##뉰":4569,"##흗":4570,"##줫":4571,"##👌":4572,"##🤝":4573,"##☀":4574,"##🌈":4575,"##🌀":4576,"##엣":4577,"##꿨":4578,"##듦":4579,"##긁":4580,"##킼":4581,"##셍":4582,"##놬":4583,"##귤":4584,"##넬":4585,"##덬":4586,"##넫":4587,"##뚠":4588,"##🎉":4589,"##냑":4590,"##킈":4591,"##씌":4592,"##뜛":4593,"##랚":4594,"##밸":4595,"##뱉":4596,"##텡":4597,"##쫘":4598,"##밟":4599,"##녹":4600,"##뀸":4601,"##냠":4602,"##뚁":4603,"##젴":4604,"##밬":4605,"##쟌":4606,"##뺭":4607,"##굶":4608,"##텝":4609,"##댝":4610,"##📖":4611,"##펔":4612,"##넓":4613,"##옵":4614,"##캴":4615,"##껏":4616,"##귄":4617,"##놉":4618,"##밝":4619,"##묶":4620,"##쿵":4621,"##㎞":4622,"##햑":4623,"##냔":4624,"##잏":4625,"##뤔":4626,"##튭":4627,"##팃":4628,"##깉":4629,"##펫":4630,"##얶":4631,"##맵":4632,"##톄":4633,"##뱃":4634,"##밈":4635,"##탑":4636,"##샀":4637,"##헑":4638,"##콤":4639,"##랂":4640,"##썽":4641,"##숀":4642,"##슼":4643,"##짯":4644,"##탭":4645,"##됌":4646,"##젱":4647,"##샬":4648,"##혈":4649,"##쿘":4650,"##샴":4651,"##밗":4652,"##댠":4653,"##왂":4654,"##깍":4655,"##썰":4656,"##쪜":4657,"##쮹":4658,"##츨":4659,"##롥":4660,"##❓":4661,"##빔":4662,"##렠":4663,"##쿄":4664,"##랕":4665,"##숭":4666,"##퉁":4667,"##앆":4668,"##묰":4669,"##깟":4670,"##읎":4671,"##놰":4672,"##힙":4673,"##뱔":4674,"##쎔":4675,"##꽥":4676,"##덟":4677,"##쟨":4678,"##찔":4679,"##맺":4680,"##뽈":4681,"##겯":4682,"##횤":4683,"##멜":4684,"##앰":4685,"##뎁":4686,"##옫":4687,"##먿":4688,"##쉣":4689,"##넉":4690,"##놋":4691,"##띰":4692,"##삣":4693,"##굿":4694,"##귈":4695,"##흨":4696,"##쫍":4697,"##뫜":4698,"##챗":4699,"##봇":4700,"##뎉":4701,"##쨍":4702,"##벜":4703,"##슉":4704,"##돗":4705,"##폅":4706,"##젼":4707,"##웋":4708,"##뽁":4709,"##둬":4710,"##꺙":4711,"##뚫":4712,"##픃":4713,"##렘":4714,"##🖤":4715,"##먕":4716,"##밭":4717,"##릌":4718,"##놧":4719,"##딤":4720,"##펌":4721,"##믓":4722,"##캘":4723,"##팸":4724,"##늗":4725,"##ㅘ":4726,"##륽":4727,"##혓":4728,"##똔":4729,"##멧":4730,"##댴":4731,"##몄":4732,"##쉭":4733,"##냌":4734,"##깆":4735,"##먘":4736,"##⑤":4737,"##쿅":4738,"##뭌":4739,"##잫":4740,"##릎":4741,"##녿":4742,"##퀭":4743,"##툼":4744,"##슦":4745,"##콱":4746,"##썩":4747,"##쯔":4748,"##짢":4749,"##얻":4750,"##썹":4751,"##쉅":4752,"##덮":4753,"##젊":4754,"##랶":4755,"##맣":4756,"##ㅖ":4757,"##슥":4758,"##낑":4759,"##▒":4760,"##뤼":4761,"##붸":4762,"##긱":4763,"##튿":4764,"##읭":4765,"##짇":4766,"##븎":4767,"##꺽":4768,"##눕":4769,"##뒷":4770,"##잳":4771,"##땟":4772,"##꽈":4773,"##쌓":4774,"##팤":4775,"##앾":4776,"##핡":4777,"##캡":4778,"##탠":4779,"##똘":4780,"##쩄":4781,"##뷸":4782,"##튬":4783,"##릅":4784,"##샅":4785,"##홯":4786,"##츤":4787,"##뚱":4788,"##헛":4789,"##썅":4790,"##먐":4791,"##솟":4792,"##굨":4793,"##앚":4794,"##긎":4795,"##💕":4796,"##웉":4797,"##첵":4798,"##뎡":4799,"##얃":4800,"##뵈":4801,"##덧":4802,"##봌":4803,"##싳":4804,"##쥥":4805,"##맼":4806,"##랸":4807,"##÷":4808,"##쏠":4809,"##뭄":4810,"##툭":4811,"##맡":4812,"##딯":4813,"##걋":4814,"##켤":4815,"##👋":4816,"##뽜":4817,"##ꉂ":4818,"##잎":4819,"##웰":4820,"##챘":4821,"##홰":4822,"##ㄻ":4823,"##늑":4824,"##샜":4825,"##옇":4826,"##뀤":4827,"##땓":4828,"##뚀":4829,"##핬":4830,"##휼":4831,"##🎙":4832,"##📣":4833,"##덯":4834,"##렄":4835,"##쩜":4836,"##댤":4837,"##텤":4838,"##쌌":4839,"##💟":4840,"##낯":4841,"##듷":4842,"##팣":4843,"##볕":4844,"##볏":4845,"##귿":4846,"##삑":4847,"##뺑":4848,"##ﾉ":4849,"##┻":4850,"##┳":4851,"##탬":4852,"##벙":4853,"##댷":4854,"##퓰":4855,"##쉗":4856,"##앍":4857,"##㎡":4858,"##빚":4859,"##숟":4860,"##멱":4861,"##톼":4862,"##엫":4863,"##쥘":4864,"##픅":4865,"##웈":4866,"##뤴":4867,"##쳡":4868,"##뒵":4869,"##셧":4870,"##딧":4871,"##웎":4872,"##귭":4873,"##뗙":4874,"##✔":4875,"##괘":4876,"##😵":4877,"##왈":4878,"##춥":4879,"##및":4880,"##꼐":4881,"##👿":4882,"##쯈":4883,"##탤":4884,"##쌉":4885,"##튤":4886,"##샊":4887,"##캨":4888,"##쥰":4889,"##깬":4890,"##닪":4891,"##빧":4892,"##앴":4893,"##뒹":4894,"##떸":4895,"##옂":4896,"##뫵":4897,"##뀔":4898,"##뀬":4899,"##겔":4900,"##훼":4901,"##넋":4902,"##넽":4903,"##뗐":4904,"##듄":4905,"##쵸":4906,"##켘":4907,"##팥":4908,"##탆":4909,"##귴":4910,"##띄":4911,"##폈":4912,"##뻡":4913,"##쑴":4914,"##쒕":4915,"##퍄":4916,"##슐":4917,"##볔":4918,"##잰":4919,"##귐":4920,"##듐":4921,"##햘":4922,"##뙈":4923,"##괔":4924,"##뙤":4925,"##잗":4926,"##뼛":4927,"##꿇":4928,"##뺴":4929,"##멕":4930,"##싴":4931,"##넄":4932,"##퉈":4933,"##웩":4934,"##멬":4935,"##꿎":4936,"##휭":4937,"##셌":4938,"##볻":4939,"##잀":4940,"##쨰":4941,"##낚":4942,"##햔":4943,"##😥":4944,"##갚":4945,"##쳘":4946,"##냡":4947,"##펠":4948,"##땤":4949,"##쳨":4950,"##҉":4951,"##냤":4952,"##껳":4953,"##뱡":4954,"##🙆":4955,"##😘":4956,"##곽":4957,"##눴":4958,"##퀸":4959,"##뮨":4960,"##귣":4961,"##♧":4962,"##돾":4963,"##읋":4964,"##쮲":4965,"##씽":4966,"##쎁":4967,"##낡":4968,"##쫃":4969,"##왛":4970,"##퍜":4971,"##샏":4972,"##😚":4973,"##밪":4974,"##멩":4975,"##셖":4976,"##쭤":4977,"##엾":4978,"##졋":4979,"##붐":4980,"##헴":4981,"##럄":4982,"##깼":4983,"##꽝":4984,"##넵":4985,"##흉":4986,"##맃":4987,"##땃":4988,"##빜":4989,"##쿰":4990,"##냇":4991,"##돠":4992,"##땳":4993,"##섣":4994,"##옽":4995,"##퉝":4996,"##샼":4997,"##쳥":4998,"##낟":4999,"##븍":5000,"##갗":5001,"##젖":5002,"##늰":5003,"##첰":5004,"##뛴":5005,"##뽚":5006,"##쟜":5007,"##빸":5008,"##흩":5009,"##큨":5010,"##곬":5011,"##💯":5012,"##🌡":5013,"##🌝":5014,"##🌞":5015,"##빽":5016,"##땩":5017,"##갉":5018,"##햬":5019,"##믈":5020,"##깠":5021,"##퍈":5022,"##푀":5023,"##◀":5024,"##윔":5025,"##칱":5026,"##꺘":5027,"##죸":5028,"##픙":5029,"##띨":5030,"##뵙":5031,"##틔":5032,"##챡":5033,"##앻":5034,"##삘":5035,"##젭":5036,"##챂":5037,"##줙":5038,"##햫":5039,"##퍞":5040,"##푠":5041,"##앖":5042,"##깋":5043,"##엗":5044,"##👯":5045,"##욌":5046,"##럌":5047,"##똫":5048,"##홥":5049,"##텈":5050,"##귱":5051,"##웸":5052,"##훙":5053,"##굩":5054,"##끓":5055,"##읻":5056,"##햅":5057,"##룻":5058,"##촘":5059,"##륩":5060,"##읰":5061,"##쓱":5062,"##뜀":5063,"##욷":5064,"##헷":5065,"##쪅":5066,"##뤵":5067,"##곁":5068,"##뮹":5069,"##띾":5070,"##텄":5071,"##뭠":5072,"##흎":5073,"##쐬":5074,"##옳":5075,"##빕":5076,"##꼿":5077,"##맿":5078,"##쎠":5079,"##쳣":5080,"##롰":5081,"##⚠":5082,"##눗":5083,"##컫":5084,"##펃":5085,"##😎":5086,"##텁":5087,"##넺":5088,"##쓔":5089,"##숰":5090,"##쓩":5091,"##쟊":5092,"##큽":5093,"##곪":5094,"##땄":5095,"##맏":5096,"##꾹":5097,"##❄":5098,"##퓬":5099,"##힉":5100,"##햨":5101,"##쳇":5102,"##돜":5103,"##얏":5104,"##햒":5105,"##댣":5106,"##냣":5107,"##뻘":5108,"##줚":5109,"##첳":5110,"##댂":5111,"##덛":5112,"##잣":5113,"##갼":5114,"##쳄":5115,"##쳌":5116,"##걉":5117,"##퐁":5118,"##휽":5119,"##긓":5120,"##벵":5121,"##앸":5122,"##삶":5123,"##왇":5124,"##핼":5125,"##줅":5126,"##뵤":5127,"##겥":5128,"##🚨":5129,"##📢":5130,"##컹":5131,"##→":5132,"##톳":5133,"##쬼":5134,"##콕":5135,"##힄":5136,"##닣":5137,"##굑":5138,"##🥁":5139,"##🎧":5140,"##낗":5141,"##엏":5142,"##쟹":5143,"##읃":5144,"##ㄺ":5145,"##럳":5146,"##콸":5147,"##켕":5148,"##쪔":5149,"##🏢":5150,"##뾱":5151,"##똣":5152,"##늫":5153,"##푝":5154,"##멂":5155,"##돰":5156,"##댰":5157,"##퐄":5158,"##첸":5159,"##쭁":5160,"##껗":5161,"##곶":5162,"##혘":5163,"##쇽":5164,"##읓":5165,"##겻":5166,"##왝":5167,"##뛔":5168,"##뎠":5169,"##힎":5170,"##핻":5171,"##랳":5172,"##씁":5173,"##햠":5174,"##①":5175,"##웄":5176,"##뿁":5177,"##헨":5178,"##혿":5179,"##휠":5180,"##땍":5181,"##븉":5182,"##곗":5183,"##🥰":5184,"##쿜":5185,"##콬":5186,"##뤈":5187,"##튁":5188,"##²":5189,"##⍤":5190,"##⃝":5191,"##땋":5192,"##👈":5193,"##똠":5194,"##👉":5195,"##🤸":5196,"##됏":5197,"##긌":5198,"##댯":5199,"##🥺":5200,"##묨":5201,"##낵":5202,"##겓":5203,"##죴":5204,"##쩧":5205,"##몆":5206,"##폄":5207,"##쌐":5208,"##꿧":5209,"##쾅":5210,"##밷":5211,"##쟡":5212,"##쀄":5213,"##겍":5214,"##퓽":5215,"##먔":5216,"##🦈":5217,"##🌊":5218,"##💨":5219,"##🍃":5220,"##쏜":5221,"##샥":5222,"##죈":5223,"##끙":5224,"##봏":5225,"##쳧":5226,"##쮜":5227,"##곈":5228,"##젺":5229,"##쒯":5230,"##맸":5231,"##챨":5232,"##챸":5233,"##펼":5234,"##긹":5235,"##˙":5236,"##꿋":5237,"##쫙":5238,"##덞":5239,"##즛":5240,"##넨":5241,"##댗":5242,"##괏":5243,"##캥":5244,"##숗":5245,"##뱀":5246,"##첼":5247,"##벆":5248,"##뿍":5249,"##낱":5250,"##잜":5251,"##좡":5252,"##꾤":5253,"##셓":5254,"##옦":5255,"##띡":5256,"##넏":5257,"##🤞":5258,"##🤬":5259,"##뎤":5260,"##괭":5261,"##♂":5262,"##옅":5263,"##젵":5264,"##퐀":5265,"##젙":5266,"##컸":5267,"##윸":5268,"##갯":5269,"##↘":5270,"##눼":5271,"##🔊":5272,"##🛎":5273,"##🎤":5274,"##뀰":5275,"##넊":5276,"##섲":5277,"##귬":5278,"##슘":5279,"##텽":5280,"##놐":5281,"##ㅚ":5282,"##핮":5283,"##큑":5284,"##켐":5285,"##잍":5286,"##틍":5287,"##훍":5288,"##웻":5289,"##싿":5290,"##ㄵ":5291,"##깢":5292,"##☝":5293,"##흣":5294,"##됄":5295,"##쟐":5296,"##★":5297,"##룐":5298,"##뛸":5299,"##쬽":5300,"##턷":5301,"##🎵":5302,"##📌":5303,"##끽":5304,"##쨬":5305,"##롹":5306,"##칀":5307,"##💗":5308,"##💝":5309,"##💞":5310,"##됸":5311,"##윧":5312,"##굔":5313,"##튱":5314,"##췌":5315,"##밧":5316,"##쭐":5317,"##펄":5318,"##듢":5319,"##짼":5320,"##츌":5321,"##땁":5322,"##뵁":5323,"##듨":5324,"##쁳":5325,"##둉":5326,"##😣":5327,"##팼":5328,"##닺":5329,"##홐":5330,"##랠":5331,"##툑":5332,"##겧":5333,"##뾰":5334,"##숄":5335,"##젘":5336,"##뚸":5337,"##봈":5338,"##걑":5339,"##녈":5340,"##훵":5341,"##뤌":5342,"##깧":5343,"##쿻":5344,"##좇":5345,"##캌":5346,"##긷":5347,"##뚕":5348,"##갛":5349,"##퓸":5350,"##뉼":5351,"##붖":5352,"##ㄽ":5353,"##힛":5354,"##킌":5355,"##쨕":5356,"##헫":5357,"##곻":5358,"##삥":5359,"##읒":5360,"##쫀":5361,"##괨":5362,"##앝":5363,"##퉤":5364,"##땈":5365,"##픜":5366,"##섀":5367,"##헞":5368,"##뭥":5369,"##뉑":5370,"##챵":5371,"##랟":5372,"##📚":5373,"##🤮":5374,"##뺀":5375,"##쎰":5376,"##놩":5377,"##읜":5378,"##좃":5379,"##홬":5380,"##▽":5381,"##뤃":5382,"##룎":5383,"##횽":5384,"##츙":5385,"##뺐":5386,"##얖":5387,"##ኈ":5388,"##꾜":5389,"##쌱":5390,"##늧":5391,"##✍":5392,"##핌":5393,"##꿩":5394,"##홱":5395,"##챺":5396,"##밐":5397,"##짚":5398,"##흫":5399,"##갂":5400,"##츈":5401,"##옝":5402,"##롕":5403,"##킁":5404,"##띁":5405,"##밨":5406,"##덌":5407,"##렂":5408,"##숯":5409,"##룟":5410,"##춛":5411,"##큳":5412,"##줟":5413,"##셐":5414,"##샡":5415,"##냿":5416,"##윅":5417,"##룯":5418,"##랒":5419,"##씅":5420,"##샇":5421,"##끕":5422,"##ᗜ":5423,"##ᵔ":5424,"##븃":5425,"##횄":5426,"##🤷":5427,"##볽":5428,"##헀":5429,"##벟":5430,"##믐":5431,"##겋":5432,"##졈":5433,"##됮":5434,"##뮴":5435,"##톧":5436,"##륄":5437,"##뵨":5438,"##💰":5439,"##ㅟ":5440,"##웢":5441,"##줔":5442,"##믾":5443,"##쯉":5444,"##낶":5445,"##🙃":5446,"##벋":5447,"##붇":5448,"##릏":5449,"##쎃":5450,"##됟":5451,"##땝":5452,"##🔞":5453,"##ㅞ":5454,"##켛":5455,"##녇":5456,"##껜":5457,"##푶":5458,"##뽐":5459,"##뀓":5460,"##딖":5461,"##줜":5462,"##콴":5463,"##뽇":5464,"##랃":5465,"##띀":5466,"##젍":5467,"##앐":5468,"##됗":5469,"##릥":5470,"##뉍":5471,"##닏":5472,"##솁":5473,"##갴":5474,"##퍀":5475,"##슭":5476,"##벱":5477,"##껓":5478,"##럾":5479,"##듓":5480,"##넀":5481,"##맂":5482,"##캍":5483,"##헏":5484,"##싁":5485,"##ㅋㅋ":5486,"##ㅋㅋㅋㅋ":5487,"##ㅋㅋㅋㅋㅋㅋㅋㅋ":5488,"##ㅋㅋㅋ":5489,"ㅋㅋㅋㅋ":5490,"##ㅠㅠ":5491,"ㅋㅋㅋㅋㅋㅋㅋㅋㅋ":5492,"댕이":5493,"ㅋㅋㅋㅋㅋ":5494,"##는데":5495,"##ㅋㅋㅋㅋㅋㅋㅋㅋㅋㅋㅋㅋㅋㅋㅋㅋ":5496,"아니":5497,"##댕이":5498,"ㅋㅋㅋㅋㅋㅋㅋㅋ":5499,"##ㅠㅠㅠㅠ":5500,"##에서":5501,"댕아":5502,"ㅠㅠ":5503,"##니까":5504,"ㅋㅋㅋㅋㅋㅋㅋㅋㅋㅋㅋㅋㅋ":5505,"##으로":5506,"내가":5507,"근데":5508,"##하는":5509,"##ㅋㅋㅋㅋㅋㅋㅋㅋㅋㅋㅋㅋ":5510,"##♡♡":5511,"##댕아":5512,"진짜":5513,"##하고":5514,"##다고":5515,"생각":5516,"웅냐":5517,"ㅋㅋㅋㅋㅋㅋㅋㅋㅋㅋㅋㅋ":5518,"사람":5519,"웅웅":5520,"그래":5521,"##한테":5522,"오늘":5523,"ㅎㅎ":5524,"##자나":5525,"##으면":5526,"##라고":5527,"##지만":5528,"##니다":5529,"너무":5530,"##까지":5531,"지금":5532,"##해서":5533,"우리":5534,"ㅋㅋㅋㅋㅋㅋ":5535,"##하구":5536,"##00":5537,"##렇게":5538,"##이야":5539,"##내가":5540,"##아니":5541,"##하면":5542,"이거":5543,"##어서":5544,"ㅋㅋㅋㅋㅋㅋㅋㅋㅋㅋㅋㅋㅋㅋㅋㅋㅋㅋㅋㅋㅋㅋㅋㅋㅋ":5545,"##이라":5546,"##근데":5547,"##인데":5548,"##다가":5549,"ㅋㅋ":5550,"그냥":5551,"이제":5552,"도착":5553,"ㅋㅋㅋㅋㅋㅋㅋㅋㅋㅋㅋㅋㅋㅋㅋㅋㅋ":5554,"ㅋㅋㅋㅋㅋㅋㅋ":5555,"ㅠㅠㅠ":5556,"하는":5557,"##이랑":5558,"하고":5559,"ㅠㅠㅠㅠㅠ":5560,"사랑":5561,"들어":5562,"##리고":5563,"있는":5564,"##그래":5565,"타롱":5566,"##다는":5567,"그러":5568,"모르":5569,"그런":5570,"ㅋㅋㅋㅋㅋㅋㅋㅋㅋㅋ":5571,"댕이가":5572,"같은":5573,"그럼":5574,"##ㄷㄷ":5575,"##하지":5576,"##부터":5577,"##이거":5578,"나도":5579,"##면서":5580,"##오늘":5581,"##아아":5582,"##하게":5583,"##습니다":5584,"##ㅋㅋㅋㅋㅋㅋ":5585,"##ㅋㅋㅋㅋㅋ":5586,"##아서":5587,"오빠":5588,"ㅋㅋㅋㅋㅋㅋㅋㅋㅋㅋㅋ":5589,"##ㅎㅎ":5590,"하나":5591,"많이":5592,"그거":5593,"나는":5594,"ㅋㅋㅋㅋㅋㅋㅋㅋㅋㅋㅋㅋㅋㅋㅋㅋ":5595,"사진":5596,"##ㅋㅋㅋㅋㅋㅋㅋ":5597,"##겠다":5598,"엄마":5599,"##우리":5600,"내일":5601,"##진짜":5602,"##해떠":5603,"##거야":5604,"같이":5605,"##보다":5606,"만나":5607,"얘기":5608,"일단":5609,"##시간":5610,"ㅋㅋㅋㅋㅋㅋㅋㅋㅋㅋㅋㅋㅋㅋ":5611,"##ㅏㅏ":5612,"ㅜㅜ":5613,"##들이":5614,"나두":5615,"보고":5616,"문제":5617,"##오오":5618,"##너무":5619,"##해야":5620,"##이가":5621,"그래서":5622,"시간":5623,"##잖아":5624,"아냐":5625,"이런":5626,"언제":5627,"##ㅋㅋㅋㅋㅋㅋㅋㅋㅋ":5628,"그건":5629,"있었":5630,"잘자":5631,"공부":5632,"##이었":5633,"하면":5634,"있어":5635,"해야":5636,"##ㅋㅋㅋㅋㅋㅋㅋㅋㅋㅋ":5637,"##지금":5638,"##ㅋㅋㅋㅋㅋㅋㅋㅋㅋㅋㅋ":5639,"##겠지":5640,"회사":5641,"##그냥":5642,"##자기":5643,"##구나":5644,"##이나":5645,"10":5646,"ㅋㅋㅋㅋㅋㅋㅋㅋㅋㅋㅋㅋㅋㅋㅋ":5647,"아직":5648,"##이지":5649,"고생":5650,"ㅇㅇ":5651,"아니라":5652,"##이고":5653,"저나":5654,"ㅋㅋㅋㅋㅋㅋㅋㅋㅋㅋㅋㅋㅋㅋㅋㅋㅋㅋㅋㅋㅋ":5655,"##대로":5656,"##인가":5657,"##해주":5658,"퇴근":5659,"좋아":5660,"먹구":5661,"보구":5662,"##나는":5663,"##지고":5664,"것도":5665,"같아":5666,"##ㅎㅋ":5667,"##ㅋㅋㅋㅋㅋㅋㅋㅋㅋㅋㅋㅋㅋㅋㅋㅋㅋㅋㅋㅋㅋㅋㅋㅋㅋㅋㅋㅋㅋㅋㅋㅋ":5668,"##이는":5669,"안되":5670,"오구":5671,"어디":5672,"##지는":5673,"##요일":5674,"댕이는":5675,"##리는":5676,"힝구":5677,"있을":5678,"저거":5679,"##ㅌㅌ":5680,"그렇":5681,"만들":5682,"##사랑":5683,"다시":5684,"져아":5685,"알아":5686,"##댕이가":5687,"이러":5688,"##하는데":5689,"##나도":5690,"##오빠":5691,"##은데":5692,"미안":5693,"##ㅜㅜ":5694,"ㅠㅠㅠㅠ":5695,"##그래서":5696,"##in":5697,"##더라":5698,"모르겠":5699,"아닌":5700,"##어야":5701,"남자":5702,"나오":5703,"##이다":5704,"##ㅠㅠㅠㅠㅠㅠㅠㅠ":5705,"##에는":5706,"그렇게":5707,"끝나":5708,"가서":5709,"타롱해":5710,"이상":5711,"했는데":5712,"##더니":5713,"어케":5714,"##뿌니":5715,"##롱해":5716,"그게":5717,"이건":5718,"카톡":5719,"##중에":5720,"먹고":5721,"없어":5722,"##했는데":5723,"##그럼":5724,"##♡♡♡":5725,"다른":5726,"은경":5727,"여자":5728,"##ㅋㅋㅋㅋㅋㅋㅋㅋㅋㅋㅋㅋㅋ":5729,"사람이":5730,"계속":5731,"없는":5732,"##보고":5733,"##려고":5734,"##거든":5735,"##댕이는":5736,"##어나":5737,"ㅡㅡ":5738,"버스":5739,"##심히":5740,"##다구":5741,"##0분":5742,"##하기":5743,"##사진":5744,"개발":5745,"히히":5746,"이렇게":5747,"출발":5748,"##내일":5749,"저녁":5750,"사랑해":5751,"마자":5752,"##것도":5753,"정도":5754,"힘들":5755,"이게":5756,"##이면":5757,"필요":5758,"##라는":5759,"같은데":5760,"보내":5761,"##이제":5762,"있는데":5763,"거야":5764,"그랬":5765,"고마":5766,"##으니까":5767,"아무":5768,"들어가":5769,"물어":5770,"잘못":5771,"##직히":5772,"생각해":5773,"가야":5774,"##을까":5775,"나와":5776,"친구":5777,"여기":5778,"##하다":5779,"##시에":5780,"원래":5781,"하지":5782,"그리고":5783,"거지":5784,"일찍":5785,"좋은":5786,"##만원":5787,"##리가":5788,"아니고":5789,"in":5790,"행복":5791,"하구":5792,"##이라고":5793,"##었는데":5794,"##적으로":5795,"말고":5796,"##해또":5797,"##ㅋㅋㅋㅋㅋㅋㅋㅋㅋㅋㅋㅋㅋㅋ":5798,"나랑":5799,"##한데":5800,"인나":5801,"죠아":5802,"이번":5803,"너가":5804,"2장":5805,"##스트":5806,"나한테":5807,"수업":5808,"바로":5809,"요즘":5810,"##기가":5811,"아님":5812,"##냐고":5813,"##그러":5814,"넘모":5815,"마니":5816,"나가":5817,"몰라":5818,"사실":5819,"##지도":5820,"##ㄱㄱ":5821,"해서":5822,"가는":5823,"받아":5824,"엄청":5825,"##하나":5826,"##차피":5827,"괜찮":5828,"때문":5829,"이미":5830,"학교":5831,"##이이":5832,"##어가":5833,"아이":5834,"##야지":5835,"이따":5836,"##차나":5837,"점심":5838,"찌찌":5839,"시작":5840,"씻구":5841,"##그거":5842,"##잘자":5843,"가능":5844,"##주는":5845,"##er":5846,"먼저":5847,"이해":5848,"하지만":5849,"##했어":5850,"그래도":5851,"##기도":5852,"##정도":5853,"건데":5854,"##놓고":5855,"기다":5856,"##들은":5857,"빨리":5858,"어제":5859,"##이터":5860,"##웅냐":5861,"##끄야":5862,"##ㅋㅋㅋㅋㅋㅋㅋㅋㅋㅋㅋㅋㅋㅋㅋ":5863,"똑같":5864,"##이버":5865,"##거지":5866,"ㅋㅋㅋㅋㅋㅋㅋㅋㅋㅋㅋㅋㅋㅋㅋㅋㅋㅋㅋㅋ":5867,"##던데":5868,"##ㅠㅠㅠ":5869,"집에":5870,"싶은":5871,"준비":5872,"이유":5873,"##히히":5874,"##일단":5875,"마음":5876,"알았":5877,"무슨":5878,"##려서":5879,"##엄마":5880,"보면":5881,"댕이랑":5882,"안해":5883,"수도":5884,"##마자":5885,"싶다":5886,"전화":5887,"전에":5888,"머거":5889,"ㅋㅋㅋ":5890,"갑자기":5891,"##이스":5892,"##줘서":5893,"##수님":5894,"중요":5895,"##텐데":5896,"##♡♡♡♡":5897,"되는":5898,"아빠":5899,"피곤":5900,"##어도":5901,"밖에":5902,"않아":5903,"##이네":5904,"맨날":5905,"##꺼야":5906,"아니야":5907,"##어어":5908,"##ㅇㅇ":5909,"##하자":5910,"ㅋㅋㅋㅋ댕이":5911,"댕이야":5912,"앙대":5913,"오께":5914,"##처럼":5915,"안나":5916,"잘게":5917,"찾아":5918,"##한다":5919,"나왔":5920,"##저나":5921,"ㅋㅋㅋㅋ나":5922,"아니면":5923,"말이":5924,"아까":5925,"##적인":5926,"알고":5927,"이떠":5928,"그럴":5929,"##거나":5930,"##떻게":5931,"떨어":5932,"하루":5933,"##ㄷㄷㄷㄷ":5934,"자꾸":5935,"12":5936,"있고":5937,"##동안":5938,"다음":5939,"##었어":5940,"댱이":5941,"기억":5942,"선물":5943,"얼마":5944,"##주고":5945,"그러면":5946,"그때":5947,"##라구":5948,"##댕아나":5949,"면접":5950,"하는데":5951,"솔직히":5952,"안돼":5953,"잘자구":5954,"##ㅎㅋㅎㅋ":5955,"20":5956,"소리":5957,"알바":5958,"말해":5959,"자구":5960,"ㄴㄴ":5961,"아하":5962,"##기는":5963,"##에도":5964,"거의":5965,"이뿌니":5966,"##사랑해":5967,"걱정":5968,"##는지":5969,"##이게":5970,"시퍼":5971,"##소리":5972,"느낌":5973,"##이얌":5974,"공방":5975,"ㄷㄷ":5976,"##it":5977,"와서":5978,"##입니다":5979,"ㅋㅋㅋㅋㅋㅋㅋㅋㅋㅋㅋㅋㅋㅋㅋㅋㅋㅋ":5980,"##했다":5981,"내려":5982,"제일":5983,"기분":5984,"있음":5985,"##웅웅":5986,"라고":5987,"##이런":5988,"##가는":5989,"##하지만":5990,"##밖에":5991,"아닝":5992,"##라도":5993,"ㅎㅋ":5994,"##그리고":5995,"돌아":5996,"처음":5997,"11":5998,"많아":5999,"##려구":6000,"##이건":6001,"##지어":6002,"##은경":6003,"타롱하구":6004,"일어나":6005,"##댕이도":6006,"##000":6007,"##나두":6008,"오늘은":6009,"고민":6010,"늦게":6011,"머리":6012,"##라서":6013,"##세요":6014,"ㄹㅇ":6015,"귀여":6016,"댕이도":6017,"##ㅏㅏㅏㅏ":6018,"##있는":6019,"시험":6020,"아침":6021,"항상":6022,"댕아나":6023,"엄마가":6024,"연락":6025,"##고생":6026,"##저거":6027,"##자가":6028,"가면":6029,"그걸":6030,"##기로":6031,"가타":6032,"##or":6033,"##아내":6034,"##겠당":6035,"해도":6036,"어떤":6037,"있지":6038,"맞아":6039,"##영상":6040,"구래":6041,"어차피":6042,"##시반":6043,"int":6044,"올라":6045,"##ㅡㅡ":6046,"뭔가":6047,"프로":6048,"##ㅅㅇ":6049,"상황":6050,"어떻게":6051,"없어서":6052,"얼른":6053,"##해도":6054,"##려면":6055,"거기":6056,"코테":6057,"혼자":6058,"##짜나":6059,"##하철":6060,"##지막":6061,"##해보":6062,"##전에":6063,"애들":6064,"없다":6065,"정말":6066,"##그런":6067,"##자너":6068,"##으니":6069,"##카오":6070,"##al":6071,"##드로":6072,"##가지":6073,"경험":6074,"##수가":6075,"있으면":6076,"##하니까":6077,"사라":6078,"않았":6079,"옹동":6080,"##오구":6081,"누구":6082,"아닐":6083,"ㅋㅋㅋㅋㅋㅋㅋㅋㅋㅋㅋㅋㅋㅋㅋㅋㅋㅋㅋㅋㅋㅋㅋㅋㅋㅋㅋㅋㅋㅋㅋㅋㅋㅋㅋㅋㅋㅋㅋㅋㅋ":6084,"##어디":6085,"##넘모":6086,"##하네":6087,"도착해떠":6088,"아예":6089,"##마다":6090,"##그게":6091,"##언제":6092,"##프로":6093,"##와서":6094,"##번에":6095,"후음":6096,"30":6097,"아항":6098,"중에":6099,"짜증":6100,"##으러":6101,"ㅅㅂ":6102,"있다":6103,"##그건":6104,"##리면":6105,"##같이":6106,"먹을":6107,"알또":6108,"없고":6109,"##아직":6110,"ㅋㅋㅋㅋㅋㅋㅋㅋㅋㅋㅋㅋㅋㅋㅋㅋㅋㅋㅋ":6111,"가고":6112,"씻고":6113,"##st":6114,"사람들":6115,"##에에":6116,"##소서":6117,"##보면":6118,"##10":6119,"##님이":6120,"오빠가":6121,"서로":6122,"자기":6123,"##on":6124,"##스러":6125,"사랑하구":6126,"때문에":6127,"교수님":6128,"아파":6129,"##ㅇㅋ":6130,"##그래도":6131,"싶어":6132,"거고":6133,"왤케":6134,"코드":6135,"##했져":6136,"##사람":6137,"##길래":6138,"##가서":6139,"ㅠㅠㅠㅠㅠㅠㅠㅠㅠ":6140,"뭐가":6141,"##타롱해":6142,"##리구":6143,"##동원":6144,"##아아아아":6145,"별로":6146,"##아주":6147,"##느라":6148,"취업":6149,"미친":6150,"올게":6151,"##만에":6152,"미안해":6153,"네이버":6154,"##구만":6155,"##zz":6156,"##하면서":6157,"옹냐":6158,"##이따":6159,"##었다":6160,"##디어":6161,"##워서":6162,"나서":6163,"부분":6164,"와떠":6165,"있어서":6166,"##이래":6167,"##에게":6168,"해주":6169,"쓰는":6170,"15":6171,"누가":6172,"데이터":6173,"뭐야":6174,"##드는":6175,"갈게":6176,"그니까":6177,"끝났":6178,"모야":6179,"조금":6180,"##후후":6181,"##요일에":6182,"ㅈㄴ":6183,"가져":6184,"보여":6185,"아주":6186,"걸로":6187,"##지가":6188,"보구시":6189,"보는":6190,"지원":6191,"없는데":6192,"##던가":6193,"##스타":6194,"##힝구":6195,"거임":6196,"열심히":6197,"##학교":6198,"말하는":6199,"##하여":6200,"##져서":6201,"먹어":6202,"삼성":6203,"과제":6204,"오래":6205,"ㅇㅋ":6206,"결혼":6207,"저런":6208,"##가여":6209,"나빠":6210,"동생":6211,"##보니까":6212,"##한다고":6213,"ㅠㅠㅠㅠㅠㅠ":6214,"100":6215,"오잉":6216,"운동":6217,"ㅋㅋㅋㅋㅋㅋㅋㅋㅋㅋㅋㅋㅋㅋㅋㅋㅋㅋㅋㅋㅋㅋㅋㅋ":6218,"어쩌":6219,"##어버":6220,"사이":6221,"##문제":6222,"알려":6223,"##인지":6224,"##같은":6225,"은경이":6226,"깃헙":6227,"##는다":6228,"##여기":6229,"##11":6230,"말구":6231,"않을까":6232,"역시":6233,"저는":6234,"ㅋㅋㅋㅋ댕아":6235,"졸업":6236,"한데":6237,"##조건":6238,"오디":6239,"##겠어":6240,"##냐면":6241,"응응":6242,"집에서":6243,"##하다가":6244,"##생각":6245,"##at":6246,"ar":6247,"자체":6248,"##마니":6249,"##려나":6250,"저렇게":6251,"지하철":6252,"##마오":6253,"가지":6254,"재밌":6255,"##자는":6256,"바부":6257,"언능":6258,"##가지고":6259,"##봤는데":6260,"맞는":6261,"자떠":6262,"##자마자":6263,"##기에":6264,"##이니까":6265,"부모":6266,"##되는":6267,"자소서":6268,"##너가":6269,"##ut":6270,"ㅋㅋㅋㅋ아":6271,"ㅎㅎㅋ":6272,"노력":6273,"다행":6274,"땡이":6275,"##겠네":6276,"서버":6277,"위해":6278,"##베디":6279,"##에서는":6280,"고마워":6281,"##만큼":6282,"##바로":6283,"쓰고":6284,"안된":6285,"언니":6286,"이래":6287,"##이렇게":6288,"##해여":6289,"##들어":6290,"##댱이":6291,"엄마랑":6292,"##오오오오":6293,"서울":6294,"##갑자기":6295,"말했":6296,"받았":6297,"아마":6298,"없었":6299,"##야대":6300,"##파일":6301,"되었":6302,"않고":6303,"잠깐":6304,"출근":6305,"##는게":6306,"##ㅣㅣ":6307,"얼마나":6308,"방금":6309,"보니까":6310,"혹시":6311,"##ㅅㅎ":6312,"결국":6313,"기여":6314,"##다시":6315,"##20":6316,"##il":6317,"같아서":6318,"카카오":6319,"arr":6320,"가구":6321,"##라인":6322,"##댕이랑":6323,"셔틀":6324,"하면서":6325,"한다":6326,"##으면서":6327,"없음":6328,"##오늘은":6329,"30분":6330,"상관":6331,"##이러":6332,"##요즘":6333,"##ea":6334,"갠차나":6335,"동원":6336,"말이야":6337,"포기":6338,"##나가":6339,"##다니":6340,"##원래":6341,"##타롱":6342,"갈아":6343,"나를":6344,"사롱해":6345,"스타":6346,"하기":6347,"해결":6348,"##지면":6349,"그런가":6350,"건가":6351,"##이도":6352,"##장이":6353,"##♡ㅋㅋㅋㅋ":6354,"관심":6355,"되지":6356,"말을":6357,"배고":6358,"싶은데":6359,"일어":6360,"##남친":6361,"##학년":6362,"당연":6363,"되게":6364,"싫어":6365,"##초에":6366,"##분에":6367,"생각이":6368,"갔다":6369,"구랭":6370,"아는":6371,"##자고":6372,"##이팅":6373,"##합니다":6374,"##이트":6375,"##친구":6376,"##수도":6377,"댕이를":6378,"나온":6379,"맛있":6380,"예정":6381,"##인이":6382,"##아무":6383,"##야오":6384,"##해쪄":6385,"##ㅋㅋㅋㅋㅋㅋㅋㅋㅋㅋㅋㅋㅋㅋㅋㅋㅋ":6386,"아니지":6387,"아닌데":6388,"##베디드":6389,"마지막":6390,"생일":6391,"안하고":6392,"하튼":6393,"아니었":6394,"##이라도":6395,"거였":6396,"써야":6397,"얼굴":6398,"의미":6399,"##이번":6400,"##ㅜㅠ":6401,"다니":6402,"비슷":6403,"속상":6404,"심지어":6405,"##하겠":6406,"댕아댕아":6407,"ㅠㅠㅠㅠㅠㅠㅠ":6408,"고맙":6409,"다르":6410,"있습니다":6411,"##어제":6412,"##ns":6413,"##ㅅㅋ":6414,"아직도":6415,"많은":6416,"중간":6417,"##가능":6418,"##식으로":6419,"있었는데":6420,"대학":6421,"##로나":6422,"##de":6423,"ㅋㅋㅋㅋ이거":6424,"중요한":6425,"연결":6426,"##하자나":6427,"##는디":6428,"##아리":6429,"##은행":6430,"##건데":6431,"남친":6432,"못해":6433,"세상":6434,"시포":6435,"아프":6436,"약간":6437,"##보구":6438,"경우":6439,"따로":6440,"따라":6441,"마곡":6442,"수가":6443,"알떠":6444,"어려":6445,"##어케":6446,"##보는":6447,"##레스":6448,"ㄱㄱ":6449,"##시지":6450,"##동영상":6451,"##이라는":6452,"##ㅎㅎㅎㅎ":6453,"강의":6454,"먹었":6455,"안했":6456,"##해써":6457,"##버스":6458,"##시까지":6459,"##우고":6460,"##았어":6461,"만들어":6462,"##엄마가":6463,"ㅇㅅㅇ":6464,"헤어":6465,"##하긴":6466,"##ㅓㅓ":6467,"받고":6468,"쉬어":6469,"와중에":6470,"하니까":6471,"##했습니다":6472,"카페":6473,"##하튼":6474,"##이어":6475,"##이뿌니":6476,"##았는데":6477,"말한":6478,"수준":6479,"홧팅":6480,"##나루":6481,"##거고":6482,"##줄게":6483,"ㅇㅈ":6484,"가장":6485,"신한":6486,"어때":6487,"조심히":6488,"회의":6489,"##스럽":6490,"##ㄱㅋ":6491,"3장":6492,"##구래":6493,"##이긴":6494,"##es":6495,"##머니":6496,"##ㅋㅋㅋㅋㅋㅋㅋㅋㅋㅋㅋㅋㅋㅋㅋㅋㅋㅋ":6497,"##00원":6498,"거라":6499,"나중에":6500,"듣고":6501,"들고":6502,"뭐지":6503,"커플":6504,"##오는":6505,"어디서":6506,"이러고":6507,"갖고":6508,"미아내":6509,"애가":6510,"없지":6511,"있져":6512,"##이드":6513,"##줘야":6514,"ㅠㅠㅠㅠㅠㅠㅠㅠㅠㅠㅠㅠㅠ":6515,"있자나":6516,"했어":6517,"##미안":6518,"##했던":6519,"##했을":6520,"##할게":6521,"ㅎㅎㅎ":6522,"인나쪄":6523,"뭐라":6524,"일케":6525,"##이썬":6526,"##으으":6527,"도전":6528,"선택":6529,"시켜":6530,"앞으로":6531,"오오":6532,"인생":6533,"##나바":6534,"##갔다":6535,"##퓨터":6536,"##번째":6537,"이상한":6538,"사롱":6539,"오면":6540,"이걸":6541,"##나게":6542,"##en":6543,"##너무너무":6544,"보구싶":6545,"##잘자구":6546,"파일":6547,"##ow":6548,"##제로":6549,"ㅋㅋㅋㅋ오":6550,"10분":6551,"귀엽":6552,"나갈":6553,"만날":6554,"물론":6555,"성장":6556,"##스크":6557,"사람은":6558,"사람들이":6559,"되어":6560,"되는데":6561,"스트":6562,"인터":6563,"##애애":6564,"##지마":6565,"시간이":6566,"그치":6567,"할까":6568,"##성이":6569,"##나랑":6570,"##하다고":6571,"댕이한테":6572,"##ㅋㅋㅋㅋㅋㅋㅋㅋㅋㅋㅋㅋㅋㅋㅋㅋㅋㅋㅋㅋ":6573,"##댕이야":6574,"안되는":6575,"##ing":6576,"가지고":6577,"오는":6578,"타고":6579,"ㅋㅋㅋㅋㅋㅋㅋㅋㅋㅋㅋㅋㅋㅋㅋㅋㅋㅋㅋㅋㅋㅋ":6580,"같긴":6581,"너랑":6582,"##아냐":6583,"##치는":6584,"##역시":6585,"##옹동":6586,"같다":6587,"이쁘":6588,"졸려":6589,"##그때":6590,"##나서":6591,"##나라":6592,"##기만":6593,"##면접":6594,"##공방":6595,"##공부":6596,"##비스":6597,"ㅋㅋㅋㅋㅋㅋㅋㅋㅋㅋㅋㅋㅋㅋㅋㅋㅋㅋㅋㅋㅋㅋㅋ":6598,"이번에":6599,"부족":6600,"없이":6601,"없을":6602,"영상":6603,"##하냐":6604,"##사실":6605,"st":6606,"교육":6607,"꼬마오":6608,"나올":6609,"자신":6610,"정신":6611,"##어차피":6612,"##다른":6613,"##겠지만":6614,"##엄청":6615,"##ㅂㅇ":6616,"있으":6617,"찡찡":6618,"할튼":6619,"##정이":6620,"##솔직히":6621,"##해주는":6622,"개발자":6623,"2번":6624,"가자":6625,"갈까":6626,"궁금":6627,"되고":6628,"무조건":6629,"보러":6630,"차이":6631,"한번":6632,"##아까":6633,"##져떠":6634,"##ㄴㄴ":6635,"##ㅎㅎㅋ":6636,"뭔데":6637,"상태":6638,"새로":6639,"한국":6640,"확실":6641,"##et":6642,"##치고":6643,"ㅋㅅㅋ":6644,"모해":6645,"뭐여":6646,"벌써":6647,"알지":6648,"올려":6649,"하자":6650,"호고":6651,"##지게":6652,"##시는":6653,"##시야":6654,"##여서":6655,"##할까":6656,"문제가":6657,"두개":6658,"발표":6659,"보통":6660,"오픈":6661,"인정":6662,"주말":6663,"##기업":6664,"##보니":6665,"##머리":6666,"##에서도":6667,"##사랑하구":6668,"이유가":6669,"##이스톡":6670,"1년":6671,"ㅇㅂㅇ":6672,"결과":6673,"소마":6674,"완전":6675,"인천":6676,"임베디드":6677,"##야겠다":6678,"##까진":6679,"##ㅌㅌㅌㅌ":6680,"도와":6681,"도희":6682,"바람":6683,"앞에":6684,"어느":6685,"오댜":6686,"화장":6687,"##가고":6688,"##무슨":6689,"##ㅓㅏ":6690,"맞춰":6691,"알쪄":6692,"이후":6693,"이써":6694,"##댕아댕아":6695,"ㅁㅊ":6696,"많아서":6697,"살아":6698,"저건":6699,"책임":6700,"확인":6701,"##했고":6702,"스트레스":6703,"50":6704,"거면":6705,"게임":6706,"입장":6707,"##우는":6708,"##ch":6709,"모르게":6710,"나와서":6711,"분석":6712,"사주":6713,"시키":6714,"예쁘":6715,"있나":6716,"치킨":6717,"##니가":6718,"##하대":6719,"##는뎅":6720,"##이미":6721,"##을때":6722,"##빨리":6723,"기업":6724,"내용":6725,"바빠":6726,"안에":6727,"##그걸":6728,"##데이터":6729,"##나한테":6730,"##카톡":6731,"##많이":6732,"##커톤":6733,"아닐까":6734,"1도":6735,"서류":6736,"##그렇게":6737,"끝내":6738,"받는":6739,"서운":6740,"설명":6741,"어플":6742,"오호":6743,"##르는":6744,"##스로":6745,"##까지는":6746,"##오빠가":6747,"ㄱㅊ":6748,"너한테":6749,"다들":6750,"들었":6751,"모든":6752,"미쳤":6753,"바보":6754,"신경":6755,"쓰면":6756,"있다고":6757,"지난":6758,"##저녁":6759,"##ㅋㅋㅋㅋㅋㅋㅋㅋㅋㅋㅋㅋㅋㅋㅋㅋㅋㅋㅋ":6760,"회사가여":6761,"나오는":6762,"없져":6763,"위에":6764,"자주":6765,"취준":6766,"하다가":6767,"##그렇":6768,"##기를":6769,"##다면":6770,"##뭔가":6771,"ㅎㅅㅎ":6772,"거랑":6773,"그로":6774,"먹는":6775,"알써":6776,"크게":6777,"한시간":6778,"##이자나":6779,"##일에":6780,"##버렸":6781,"##땜에":6782,"##식이":6783,"아니다":6784,"만나서":6785,"##000원":6786,"서비스":6787,"절대":6788,"##대가":6789,"##마트":6790,"##해주고":6791,"퇴근햐":6792,"건지":6793,"너도":6794,"뒤에":6795,"말이지":6796,"받은":6797,"이름":6798,"이뿌":6799,"질문":6800,"##일이":6801,"##라리":6802,"고생해또":6803,"나쁘":6804,"대한":6805,"봐도":6806,"추천":6807,"했던":6808,"##알쪄":6809,"ㅋㅋㅋㅋㅋㅋㅋㅋㅋㅋㅋㅋㅋㅋㅋㅋㅋㅋㅋㅋㅋㅋㅋㅋㅋㅋㅋㅋ":6810,"아이디어":6811,"머거떠":6812,"가여":6813,"니가":6814,"알아서":6815,"잘해떠":6816,"제대로":6817,"##되는데":6818,"##아아아":6819,"나옴":6820,"달라":6821,"롯데":6822,"몰랐":6823,"생겼":6824,"시러":6825,"아녀":6826,"여친":6827,"일이":6828,"자고":6829,"자야":6830,"잘해또":6831,"##히려":6832,"##라이":6833,"##맨날":6834,"##사가":6835,"##웃기":6836,"ㅋㅋㅋㅋㅋㅋㅋㅋ댕이":6837,"생각하는":6838,"##ine":6839,"구니까":6840,"여러":6841,"잘해":6842,"컴공":6843,"##이노":6844,"##다는데":6845,"##라면":6846,"##12":6847,"##귀여":6848,"괜찮아":6849,"대체":6850,"대충":6851,"땜에":6852,"우음":6853,"챙겨":6854,"##리지":6855,"##두이노":6856,"##력이":6857,"되었습니다":6858,"기본":6859,"방법":6860,"보냈":6861,"빼고":6862,"싶당":6863,"자리":6864,"##고로":6865,"##소스":6866,"##픈데":6867,"##ㅁㅇ":6868,"모르겠다":6869,"아침에":6870,"굳이":6871,"나쁜":6872,"노트":6873,"때도":6874,"말야":6875,"사용":6876,"컴퓨터":6877,"코딩":6878,"##니께":6879,"##다음":6880,"##르게":6881,"##찌찌":6882,"##봐야":6883,"##ar":6884,"##년에":6885,"귀찮":6886,"기준":6887,"##이여":6888,"##리즘":6889,"##학기":6890,"##겠다고":6891,"##항상":6892,"##ㅋㅋㅋㅋ이거":6893,"ㅋㅋㅋㅋㅋㅋㅋㅋㅋㅋㅋㅋㅋㅋㅋㅋㅋㅋㅋㅋㅋㅋㅋㅋㅋㅋㅋㅋㅋㅋㅋㅋㅋㅋㅋㅋㅋㅋㅋㅋㅋㅋㅋㅋㅋㅋㅋㅋㅋㅋㅋㅋㅋㅋㅋㅋㅋ":6894,"가까":6895,"성공":6896,"싶어서":6897,"어렵":6898,"연애":6899,"이용":6900,"##또케":6901,"둘이":6902,"먹으러":6903,"않는":6904,"여행":6905,"최고":6906,"##하께":6907,"##아빠":6908,"##se":6909,"##ㅅㅂ":6910,"##처기":6911,"ㅠㅠㅠㅠㅠㅠㅠㅠ":6912,"그렇지":6913,"보구시포":6914,"공모":6915,"머글":6916,"자끄야":6917,"해커톤":6918,"##인거":6919,"##이란":6920,"##오면":6921,"##거기":6922,"##여친":6923,"##전공":6924,"##집에":6925,"##ㄹㅇ":6926,"##할튼":6927,"좋아하는":6928,"나아":6929,"동기":6930,"되면":6931,"때매":6932,"많았":6933,"사는":6934,"안됨":6935,"없네":6936,"##나보":6937,"##기고":6938,"##일케":6939,"##해죠":6940,"##얼른":6941,"##젝트":6942,"똑같은":6943,"AI":6944,"저기":6945,"탔져":6946,"##어떠":6947,"##아나":6948,"##주에":6949,"##당히":6950,"##적이":6951,"##좋은":6952,"우리가":6953,"하나만":6954,"아닌가":6955,"13":6956,"대해":6957,"때려":6958,"메시지":6959,"백동원":6960,"사귀":6961,"신기":6962,"아아":6963,"어쩔":6964,"옆에":6965,"정리":6966,"제가":6967,"##을텐데":6968,"##거의":6969,"##눈뎅":6970,"##천히":6971,"##튜브":6972,"그러고":6973,"귀여워":6974,"돌려":6975,"머야":6976,"뭔지":6977,"미리":6978,"이것":6979,"자여":6980,"지나":6981,"직접":6982,"##이에":6983,"##거임":6984,"##었던":6985,"##건가":6986,"##ㅠㅠㅠㅠㅠ":6987,"##아니면":6988,"그러니까":6989,"기다려":6990,"간다":6991,"그대로":6992,"만났":6993,"성격":6994,"안보":6995,"오ㅑ":6996,"주변":6997,"##수록":6998,"##네이버":6999,"##걱정":7000,"##없이":7001,"아니아니":7002,"모르겠어":7003,"3번":7004,"그만":7005,"댓글":7006,"맞지":7007,"장난":7008,"저게":7009,"##볼게":7010,"##시고":7011,"##했네":7012,"##점심":7013,"##ct":7014,"##ㄱㅊ":7015,"##호선":7016,"구냥":7017,"앞에서":7018,"##나봐":7019,"##로그":7020,"##끼리":7021,"##주일":7022,"##할거":7023,"##이라서":7024,"for":7025,"ㅌㅌ":7026,"너는":7027,"동아리":7028,"뭐냐":7029,"안들":7030,"완료":7031,"이랬":7032,"있긴":7033,"정보":7034,"##이상":7035,"##용♡":7036,"##야해":7037,"##ㅇㅅㅇ":7038,"ㅠㅠㅋㅋㅋㅋ":7039,"잘자떠":7040,"다녀":7041,"말도":7042,"못하는":7043,"임티":7044,"##어요":7045,"##남자":7046,"##하러":7047,"##을듯":7048,"##대서":7049,"##계속":7050,"##베리":7051,"생각보다":7052,"타롱햐":7053,"끝나고":7054,"여기서":7055,"3개":7056,"기술":7057,"나만":7058,"남았":7059,"놀아":7060,"마감":7061,"매일":7062,"바꿔":7063,"봤는데":7064,"설마":7065,"어떡":7066,"토스":7067,"합격":7068,"##put":7069,"##티콘":7070,"아니냐":7071,"고생해떠":7072,"ㅇㅋㅇㅋ":7073,"어쩌고":7074,"마곡나루":7075,"신한은행":7076,"14":7077,"검색":7078,"나의":7079,"맛난":7080,"애초에":7081,"야근":7082,"파이썬":7083,"현실":7084,"##하며":7085,"##가면":7086,"##라니":7087,"##주면":7088,"##러닝":7089,"##여자":7090,"##먹고":7091,"ㅋㅋㅋㅋ아니":7092,"ㅠㅠ댕이":7093,"웅냐웅냐":7094,"오늘도":7095,"##스러워":7096,"25":7097,"것만":7098,"때는":7099,"무시":7100,"보기":7101,"보낸":7102,"않나":7103,"엄빠":7104,"없으면":7105,"추가":7106,"##누가":7107,"##ed":7108,"##수업":7109,"##할때":7110,"##걸로":7111,"지금까지":7112,"모르는":7113,"ㅇㅎ":7114,"가끔":7115,"옛날":7116,"주고":7117,"진행":7118,"커피":7119,"화이팅":7120,"##였는데":7121,"##운데":7122,"##이너":7123,"##야하는":7124,"##쳐서":7125,"##보단":7126,"##시켜":7127,"##동생":7128,"##저런":7129,"일어나서":7130,"바부야":7131,"기야오":7132,"난리":7133,"뭐해":7134,"사고":7135,"읽씹":7136,"##oo":7137,"##지구":7138,"##르면":7139,"##한다는":7140,"##경이":7141,"##점이":7142,"##알떠":7143,"하나도":7144,"엄마한테":7145,"부모님":7146,"개빡":7147,"공감":7148,"대신":7149,"만든":7150,"전공":7151,"##애들":7152,"##부분":7153,"##스템":7154,"##세여":7155,"##봐도":7156,"##짓말":7157,"그런거":7158,"6시":7159,"가께":7160,"거리":7161,"기사":7162,"답장":7163,"바꾸":7164,"받을":7165,"아냥":7166,"웅아":7167,"이모":7168,"잠들":7169,"코로나":7170,"하다":7171,"힘드로":7172,"##고고":7173,"##대한":7174,"##에스":7175,"##시키":7176,"##뭐가":7177,"##력을":7178,"##즈베리":7179,"웅냐♡":7180,"오빠는":7181,"##이었는데":7182,"그렇군":7183,"옹동이":7184,"자체가":7185,"ㄷㄷㄷㄷㄷ":7186,"느껴":7187,"때마다":7188,"라는":7189,"먹자":7190,"식으로":7191,"애기":7192,"##히는":7193,"##이크":7194,"##서로":7195,"##야할":7196,"##명이":7197,"##ㄱㅋㅋ":7198,"##얼마":7199,"ㅠㅠ나":7200,"ㅋㅋㅋㅋㅋㅋㅋㅋㅋㅋㅋㅋㅋㅋㅋㅋㅋㅋㅋㅋㅋㅋㅋㅋㅋㅋㅋ":7201,"그러는":7202,"18":7203,"16":7204,"4장":7205,"은굥":7206,"있다는":7207,"하네":7208,"##이션":7209,"##심지어":7210,"##거리":7211,"##파이":7212,"##욜에":7213,"##랴서":7214,"ㅋㅋㅋㅋ히히":7215,"댕이두":7216,"지금은":7217,"고마오":7218,"프로젝트":7219,"2개":7220,"거라고":7221,"안좋":7222,"애매":7223,"왔다":7224,"표정":7225,"풀어":7226,"##아이":7227,"##언능":7228,"##보통":7229,"##여♡":7230,"##겠군":7231,"##토리":7232,"##알또":7233,"아빠가":7234,"1시간":7235,"미워":7236,"알게":7237,"와따":7238,"왔는데":7239,"정확":7240,"##나저나":7241,"##자꾸":7242,"##제일":7243,"##마워":7244,"##학과":7245,"##수는":7246,"##린다":7247,"댕이의":7248,"댕이♡":7249,"것은":7250,"내렸":7251,"모습":7252,"문과":7253,"봤을":7254,"애들이":7255,"약속":7256,"있던":7257,"해떠":7258,"##고야":7259,"##일찍":7260,"##야하는데":7261,"##마넌":7262,"##중간":7263,"##코드":7264,"##겨서":7265,"##랄까":7266,"생각을":7267,"##해야지":7268,"해야지":7269,"ㅇㅇㅇ":7270,"##더라도":7271,"아무리":7272,"배고파":7273,"ai":7274,"뛰어":7275,"먹으":7276,"선배":7277,"순간":7278,"신청":7279,"않은":7280,"인났":7281,"일반":7282,"했다":7283,"호곡":7284,"##우면":7285,"##5분":7286,"##냐구":7287,"##물론":7288,"##ㅇㅎ":7289,"##회사":7290,"##왤케":7291,"ㅋㅋㅋㅋㅋㅋㅋㅋㅋㅋㅋㅋㅋㅋㅋㅋㅋㅋㅋㅋㅋㅋㅋㅋㅋㅋ":7292,"마음이":7293,"다음에":7294,"그것":7295,"넘어":7296,"댱아":7297,"떠올":7298,"빨래":7299,"안가":7300,"영어":7301,"입고":7302,"자동":7303,"종설":7304,"##그럴":7305,"##도록":7306,"##아침":7307,"##200":7308,"##오디":7309,"##마지막":7310,"##시쯤":7311,"##저씨":7312,"##조심히":7313,"ㅋㅋㅋㅋㅋㅋㅋㅋㅋㅋㅋㅋㅋㅋㅋㅋㅋㅋㅋㅋㅋㅋㅋㅋㅋㅋㅋㅋㅋㅋㅋㅋ":7314,"20분":7315,"강남":7316,"것을":7317,"안내":7318,"오류":7319,"이뻐":7320,"자께":7321,"적이":7322,"##기여":7323,"##지를":7324,"##정말":7325,"##한대":7326,"##88":7327,"##갠차나":7328,"##mp":7329,"댕이댕이":7330,"##ㅠㅠㅠㅠㅠㅠㅠㅠㅠㅠㅠㅠㅠㅠㅠㅠ":7331,"기획":7332,"넣어":7333,"디자":7334,"맞다":7335,"바쁘":7336,"불안":7337,"슬슬":7338,"안할":7339,"우울":7340,"입사":7341,"저러":7342,"전과":7343,"탔어":7344,"##ig":7345,"##되고":7346,"##트업":7347,"##봐서":7348,"##괜찮":7349,"ㅎㅎㅎㅎ":7350,"남자가":7351,"넘모넘모":7352,"당연히":7353,"공모전":7354,"de":7355,"감사":7356,"걸까":7357,"그것도":7358,"넘어가":7359,"바뀌":7360,"뽀뽀":7361,"아두이노":7362,"에바":7363,"인턴":7364,"직무":7365,"타러":7366,"현재":7367,"##였어":7368,"##정신":7369,"##눈데":7370,"##쪽으로":7371,"##랜만에":7372,"##겹살":7373,"여자가":7374,"아무것도":7375,"##드로이드":7376,"결정":7377,"관리":7378,"구현":7379,"근처":7380,"말아":7381,"좀만":7382,"힘든":7383,"##자낭":7384,"##대는":7385,"##보자":7386,"##ion":7387,"##교수님":7388,"##개월":7389,"##OS":7390,"##오오오":7391,"친구들":7392,"마니마니":7393,"##이이이이":7394,"갈겡":7395,"같고":7396,"대화":7397,"문화":7398,"사업":7399,"영화":7400,"우선":7401,"자자":7402,"자랑":7403,"좋겠":7404,"진심":7405,"##하려고":7406,"##방에":7407,"##르고":7408,"##영이":7409,"##수강":7410,"##결국":7411,"##저것":7412,"##ㅁㅊ":7413,"##깃헙":7414,"너무너무":7415,"ㅋㅋㅋㅋㅋㅋㅋㅋㅋㅋㅋㅋㅋㅋㅋㅋㅋㅋㅋㅋㅋㅋㅋㅋㅋㅋㅋㅋㅋ":7416,"정도면":7417,"똑같이":7418,"상관없":7419,"거니까":7420,"거시야":7421,"기회":7422,"넘게":7423,"소개":7424,"오홍":7425,"유튜브":7426,"한다고":7427,"##자리":7428,"##인줄":7429,"##만한":7430,"##졌어":7431,"##시포":7432,"##우우":7433,"##후음":7434,"##집에서":7435,"##퇴근":7436,"##웃곀":7437,"##이라니":7438,"##ㅜㅜㅜㅜ":7439,"input":7440,"인터넷":7441,"화장실":7442,"네가":7443,"보니":7444,"보굽":7445,"어릴":7446,"잘했":7447,"평생":7448,"##ot":7449,"##도가":7450,"##대체":7451,"##었고":7452,"##달라고":7453,"##한거":7454,"##엔드":7455,"##맛있":7456,"##혹시":7457,"##ㅋㅋㅋㅋㅋㅋㅋㅋㅋㅋㅋㅋㅋㅋㅋㅋㅋㅋㅋㅋㅋ":7458,"알았는데":7459,"알고리즘":7460,"##ite":7461,"확실히":7462,"000원":7463,"2년":7464,"if":7465,"가기":7466,"관련":7467,"다양":7468,"도움":7469,"되나":7470,"두고":7471,"많은데":7472,"몰랑":7473,"받으":7474,"수상":7475,"예약":7476,"오케":7477,"오히려":7478,"한달":7479,"흐움":7480,"##미친":7481,"##인터":7482,"##해줘":7483,"##었음":7484,"##삼성":7485,"##ㅅ8":7486,"##ra":7487,"##번은":7488,"##꼬야":7489,"ㅋㅋㅋㅋㅋㅋㅋㅋㅋㅋㅋㅋㅋㅋㅋㅋㅋㅋㅋㅋㅋㅋㅋㅋㅋㅋㅋㅋㅋㅋ":7490,"모르겠는데":7491,"행복한":7492,"고맙구":7493,"##ㅓㅏㅓㅏ":7494,"같음":7495,"눈치":7496,"마리":7497,"만드는":7498,"말은":7499,"먹어야":7500,"비교":7501,"삭제":7502,"인하대":7503,"통해":7504,"휴학":7505,"##하하":7506,"##이해":7507,"##었져":7508,"##러서":7509,"##되면":7510,"만들고":7511,"기억이":7512,"이모티콘":7513,"가도":7514,"군대":7515,"남아":7516,"대박":7517,"머해":7518,"메일":7519,"무엇":7520,"불가능":7521,"왜냐면":7522,"울댕이":7523,"이쁜":7524,"인스타":7525,"했더니":7526,"##나마":7527,"##인듯":7528,"##구낭":7529,"##에선":7530,"##까봐":7531,"##ㄱㅋㅋㅋ":7532,"##았다":7533,"##쨌든":7534,"우리는":7535,"모르겠지만":7536,"경험을":7537,"이래서":7538,"느끼":7539,"머그":7540,"못하고":7541,"수정":7542,"안대":7543,"에구":7544,"오또케":7545,"팀원":7546,"포함":7547,"##아가":7548,"##피곤":7549,"##야야":7550,"##게따":7551,"##까지만":7552,"##30":7553,"##저기":7554,"##ㅏㅏㅏㅏㅏㅏㅏㅏ":7555,"5분":7556,"걸려":7557,"고집":7558,"과목":7559,"급행":7560,"답답":7561,"동안":7562,"맘에":7563,"먹으면":7564,"싫다":7565,"앙데":7566,"올겡":7567,"자료":7568,"전남친":7569,"차라리":7570,"천천히":7571,"최소":7572,"출력":7573,"큰일":7574,"표현":7575,"##ode":7576,"##누구":7577,"##고기":7578,"##거라":7579,"##학점":7580,"##들을":7581,"##전자":7582,"##플로":7583,"##셔틀":7584,"##ㅋㅋㅋㅋ이":7585,"##ㅠㅠㅠㅠㅠㅠ":7586,"##♡♡♡♡♡":7587,"생각하고":7588,"정도로":7589,"나와떠":7590,"ㅇㅈㄹ":7591,"vs":7592,"나이":7593,"노래":7594,"놓고":7595,"단톡":7596,"맞는데":7597,"번에":7598,"저장":7599,"존나":7600,"좋겠다":7601,"취소":7602,"하긴":7603,"##나지":7604,"##하던":7605,"##오고":7606,"##었네":7607,"##상이":7608,"##버려":7609,"##르르":7610,"##id":7611,"##카드":7612,"##카카오":7613,"##매일":7614,"##머지":7615,"도착했":7616,"##ㄷㄷㄷ":7617,"##오늘도":7618,"##이었던":7619,"##그러면":7620,"##시반에":7621,"보구시퍼":7622,"말하면":7623,"무서":7624,"뭐래":7625,"성적":7626,"아닠":7627,"안하는":7628,"와여":7629,"와쪄":7630,"위험":7631,"이짜나":7632,"있네":7633,"정처기":7634,"충분":7635,"해죠":7636,"##미아내":7637,"##하니":7638,"##앵이":7639,"##다ㅋㅋㅋㅋ":7640,"##라우":7641,"##거면":7642,"##시퍼":7643,"##스가":7644,"##est":7645,"##ㄹㄹ":7646,"##le":7647,"##없는":7648,"##hil":7649,"##ㅋㅋㅋㅋ나":7650,"##ㅋㅋㅋㅋㅋㅋㅋㅋㅋㅋㅋㅋㅋㅋㅋㅋㅋㅋㅋㅋㅋㅋㅋㅋ":7651,"은경이가":7652,"들어가서":7653,"##zzzz":7654,"다양한":7655,"가는데":7656,"나야":7657,"놀러":7658,"대답":7659,"듣는":7660,"마시":7661,"만난":7662,"말라고":7663,"미래":7664,"불편":7665,"안될":7666,"오휴":7667,"위해서":7668,"이쪄":7669,"인사":7670,"제출":7671,"##어떤":7672,"##나중에":7673,"##아마":7674,"##리는데":7675,"##지로":7676,"##보다는":7677,"##시아":7678,"##시부터":7679,"##전화":7680,"##내는":7681,"##있을":7682,"##알아":7683,"##셔서":7684,"##ED":7685,"아니니까":7686,"그래두":7687,"ㅋㅋㅋㅋㅋㅋㅋㅋㅋㅋㅋㅋㅋㅋㅋㅋㅋㅋㅋㅋㅋㅋㅋㅋㅋㅋㅋㅋㅋㅋㅋ":7688,"끝나면":7689,"잘게용":7690,"선물했습니다":7691,"동원이":7692,"일어났":7693,"이모티콘을":7694,"22":7695,"21":7696,"24":7697,"2시간":7698,"금융":7699,"나름":7700,"들어서":7701,"만약":7702,"목소리":7703,"못한":7704,"신입":7705,"왔어":7706,"좋은데":7707,"행동":7708,"##하쟈":7709,"##이냐":7710,"##시험":7711,"##스터":7712,"##들도":7713,"##사롱해":7714,"##머거":7715,"##메일":7716,"##처음":7717,"아니구":7718,"사람들은":7719,"이유는":7720,"잠깐만":7721,"오픈소스":7722,"메시지입니다":7723,"511":7724,"co":7725,"or":7726,"고객":7727,"깨워":7728,"동영상":7729,"않을":7730,"전부":7731,"제공":7732,"좋지":7733,"찍어":7734,"학생":7735,"##그램":7736,"##아예":7737,"##리네":7738,"##지지":7739,"##러드":7740,"##간다":7741,"##했지":7742,"##달라":7743,"##할지":7744,"##앙대":7745,"##역에서":7746,"##적성":7747,"ㅋㅋㅋㅋ이":7748,"우리나라":7749,"만나면":7750,"보고싶":7751,"힘들어":7752,"##ata":7753,"스타트업":7754,"당장":7755,"또한":7756,"비싸":7757,"없다고":7758,"있지만":7759,"있으니까":7760,"점점":7761,"주는":7762,"틀렸":7763,"##어ㅏ":7764,"##이니":7765,"##주께":7766,"##방금":7767,"##카지":7768,"##종일":7769,"##ㅂㄷ":7770,"##레기":7771,"있어야":7772,"그렇고":7773,"행복해":7774,"##타롱하구":7775,"17":7776,"LED":7777,"ㅇㅁㅇ":7778,"ㅠㅜ":7779,"경쟁":7780,"낫지":7781,"논문":7782,"목표":7783,"뭐랄까":7784,"부담":7785,"슬퍼":7786,"신호":7787,"싶습니다":7788,"택시":7789,"하게":7790,"한숨":7791,"해요":7792,"했지":7793,"훨씬":7794,"힘내":7795,"##하시":7796,"##인트":7797,"##리러":7798,"##다리":7799,"##해요":7800,"##사친":7801,"##있어":7802,"##왔는데":7803,"##먹구":7804,"##할듯":7805,"##알바":7806,"##레이":7807,"사람도":7808,"아무도":7809,"사이에":7810,"노트북":7811,"과정":7812,"덕분에":7813,"때부터":7814,"모두":7815,"본인":7816,"어딨":7817,"업써":7818,"예뿌":7819,"왔져":7820,"작년":7821,"전까지":7822,"좋다":7823,"최종":7824,"했을":7825,"##어로":7826,"##약간":7827,"##위치":7828,"##도네":7829,"##애가":7830,"##가가":7831,"##모르":7832,"##학생":7833,"##당초":7834,"##있음":7835,"##테니까":7836,"##벌써":7837,"##UT":7838,"나오면":7839,"은경아":7840,"필요한":7841,"##정도면":7842,"##여기서":7843,"들오":7844,"모델":7845,"병원":7846,"빡세":7847,"수는":7848,"싸우":7849,"아는데":7850,"안와":7851,"업떠":7852,"예쁜":7853,"와또":7854,"원하는":7855,"위한":7856,"일본":7857,"전체":7858,"카드":7859,"##진다":7860,"##짜리":7861,"##기면":7862,"##도착":7863,"##너도":7864,"##주의":7865,"##되어":7866,"##ce":7867,"##저는":7868,"##행복":7869,"댕아댕아나":7870,"##이라구":7871,"내일은":7872,"있을까":7873,"##오빠는":7874,"사랑해♡":7875,"이해가":7876,"머거여":7877,"si":7878,"가족":7879,"골라":7880,"구박":7881,"그리구":7882,"머거야":7883,"보이는":7884,"빅데이터":7885,"있오":7886,"자기가":7887,"피자":7888,"##어떻게":7889,"##ost":7890,"##해따":7891,"##볼까":7892,"##부러":7893,"##내서":7894,"##와중에":7895,"##코테":7896,"##an":7897,"ㅠㅠ댕아":7898,"##으로도":7899,"ㅎㅎㅋㅋㅋㅋ":7900,"잘자여":7901,"회사에서":7902,"져아해":7903,"##어야지":7904,"끝나쪄":7905,"가는중":7906,"괜찮은":7907,"19":7908,"당황":7909,"딱히":7910,"맛나게":7911,"맞네":7912,"뭔소리":7913,"보면서":7914,"분야":7915,"시스템":7916,"아저씨":7917,"안해서":7918,"재미":7919,"중인데":7920,"참여":7921,"특히":7922,"학점":7923,"회식":7924,"##그니까":7925,"##니터":7926,"##더라고":7927,"##ㄷ0":7928,"##시다":7929,"##봤자":7930,"##겠징":7931,"##했다고":7932,"##ㅅ는데":7933,"ㅋㅋㅋㅋ와":7934,"댕이나":7935,"댕아♡":7936,"##으로는":7937,"사랑하는":7938,"모르고":7939,"타롱해♡":7940,"15분":7941,"1번":7942,"ans":7943,"결제":7944,"된다":7945,"때가":7946,"많고":7947,"못하":7948,"못해서":7949,"받아서":7950,"쉽게":7951,"실패":7952,"읽어":7953,"할머니":7954,"했자나":7955,"##더더":7956,"##나요":7957,"##로는":7958,"##운동":7959,"##만히":7960,"##마리":7961,"##려는":7962,"##겠습니다":7963,"##50":7964,"##왜냐면":7965,"##재밌":7966,"##뭐지":7967,"##받아":7968,"##렸는데":7969,"##ㅔㅔ":7970,"만나는":7971,"시간에":7972,"끝나구":7973,"##은경이":7974,"##가지구":7975,"오디야":7976,"200":7977,"60":7978,"나보다":7979,"남은":7980,"담에":7981,"대단":7982,"말하":7983,"뭐라고":7984,"써도":7985,"에어":7986,"연봉":7987,"이또":7988,"일주일":7989,"주안":7990,"##그치":7991,"##자구":7992,"##언니":7993,"##일까":7994,"##시미":7995,"##유ㅓ":7996,"##말이":7997,"##있는데":7998,"##래도":7999,"##ㅍㅍ":8000,"##저건":8001,"##바부":8002,"##식을":8003,"##맞아":8004,"##처리":8005,"##ㅈㄴ":8006,"ㅋㅋㅋㅋㅋㅋㅋㅋㅋㅋㅋㅋ댕이":8007,"##잘자떠":8008,"##ㅎㅋㅎㅋㅎㅋㅎㅋ":8009,"##아직도":8010,"str":8011,"기간":8012,"넘넘":8013,"때까지":8014,"말하고":8015,"바라":8016,"분명":8017,"사회":8018,"삼전":8019,"새끼":8020,"케이스":8021,"해줄":8022,"##이걸":8023,"##도희":8024,"##마어":8025,"##라가":8026,"##시로":8027,"##준다":8028,"##ude":8029,"##져아":8030,"##내고":8031,"##ㄱㅋㅋㅋㅋ":8032,"##조금":8033,"##워니":8034,"##알고":8035,"##배고":8036,"##먼저":8037,"ㅋㅋㅋㅋㅋㅋㅋㅋ나":8038,"##그래두":8039,"##int":8040,"물어보":8041,"##어어어어":8042,"돌아가":8043,"##스러운":8044,"이것저것":8045,"en":8046,"글치":8047,"남편":8048,"라즈베리":8049,"못가":8050,"스펙":8051,"시켰":8052,"심각":8053,"앉아":8054,"얘가":8055,"없자나":8056,"이직":8057,"입력":8058,"자세":8059,"작은":8060,"전혀":8061,"축하":8062,"한명":8063,"했음":8064,"##미쳤":8065,"##os":8066,"##너는":8067,"##너랑":8068,"##제가":8069,"##르륵":8070,"##들의":8071,"##했으면":8072,"##당께":8073,"##말고":8074,"##100":8075,"##카페":8076,"##치킨":8077,"##돼서":8078,"##댕이한테":8079,"이러한":8080,"인나떠":8081,"이번주":8082,"11시":8083,"귀여운":8084,"거는":8085,"계산":8086,"괜히":8087,"넘무":8088,"다운":8089,"머리가":8090,"미국":8091,"버즈":8092,"스마트":8093,"써서":8094,"안함":8095,"안됐":8096,"알겠":8097,"에러":8098,"오고":8099,"웃기":8100,"웃긴":8101,"은행":8102,"잡아":8103,"쪼끔":8104,"편지":8105,"함께":8106,"힘드":8107,"##진심":8108,"##하루":8109,"##이번에":8110,"##장님":8111,"##해용":8112,"##과제":8113,"##수랑":8114,"##취업":8115,"##드가":8116,"##선물":8117,"##잠깐":8118,"##rite":8119,"##돌아":8120,"##ㅋㅋㅋㅋㅋㅋㅋㅋㅋㅋㅋㅋㅋㅋㅋㅋㅋㅋㅋㅋㅋㅋㅋ":8121,"ㅋㅋㅋㅋㅋㅋㅋㅋ아":8122,"##해야대":8123,"##이었어":8124,"어디야":8125,"나가서":8126,"나왔는데":8127,"거기서":8128,"3시간":8129,"같기도":8130,"거짓말":8131,"내내":8132,"대표":8133,"돈이":8134,"맞추":8135,"배터":8136,"보다":8137,"불러":8138,"속이":8139,"실수":8140,"안드로이드":8141,"애들은":8142,"오랜만에":8143,"올해":8144,"융냐":8145,"이럴":8146,"자바":8147,"적당히":8148,"처리":8149,"프사":8150,"##였던":8151,"##였습니다":8152,"##하느라":8153,"##이자":8154,"##아버":8155,"##었지":8156,"##잘해떠":8157,"##별로":8158,"##분이":8159,"##났다":8160,"##갈게":8161,"##ㅁㅁ":8162,"##굳이":8163,"##줘떠":8164,"##씻구":8165,"아니라고":8166,"ㅋㅋㅋㅋㅋㅋㅋㅋㅋㅋㅋㅋㅋㅋㅋㅋㅋㅋㅋㅋㅋㅋㅋㅋㅋㅋㅋㅋㅋㅋㅋㅋㅋ":8167,"그러게":8168,"그거는":8169,"##우리가":8170,"있었어":8171,"##ㅌㅌㅌ":8172,"##엄마랑":8173,"##어디서":8174,"3시":8175,"4시":8176,"40":8177,"개인":8178,"거자나":8179,"금요일":8180,"마라":8181,"말씀":8182,"문재":8183,"봐바":8184,"설정":8185,"쉬고":8186,"않음":8187,"오지게":8188,"올리":8189,"우웅":8190,"우린":8191,"졸리":8192,"지쨔":8193,"해보":8194,"했고":8195,"후에":8196,"##성을":8197,"##인디":8198,"##장에":8199,"##음이":8200,"##ㅎㅅㅎ":8201,"##했자나":8202,"##와떠":8203,"##fc":8204,"##세용":8205,"##분위":8206,"##된다":8207,"##99":8208,"##ro":8209,"##년도":8210,"##ㅋㅋㅋㅋ오":8211,"들어왔":8212,"문제는":8213,"##ㅋㅋㅋㅋㅋㅋㅋㅋㅋㅋㅋㅋㅋㅋㅋㅋㅋㅋㅋㅋㅋㅋㅋㅋㅋㅋㅋㅋㅋㅋㅋㅋㅋㅋㅋㅋㅋㅋㅋㅋㅋㅋㅋㅋㅋㅋㅋㅋㅋㅋㅋㅋㅋㅋㅋㅋㅋㅋㅋㅋㅋㅋㅋㅋ":8214,"어디가":8215,"저녁에":8216,"정도는":8217,"물어봤":8218,"생각해보니까":8219,"하루종일":8220,"안된다":8221,"스타일":8222,"중간에":8223,"주말에":8224,"3년":8225,"가방":8226,"것보다":8227,"계약":8228,"기엽":8229,"나은":8230,"넘어서":8231,"데려":8232,"들을":8233,"상처":8234,"생활":8235,"아래":8236,"어떠":8237,"에이":8238,"예전에":8239,"인간":8240,"있잖아":8241,"자려구":8242,"제어":8243,"제발":8244,"직장":8245,"충격":8246,"치마":8247,"##짜증":8248,"##야함":8249,"##감이":8250,"##모야":8251,"##동기":8252,"##비가":8253,"##fs":8254,"##되게":8255,"##듯이":8256,"##cl":8257,"##저렇게":8258,"##케이션":8259,"##배가":8260,"##등학교":8261,"그러네":8262,"##지금은":8263,"몰라서":8264,"기분이":8265,"프로그램":8266,"##ead":8267,"사롱하구":8268,"5시":8269,"고딩":8270,"그론":8271,"나눠":8272,"노노":8273,"다리":8274,"두번":8275,"멘토":8276,"백엔드":8277,"보는데":8278,"스스로":8279,"아쥬":8280,"안고":8281,"안하면":8282,"익숙":8283,"있게":8284,"자는":8285,"잠만":8286,"테스트":8287,"##그리구":8288,"##데이트":8289,"##자의":8290,"##구야":8291,"##이구":8292,"##지하철":8293,"##야징":8294,"##다들":8295,"##으까":8296,"##거얌":8297,"##상을":8298,"##했음":8299,"##19":8300,"##있고":8301,"##물어":8302,"##물이":8303,"##뭐라":8304,"##할텐데":8305,"##계가":8306,"##긴한데":8307,"##꾸야":8308,"##개발":8309,"##wit":8310,"##ㅋㅋㅋㅋ댕이":8311,"모르겠고":8312,"구래구래":8313,"ㅠㅠㅠㅠㅠㅠㅠㅠㅠㅠ":8314,"##얼마나":8315,"##witch":8316,"5장":8317,"8ㅅ8":8318,"SOS":8319,"dig":8320,"간단":8321,"감동":8322,"거에":8323,"겁나":8324,"그리":8325,"글쎄":8326,"기대":8327,"너를":8328,"더욱":8329,"되니까":8330,"드는":8331,"매우":8332,"못함":8333,"비싼":8334,"싶었":8335,"안남":8336,"없으니까":8337,"연차":8338,"월급":8339,"잘겡":8340,"저번에":8341,"전여친":8342,"집중":8343,"채용":8344,"피고":8345,"할게":8346,"해주는":8347,"##였다":8348,"##하군":8349,"##하라고":8350,"##인은":8351,"##이당":8352,"##지니":8353,"##겠다는":8354,"##들고":8355,"##들이랑":8356,"##한게":8357,"##네가":8358,"##되지":8359,"##할거야":8360,"##현재":8361,"##땡이":8362,"##la":8363,"##블리":8364,"##ze":8365,"##느냐":8366,"##홧팅":8367,"##ㅋㅋㅋㅋㅋㅋㅋㅋㅋㅋㅋㅋㅋㅋㅋㅋㅋㅋㅋㅋㅋㅋ":8368,"##ㅋㅋㅋㅋㅋㅋㅋㅋㅋㅋㅋㅋㅋㅋㅋㅋㅋㅋㅋㅋㅋㅋㅋㅋㅋㅋㅋ":8369,"있었습니다":8370,"이러면":8371,"알았어":8372,"##ital":8373,"옹동아":8374,"어려운":8375,"##도네시아":8376,"digital":8377,"Switch":8378,"가슴":8379,"공유":8380,"기능":8381,"까먹":8382,"동방":8383,"드라":8384,"문자":8385,"밑에":8386,"생긴":8387,"소비":8388,"수학":8389,"안쓰":8390,"어린":8391,"없구":8392,"예뻐":8393,"오때":8394,"의견":8395,"있구":8396,"자식":8397,"잘생":8398,"키워":8399,"##기다":8400,"##하거나":8401,"##위에":8402,"##이뿌":8403,"##ㅐㅐ":8404,"##아파":8405,"##시면":8406,"##ss":8407,"##한텐":8408,"##난다":8409,"##신가":8410,"##신청":8411,"##무조건":8412,"##형이":8413,"##케팅":8414,"##ail":8415,"사람을":8416,"그러지":8417,"엄마는":8418,"얘기하는":8419,"만들어서":8420,"이러면서":8421,"안해도":8422,"갈아입":8423,"비슷한":8424,"##동영상동영상":8425,"1000":8426,"2주":8427,"걸리":8428,"계획":8429,"괜차나":8430,"그지":8431,"링크":8432,"먹지":8433,"문경":8434,"받으면":8435,"보이":8436,"설치":8437,"실제로":8438,"오후":8439,"오껭":8440,"용돈":8441,"인적성":8442,"일을":8443,"일요일":8444,"접근":8445,"주소":8446,"찍은":8447,"최대한":8448,"활동":8449,"##였나":8450,"##였지":8451,"##였음":8452,"##생이":8453,"##이군":8454,"##장을":8455,"##다행":8456,"##해줘서":8457,"##부모":8458,"##들한테":8459,"##문에":8460,"##되서":8461,"##씨가":8462,"##먹는":8463,"##바지":8464,"##렸다":8465,"##ㅃㄹ":8466,"##ㅋㅋㅋㅋㅋㅋㅋㅋㅋㅋㅋㅋㅋㅋㅋㅋㅋㅋㅋㅋㅋㅋㅋㅋㅋㅋㅋㅋ":8467,"##아니야":8468,"오빠한테":8469,"하나하나":8470,"이러는":8471,"##고생해또":8472,"##지구청":8473,"7시":8474,"가격":8475,"갖구":8476,"고쳐":8477,"괴롭":8478,"나라":8479,"내꺼":8480,"높은":8481,"대기업":8482,"말할":8483,"매번":8484,"머그러":8485,"몇번":8486,"빠르게":8487,"사서":8488,"사과":8489,"싶지":8490,"아나":8491,"안드":8492,"에휴":8493,"예배":8494,"오지":8495,"위주":8496,"이고":8497,"이것도":8498,"이은경":8499,"자나":8500,"자취":8501,"조심":8502,"체크":8503,"휴가":8504,"##어여":8505,"##어쩌":8506,"##아닌":8507,"##야겠당":8508,"##마곡":8509,"##뭐야":8510,"##치면":8511,"ㅋㅋㅋㅋ내가":8512,"##댕이를":8513,"ㅋㅋㅋㅋㅋㅋㅋㅋ댕아":8514,"##♡♡ㅋㅋㅋㅋ":8515,"생각하면":8516,"들어갔":8517,"10시":8518,"가야지":8519,"##생각해보":8520,"##ㅣㅣㅣㅣ":8521,"300":8522,"갔다가":8523,"같지":8524,"걸어":8525,"검사":8526,"그려":8527,"끝날":8528,"나갔":8529,"담주":8530,"들으면":8531,"떠오":8532,"몸이":8533,"무리":8534,"백준":8535,"버리고":8536,"벌어":8537,"블로그":8538,"안자":8539,"좋고":8540,"지수":8541,"최근":8542,"후후":8543,"##어때":8544,"##기사":8545,"##하까":8546,"##구랭":8547,"##이잉":8548,"##애초에":8549,"##대학":8550,"##장은":8551,"##소개":8552,"##해져":8553,"##보여":8554,"##보드":8555,"##모해":8556,"##버거":8557,"##스는":8558,"##원이":8559,"##네요":8560,"##♡나":8561,"##코로나":8562,"##드려":8563,"##죠아":8564,"##바일":8565,"##확실":8566,"##혼자":8567,"ㅋㅋㅋㅋ난":8568,"아니자나":8569,"생각은":8570,"있을게":8571,"incl":8572,"##그러고":8573,"찌찌야":8574,"include":8575,"2차":8576,"9시":8577,"건강":8578,"내리":8579,"너네":8580,"더워":8581,"도망":8582,"되자나":8583,"머시":8584,"바쁜":8585,"반차":8586,"버려":8587,"봐서":8588,"부탁":8589,"쓰지":8590,"안하":8591,"여름":8592,"있대":8593,"잘장":8594,"쟈철":8595,"전기":8596,"집으로":8597,"첨에":8598,"치고":8599,"클래":8600,"##oid":8601,"##이든":8602,"##만나":8603,"##아님":8604,"##해줄":8605,"##스를":8606,"##당연":8607,"##30분":8608,"##줬으면":8609,"##트가":8610,"##무리":8611,"##바닥":8612,"##갈비":8613,"##완전":8614,"##롯데":8615,"우리집":8616,"ㅋㅋㅋㅋㅋㅋㅋㅋㅋㅋㅋㅋㅋㅋㅋㅋㅋㅋㅋㅋㅋㅋㅋㅋㅋㅋㅋㅋㅋㅋㅋㅋㅋㅋㅋㅋ":8617,"오빠랑":8618,"물어봐":8619,"피곤해서":8620,"##옹동이":8621,"이후로":8622,"은굥이":8623,"보굽파":8624,"27":8625,"기계":8626,"대회":8627,"데리러":8628,"맛있는":8629,"먹기":8630,"모름":8631,"반응":8632,"보자":8633,"봤어":8634,"분위":8635,"뽑뽀":8636,"샐러드":8637,"수강":8638,"실력":8639,"안한":8640,"애당초":8641,"위치":8642,"중국":8643,"지워":8644,"확진":8645,"##로만":8646,"##하셨":8647,"##인천":8648,"##을거야":8649,"##대에":8650,"##해봐":8651,"##해ㅋㅋㅋㅋ":8652,"##um":8653,"##is":8654,"##때는":8655,"##잘못":8656,"##래서":8657,"##ㄴ데":8658,"##몰라":8659,"공부하고":8660,"잘못한":8661,"친구가":8662,"##스트코":8663,"이따가":8664,"아침부터":8665,"사라져":8666,"배고프":8667,"호고동":8668,"23":8669,"간당":8670,"감정":8671,"것이":8672,"것처럼":8673,"공채":8674,"교회":8675,"금방":8676,"나타":8677,"내고":8678,"단어":8679,"마찬":8680,"맞았":8681,"먹은":8682,"못할":8683,"배가":8684,"번도":8685,"보낼":8686,"불쌍":8687,"싫은":8688,"안아":8689,"안해주":8690,"안들어":8691,"얌마":8692,"예상":8693,"오른":8694,"월요일":8695,"이론":8696,"조아":8697,"좋을":8698,"창업":8699,"쳐다":8700,"하던":8701,"한두":8702,"합니다":8703,"해줘":8704,"화면":8705,"확신":8706,"##생활":8707,"##에엥":8708,"##다니까":8709,"##오호":8710,"##주가":8711,"##버림":8712,"##경영":8713,"##세상":8714,"##60":8715,"##ㄱㅋㅋㅋㅋㅋ":8716,"##머님":8717,"생각도":8718,"도착하면":8719,"오빠도":8720,"##ㅏㅏㅏ":8721,"ㅜㅜㅜ":8722,"문제를":8723,"공부를":8724,"안되는데":8725,"이미지":8726,"처음에":8727,"끝났져":8728,"##ent":8729,"보구싶당":8730,"새로운":8731,"9200":8732,"led":8733,"re":8734,"가만히":8735,"곳이":8736,"그만큼":8737,"꾸준":8738,"끝까지":8739,"냄새":8740,"누워":8741,"눌러":8742,"드디어":8743,"라인":8744,"만큼":8745,"먹여":8746,"모터":8747,"바지":8748,"방학":8749,"사러":8750,"실화":8751,"쓰러":8752,"않냐":8753,"인성":8754,"있다가":8755,"지켜":8756,"투자":8757,"페북":8758,"해주고":8759,"흐음":8760,"##어져":8761,"##나보다":8762,"##기야":8763,"##이플":8764,"##리케이션":8765,"##피티":8766,"##오휴":8767,"##졌다":8768,"##라는데":8769,"##러워":8770,"##시러":8771,"##떠ㅋㅋㅋㅋ":8772,"##때도":8773,"##프트":8774,"##회의":8775,"##ㄱㅋㅋㅋㅋㅋㅋ":8776,"##머지는":8777,"##랜드":8778,"##ㅋㅋㅋㅋㅋㅋㅋㅋㅋㅋㅋㅋㅋㅋㅋㅋㅋㅋㅋㅋㅋㅋㅋㅋㅋㅋㅋㅋㅋ":8779,"##한테는":8780,"ㅋㅋ이거":8781,"##하지마":8782,"미안한데":8783,"##ㅜㅜㅜ":8784,"남자애":8785,"##내일은":8786,"##스트로":8787,"요즘에":8788,"12시":8789,"느낌이":8790,"상황이":8791,"##ㅇㅋㅇㅋ":8792,"같긴한데":8793,"바보야":8794,"##웃기넼":8795,"왔다갔다":8796,"##라우드":8797,"90":8798,"거잖아":8799,"결론":8800,"공대":8801,"구글":8802,"낼봐":8803,"누군":8804,"마케팅":8805,"물리":8806,"배우":8807,"보지":8808,"삼겹살":8809,"세계":8810,"싶다고":8811,"쓰레기":8812,"알람":8813,"오프":8814,"이라고":8815,"점수":8816,"집안":8817,"풀고":8818,"플젝":8819,"할수":8820,"할래":8821,"활용":8822,"##그로":8823,"##그나저나":8824,"##기간":8825,"##인뎅":8826,"##서울":8827,"##장히":8828,"##으려고":8829,"##해지":8830,"##주지":8831,"##게임":8832,"##한가":8833,"##냐하면":8834,"##분투":8835,"##힘들":8836,"##반기":8837,"##타이":8838,"##am":8839,"##양이":8840,"##출발":8841,"##찾아":8842,"##댱아":8843,"ㅋㅋㅋㅋㅋㅋㅋㅋㅋㅋㅋㅋㅋㅋㅋㅋㅋㅋㅋㅋㅋㅋㅋㅋㅋㅋㅋㅋㅋㅋㅋㅋㅋㅋ":8844,"그렇다고":8845,"끝나서":8846,"생각해보면":8847,"##eri":8848,"짜증나":8849,"##후후후후":8850,"안된다고":8851,"가르":8852,"거다":8853,"계절":8854,"기말":8855,"대로":8856,"돈을":8857,"됐어":8858,"말까":8859,"맞음":8860,"머신":8861,"모른":8862,"모바일":8863,"버전":8864,"빠져":8865,"설거지":8866,"세수":8867,"소설":8868,"싶을":8869,"어이":8870,"여성":8871,"와이":8872,"이야":8873,"전자":8874,"쨌든":8875,"참고로":8876,"청소":8877,"충전":8878,"프린":8879,"해봐":8880,"해놓고":8881,"##어진":8882,"##였으면":8883,"##그랬":8884,"##로운":8885,"##고마워":8886,"##아냉":8887,"##가구":8888,"##소에":8889,"##소마":8890,"##거라고":8891,"##었나":8892,"##준비":8893,"##했대":8894,"##ㅇ이":8895,"##ㅇ아":8896,"##할래":8897,"##치네":8898,"##차낭":8899,"##받는":8900,"##노트":8901,"##dd":8902,"##wow":8903,"##큐ㅠㅠㅠㅠ":8904,"##ㅋㅋㅋㅋ아":8905,"ㅋㅋㅋㅋ근데":8906,"##ㅋㅋㅋㅋㅋㅋㅋㅋㅋㅋㅋㅋㅋㅋㅋㅋㅋㅋㅋㅋㅋㅋㅋㅋㅋ":8907,"##이라면":8908,"하나는":8909,"시간은":8910,"안되고":8911,"안되지":8912,"나오고":8913,"필요해":8914,"교수님이":8915,"맛있게":8916,"충분히":8917,"size":8918,"IT":8919,"pin":8920,"ㅈㄹ":8921,"가게":8922,"갖다":8923,"기반":8924,"낼바":8925,"눈이":8926,"다섯":8927,"따라서":8928,"맞고":8929,"반대":8930,"발견":8931,"봐야":8932,"부서":8933,"사면":8934,"싶다는":8935,"어찌":8936,"이찌":8937,"작성":8938,"정상":8939,"타이":8940,"한대":8941,"해당":8942,"헷갈":8943,"환불":8944,"##그그":8945,"##하진":8946,"##인다":8947,"##구냥":8948,"##크림":8949,"##었다고":8950,"##겠넹":8951,"##얘기":8952,"##했구":8953,"##1번":8954,"##와여":8955,"##사는":8956,"##pi":8957,"##타고":8958,"##된다고":8959,"##rint":8960,"##월에":8961,"##메라":8962,"##쯤에":8963,"##웨어":8964,"##담주":8965,"##랫폼":8966,"##ㅋㅋㅋㅋㅋㅋㅋㅋㅋㅋㅋㅋㅋㅋㅋㅋㅋㅋㅋㅋㅋㅋㅋㅋㅋㅋ":8967,"##이라는데":8968,"도착해서":8969,"들어오":8970,"만나러":8971,"해야하나":8972,"회사가":8973,"고생했져":8974,"아이디":8975,"떨어졌":8976,"말해죠":8977,"30장":8978,"##에에에에":8979,"##타롱햐":8980,"일어날":8981,"##미안해":8982,"##etu":8983,"보기엔":8984,"def":8985,"1분":8986,"3일":8987,"35":8988,"us":8989,"wow":8990,"가정":8991,"개많":8992,"굥이":8993,"날이":8994,"너의":8995,"당요":8996,"댜깅":8997,"돼서":8998,"딥러닝":8999,"막차":9000,"말라":9001,"보안":9002,"불가":9003,"빠르":9004,"사야":9005,"새벽":9006,"생기":9007,"스위치":9008,"싶으면":9009,"양심":9010,"엔지니":9011,"온라인":9012,"와써":9013,"움직":9014,"이뽀":9015,"자서":9016,"잠이":9017,"재빈":9018,"졸려서":9019,"주면":9020,"지가":9021,"타면":9022,"통과":9023,"팩트":9024,"하라고":9025,"##어느":9026,"##미리":9027,"##기억":9028,"##는거":9029,"##이랬":9030,"##안돼":9031,"##용이":9032,"##대신":9033,"##리게":9034,"##2번":9035,"##해가":9036,"##보내":9037,"##흐움":9038,"##시만":9039,"##스에":9040,"##한다구":9041,"##단계":9042,"##사롱":9043,"##점을":9044,"##pp":9045,"##금티":9046,"##저게":9047,"##워크":9048,"##백동원":9049,"##량화":9050,"##씻고":9051,"##응응":9052,"##댓글":9053,"##읽씹":9054,"##럭시":9055,"ㅋㅋㅋㅋㅋㅋㅋㅋㅋ댕이":9056,"도착했어":9057,"##그래밍":9058,"해야대":9059,"##지금까지":9060,"들어가구":9061,"물어본":9062,"##스럽게":9063,"백동원님이":9064,"##hile":9065,"##erial":9066,"define":9067,"80":9068,"ma":9069,"가입":9070,"간다고":9071,"갔는데":9072,"광고":9073,"능력":9074,"다이":9075,"대상":9076,"댕니":9077,"동시에":9078,"되긴":9079,"라이":9080,"모니터":9081,"뭔뎈":9082,"뭘까":9083,"빌려":9084,"오오오오오":9085,"오에스":9086,"올렸":9087,"은표":9088,"이전":9089,"정석":9090,"초딩":9091,"컴파일":9092,"타구":9093,"페미":9094,"해보고":9095,"했져":9096,"했잖아":9097,"헐랭":9098,"##그야":9099,"##하다는":9100,"##하세요":9101,"##고민":9102,"##인을":9103,"##서버":9104,"##지기":9105,"##에바":9106,"##해줬":9107,"##음을":9108,"##마우":9109,"##상관":9110,"##컴공":9111,"##파이썬":9112,"##들어가":9113,"##터디":9114,"##사라":9115,"##있었":9116,"##있어서":9117,"##귀엽":9118,"##찌개":9119,"##ㄱㅅ":9120,"##ai":9121,"##좀만":9122,"##댕이댕이":9123,"##우리는":9124,"이런식으로":9125,"있어도":9126,"해야하는":9127,"안되서":9128,"남자는":9129,"점심은":9130,"##어어어":9131,"##이래서":9132,"동생이":9133,"##이번주":9134,"대학원":9135,"보구싶다":9136,"어플리케이션":9137,"2시":9138,"70":9139,"거얌":9140,"걸렸":9141,"나보고":9142,"대부분":9143,"도시":9144,"동워니":9145,"듣구":9146,"매력":9147,"받기":9148,"비트":9149,"살려":9150,"승연":9151,"싶고":9152,"씻으러":9153,"예민":9154,"자연":9155,"작업":9156,"잘하는":9157,"적은":9158,"천재":9159,"헬스":9160,"흠냐":9161,"##어쩔":9162,"##니당":9163,"##이지만":9164,"##을걸":9165,"##가락":9166,"##지나":9167,"##에여":9168,"##해진":9169,"##오께":9170,"##마디":9171,"##한달":9172,"##한시간":9173,"##귀탱":9174,"##두고":9175,"##ck":9176,"##드리":9177,"##할수":9178,"##re":9179,"##삭제":9180,"##쟁이":9181,"##ㅋㅋㅋㅋ댕아":9182,"생각해서":9183,"지금도":9184,"들어와":9185,"들어갈":9186,"##이거든":9187,"만나자":9188,"##해야하는데":9189,"있었고":9190,"##해주께":9191,"알아떠":9192,"##하기도":9193,"그랬는데":9194,"공방에":9195,"공방에서":9196,"##all":9197,"부분이":9198,"재밌게":9199,"서비스를":9200,"나쁘지":9201,"##아빠가":9202,"3분":9203,"4개":9204,"40분":9205,"5번":9206,"6개월":9207,"8시":9208,"가용":9209,"거여":9210,"것인가":9211,"그동안":9212,"그나저나":9213,"그나마":9214,"기존":9215,"꿈을":9216,"돈까":9217,"된다고":9218,"될듯":9219,"말대로":9220,"못했":9221,"무섭":9222,"뽑아":9223,"스터디":9224,"안전":9225,"애는":9226,"어셈":9227,"업무":9228,"없지만":9229,"완벽":9230,"인후":9231,"일요일에":9232,"잃어버":9233,"있냐":9234,"포인트":9235,"하텍":9236,"하자나":9237,"하려고":9238,"학습":9239,"할지":9240,"함수":9241,"해외":9242,"했다고":9243,"확정":9244,"##였고":9245,"##나만":9246,"##나를":9247,"##기엔":9248,"##로로":9249,"##로써":9250,"##하려면":9251,"##아하":9252,"##은굥":9253,"##21":9254,"##냥이":9255,"##해졌":9256,"##거자나":9257,"##보이스톡":9258,"##주구":9259,"##모든":9260,"##학기에":9261,"##시숲":9262,"##준다고":9263,"##ue":9264,"##ul":9265,"##과목":9266,"##15":9267,"##건지":9268,"##3번":9269,"##분당":9270,"##키로":9271,"##늦게":9272,"##차가":9273,"##lo":9274,"##te":9275,"##향이":9276,"##끝나":9277,"##ㅓ아":9278,"##둘이":9279,"##PUT":9280,"ㅋㅋㅋㅋ너":9281,"생각합니다":9282,"이거는":9283,"있었음":9284,"##더라구":9285,"히히댕이":9286,"해주께":9287,"##아무리":9288,"속상해":9289,"##이어트":9290,"디자이너":9291,"에어컨":9292,"500":9293,"data":9294,"kfc":9295,"void":9296,"같앙":9297,"같다고":9298,"그와중에":9299,"깔끔":9300,"나간":9301,"놀구":9302,"답이":9303,"돼지":9304,"마주":9305,"문항":9306,"미세":9307,"반복":9308,"배불":9309,"배려":9310,"봐봐":9311,"붙여":9312,"비번":9313,"수지구청":9314,"쉬운":9315,"쉽지":9316,"아픈":9317,"안놀":9318,"암것도":9319,"어딜":9320,"옆에서":9321,"옹댕이":9322,"옹댕아":9323,"이뿐":9324,"인도네시아":9325,"좋았":9326,"좋아서":9327,"중고":9328,"중에서":9329,"찾았":9330,"취급":9331,"플랫폼":9332,"하냐":9333,"할듯":9334,"했지만":9335,"##자를":9336,"##하라":9337,"##용쓰":9338,"##화이팅":9339,"##대충":9340,"##리를":9341,"##다매":9342,"##오래":9343,"##었대":9344,"##었자나":9345,"##공학":9346,"##방에서":9347,"##버린":9348,"##올게":9349,"##혀서":9350,"##때까지":9351,"##님한테":9352,"##줌마":9353,"##두부":9354,"##ve":9355,"##놓은":9356,"##드라":9357,"##트로":9358,"##먹을":9359,"##치기":9360,"##받고":9361,"##갈아":9362,"##온다":9363,"##처넌":9364,"##책임":9365,"##햌ㅅ":9366,"##갖고":9367,"##댕이의":9368,"생각했":9369,"웅냐아":9370,"타롱하는":9371,"만나고":9372,"##해야하는":9373,"저나하구":9374,"안되면":9375,"이러는데":9376,"##오빠랑":9377,"은경이는":9378,"나가면":9379,"떨어진":9380,"##타롱해♡":9381,"다행이다":9382,"arr1":9383,"##이러고":9384,"갈아타":9385,"세상에서":9386,"##ㅓㅓㅓㅓ":9387,"어느정도":9388,"모르게써":9389,"##플로우":9390,"꾸준히":9391,"1차":9392,"50분":9393,"test":9394,"갈래":9395,"그랭":9396,"그림":9397,"금요일에":9398,"깨달":9399,"끝난":9400,"남겨":9401,"되겠지":9402,"들은":9403,"따뜻":9404,"메모":9405,"받지":9406,"배운":9407,"배웠":9408,"배우고":9409,"빤니":9410,"시킨":9411,"안했는데":9412,"어울":9413,"여유":9414,"예뿌니":9415,"위로":9416,"자면":9417,"적응":9418,"즐거":9419,"지랄":9420,"찆쯰":9421,"토요일":9422,"특별":9423,"평가":9424,"흑흑":9425,"##그것도":9426,"##니저":9427,"##자소서":9428,"##도로":9429,"##도라":9430,"##도우":9431,"##가면서":9432,"##리기":9433,"##지원":9434,"##언어":9435,"##일어나":9436,"##ㅋㅌ":9437,"##오케":9438,"##오는데":9439,"##거장":9440,"##주차":9441,"##여행":9442,"##의점":9443,"##버리고":9444,"##디자":9445,"##럽다":9446,"##따라":9447,"##알써":9448,"##머해":9449,"##호호":9450,"##맞는":9451,"##페이":9452,"##엉엉":9453,"##좋아":9454,"##Mode":9455,"ㅋㅋ오":9456,"10년":9457,"##♡♡♡ㅋㅋㅋㅋ":9458,"##ㄱㄱㅋ":9459,"기다리는":9460,"##ㄷㄷㄷㄷㄷㄷㄷㄷ":9461,"처음부터":9462,"ㅠㅠㅠㅠㅠㅠㅠㅠㅠㅠㅠ":9463,"다니는":9464,"그로묜":9465,"마리야":9466,"삭제된":9467,"마찬가지":9468,"pinMode":9469,"4번":9470,"SW":9471,"sw":9472,"개많이":9473,"걔가":9474,"거란":9475,"계란":9476,"나머지":9477,"눈에":9478,"달려":9479,"데이트":9480,"라면":9481,"마스크":9482,"막히":9483,"말해서":9484,"먹쟈":9485,"부재":9486,"슬프":9487,"시픈":9488,"않은데":9489,"어딘":9490,"없나":9491,"없다는":9492,"에서":9493,"에타":9494,"여사친":9495,"연습":9496,"오는데":9497,"올린":9498,"왼쪽":9499,"유명":9500,"자야지":9501,"초코":9502,"친한":9503,"탔오":9504,"탔당":9505,"프리":9506,"허락":9507,"희망":9508,"##어보":9509,"##어ㅋㅋㅋㅋ":9510,"##그대로":9511,"##자누":9512,"##기야오":9513,"##하겠다":9514,"##을게":9515,"##가다":9516,"##에다가":9517,"##흐음":9518,"##의미":9519,"##올라":9520,"##네ㅋㅋㅋㅋ":9521,"##문이":9522,"##ㅇㅈ":9523,"##바바":9524,"##바람":9525,"##워야":9526,"##줘도":9527,"##절대":9528,"##페이스톡":9529,"##졸업":9530,"ㅋㅋㅋㅋ그":9531,"##는데도":9532,"아니얌":9533,"그래떠":9534,"너무너무너무":9535,"ㅋㅋㅋㅋㅋㅋㅋㅋㅋㅋㅋㅋㅋㅋㅋㅋㅋㅋㅋㅋㅋㅋㅋㅋㅋㅋㅋㅋㅋㅋㅋㅋㅋㅋㅋㅋㅋㅋ":9536,"ㅋㅋㅋㅋㅋㅋㅋㅋㅋㅋㅋㅋㅋㅋㅋㅋㅋㅋㅋㅋㅋㅋㅋㅋㅋㅋㅋㅋㅋㅋㅋㅋㅋㅋㅋㅋㅋㅋㅋㅋ":9537,"있는지":9538,"같은디":9539,"미안하구":9540,"나오는데":9541,"여자애":9542,"개발을":9543,"보내는":9544,"생각해도":9545,"기다료":9546,"중요하지":9547,"잘게댕이":9548,"##사랑해♡":9549,"ㅠㅠㅠㅠㅠㅠㅠㅠㅠㅠㅠㅠ":9550,"자신이":9551,"궁금한":9552,"입장에서는":9553,"##귀여워":9554,"28":9555,"65":9556,"el":9557,"가면서":9558,"개웃":9559,"거실":9560,"걸릴":9561,"고기":9562,"곱창":9563,"날아":9564,"더러":9565,"됐는데":9566,"땡이야":9567,"먹을까":9568,"무한":9569,"뭐하는":9570,"실망":9571,"안써":9572,"언젠":9573,"연구":9574,"온대":9575,"와용":9576,"웹툰":9577,"이를":9578,"인하":9579,"일부러":9580,"자용":9581,"정장":9582,"좋게":9583,"죽을":9584,"진짴":9585,"하시":9586,"하늘":9587,"한다는":9588,"해짜나":9589,"##나나":9590,"##자로":9591,"##하잖아":9592,"##이기":9593,"##대도":9594,"##랑께":9595,"##리어":9596,"##지ㅋㅋㅋㅋ":9597,"##은표":9598,"##새끼":9599,"##정은":9600,"##당한":9601,"##한국":9602,"##말구":9603,"##님은":9604,"##되나":9605,"##세계":9606,"##뭐여":9607,"##ㅇ웅":9608,"##빨래":9609,"##연락":9610,"##관이":9611,"##댜기":9612,"##얼굴":9613,"##낼봐":9614,"##넘무":9615,"##센터":9616,"ㅋㅋㅋㅋ사진":9617,"생각했는데":9618,"사랑스러워":9619,"모르는데":9620,"ㅇㅇㅇㅇ":9621,"보내면":9622,"여기까지":9623,"학교에서":9624,"언니가":9625,"##ool":9626,"오프라인":9627,"머신러닝":9628,"else":9629,"1시":9630,"1등":9631,"cs":9632,"공지":9633,"극혐":9634,"근무":9635,"긍께":9636,"나듀":9637,"날씨":9638,"내년":9639,"너만":9640,"늦어":9641,"늦었":9642,"되징":9643,"등록":9644,"똑똑":9645,"물실":9646,"바닥":9647,"바꿨":9648,"방식":9649,"배송":9650,"버튼":9651,"보다가":9652,"본인이":9653,"부끄":9654,"블루":9655,"빼면":9656,"소중":9657,"시로":9658,"시벌":9659,"양재":9660,"예시":9661,"온다":9662,"올리고":9663,"우산":9664,"웅앙":9665,"이사":9666,"저번":9667,"정문":9668,"제품":9669,"주작":9670,"차단":9671,"찾아서":9672,"초큼":9673,"카메라":9674,"팀플":9675,"평균":9676,"피피티":9677,"하더라":9678,"할거":9679,"했으면":9680,"호텔":9681,"희영":9682,"힘이":9683,"##진대":9684,"##나와":9685,"##구리":9686,"##이잖아":9687,"##이구나":9688,"##이것도":9689,"##화가":9690,"##대에서":9691,"##아닠":9692,"##지난":9693,"##야ㅋㅋㅋㅋ":9694,"##오키":9695,"##병원":9696,"##ㅎㅋㅋ":9697,"##려떠":9698,"##겠는데":9699,"##스마":9700,"##얘가":9701,"##임베디드":9702,"##밤에":9703,"##줬는데":9704,"##뽀뽀":9705,"##선을":9706,"##트를":9707,"##냄새":9708,"##희영":9709,"##저히":9710,"##ㄱㅋㅋㅋㅋㅋㅋㅋㅋ":9711,"##ㄱㅋㅋㅋㅋㅋㅋㅋ":9712,"##바이스":9713,"##백준":9714,"##갈까":9715,"##호텔":9716,"##작년":9717,"##흑흑":9718,"댕아내가":9719,"생각에":9720,"도착해또":9721,"만나까":9722,"시간을":9723,"그랬던":9724,"인나서":9725,"마음에":9726,"상황에서":9727,"아파서":9728,"##아아아아아":9729,"조금씩":9730,"##생각보다":9731,"세상에":9732,"이랬는데":9733,"string":9734,"문재인":9735,"##확실히":9736,"2분":9737,"5만원":9738,"tra":9739,"ㄷㄷㄷㄷ":9740,"개봉":9741,"경찰":9742,"구로":9743,"구체":9744,"다가":9745,"단순":9746,"당이":9747,"대해서":9748,"대앵이":9749,"동의":9750,"되구":9751,"마이":9752,"마랴":9753,"만져":9754,"모를":9755,"뭘로":9756,"미팅":9757,"믿고":9758,"반지":9759,"번만":9760,"사죠":9761,"상상":9762,"생겨":9763,"설계":9764,"손절":9765,"쉬는":9766,"시도":9767,"신발":9768,"싸움":9769,"안정":9770,"영빈":9771,"예나":9772,"오타":9773,"이틀":9774,"이젠":9775,"일하고":9776,"자르":9777,"자또":9778,"전환":9779,"정치":9780,"책상":9781,"텐데":9782,"통신":9783,"학기":9784,"해봤":9785,"해봤는데":9786,"행보":9787,"현대":9788,"화가":9789,"후회":9790,"##니깤":9791,"##하당":9792,"##이넹":9793,"##이블":9794,"##화점":9795,"##심이":9796,"##아는":9797,"##24":9798,"##함수":9799,"##었을":9800,"##주세요":9801,"##러리":9802,"##들에게":9803,"##nt":9804,"##초과":9805,"##당ㅋㅋㅋㅋ":9806,"##말도":9807,"##17":9808,"##왔다":9809,"##앞에서":9810,"##토닥":9811,"##옹냐":9812,"##옹댕아":9813,"##알려":9814,"##순위":9815,"ㅋㅋㅋㅋ헐":9816,"생각할":9817,"##하구나":9818,"##0000":9819,"ㅋㅋㅋㅋㅋㅋㅋㅋㅋㅋㅋㅋㅋㅋㅋㅋㅋㅋㅋㅋㅋㅋㅋㅋㅋㅋㅋㅋㅋㅋㅋㅋㅋㅋㅋㅋㅋ":9820,"ㅋㅋㅋㅋㅋㅋㅋㅋㅋㅋㅋㅋㅋㅋㅋㅋㅋㅋㅋㅋㅋㅋㅋㅋㅋㅋㅋㅋㅋㅋㅋㅋㅋㅋㅋ":9821,"하는게":9822,"모르지":9823,"그런데":9824,"그거랑":9825,"엄마도":9826,"##이었음":9827,"10만원":9828,"##해주면":9829,"퇴근해여":9830,"좋아해":9831,"그렇다":9832,"##오빠도":9833,"저녁은":9834,"필요가":9835,"그랬나":9836,"고마어":9837,"물어볼":9838,"인나또":9839,"떨어져":9840,"##ㅎㅋㅎㅋㅎㅋ":9841,"##넘모넘모":9842,"당연하지":9843,"남친이":9844,"경우가":9845,"거시야요":9846,"받으세요":9847,"미세먼":9848,"5개":9849,"while":9850,"가려구":9851,"같다는":9852,"과거":9853,"교통":9854,"교내":9855,"꺼내":9856,"꼰대":9857,"내는":9858,"내려서":9859,"늘어":9860,"담주에":9861,"대놓고":9862,"메이플":9863,"빨간":9864,"살고":9865,"세개":9866,"승재":9867,"싶지만":9868,"아이고":9869,"않으면":9870,"않아서":9871,"않는다":9872,"오바":9873,"요청":9874,"이어":9875,"이루":9876,"인재":9877,"잊어버":9878,"자요":9879,"재수강":9880,"죄송":9881,"주거":9882,"차이가":9883,"쿠팡":9884,"타는":9885,"판단":9886,"하려면":9887,"했다가":9888,"홀랭":9889,"##그것":9890,"##데이":9891,"##op":9892,"##나물":9893,"##로도":9894,"##하장":9895,"##인나":9896,"##인게":9897,"##는가":9898,"##이것":9899,"##을거":9900,"##화장":9901,"##대급":9902,"##일듯":9903,"##해지는":9904,"##오픈":9905,"##라라":9906,"##러스":9907,"##정처기":9908,"##13":9909,"##14":9910,"##앞으로":9911,"##pa":9912,"##났져":9913,"##살이":9914,"##rn":9915,"##개빡":9916,"##개웃곀":9917,"##헤어":9918,"##페이지":9919,"##졸려":9920,"ㅋㅋㅋㅋ내":9921,"ㅠㅠ내가":9922,"생각하":9923,"##아니지":9924,"##이었고":9925,"##이었다":9926,"어디로":9927,"여자는":9928,"힘들어서":9929,"행복하게":9930,"죠아해":9931,"몰라도":9932,"고민중":9933,"올라가":9934,"기여어":9935,"쉬어여":9936,"std":9937,"##마곡나루":9938,"6시에":9939,"ㅎㅋㅋㅋㅋ":9940,"굉장히":9941,"그랴":9942,"내부":9943,"던져":9944,"되서":9945,"두번째":9946,"뜨는":9947,"로그":9948,"만족":9949,"말했는데":9950,"먹어서":9951,"멘탈":9952,"모지":9953,"받음":9954,"밤에":9955,"부르":9956,"부평":9957,"사촌":9958,"시바":9959,"시픈데":9960,"쓰기":9961,"않이":9962,"업데이트":9963,"오해":9964,"외주":9965,"이때":9966,"읽고":9967,"입구":9968,"있겠지":9969,"잌ㅅ":9970,"장인":9971,"조시미":9972,"질투":9973,"참고":9974,"초반":9975,"칼퇴":9976,"통화":9977,"파이":9978,"편하게":9979,"허허":9980,"헤헤":9981,"혁배":9982,"##히영":9983,"##하징":9984,"##서류":9985,"##아야":9986,"##아쥬":9987,"##아닝":9988,"##가용":9989,"##지네":9990,"##클래":9991,"##다닥":9992,"##2년":9993,"##으려나":9994,"##해놓고":9995,"##오잉":9996,"##주말":9997,"##려다가":9998,"##ew":9999,"##한당":10000,"##1년":10001,"##님이랑":10002,"##비는":10003,"##있으면":10004,"##분석":10005,"##치가":10006,"##린지":10007,"##겤ㅅ":10008,"##쟈♡":10009,"##합격":10010,"##렸어":10011,"##없어":10012,"##Write":10013,"##싶다":10014,"##뒤에":10015,"ㅋㅋㅋㅋ이건":10016,"아니네":10017,"그래그래":10018,"우리도":10019,"도착해":10020,"있었던":10021,"해야할":10022,"고생이":10023,"만들어야":10024,"##그러네":10025,"나가는":10026,"##erv":10027,"다음주":10028,"이뿌니가":10029,"##고생해떠":10030,"그걸로":10031,"사라졌":10032,"알려주":10033,"마지막에":10034,"어려워":10035,"##그렇군":10036,"정확히":10037,"ㅎㅎㅎㅎㅎ":10038,"문화경영":10039,"##배고파":10040,"라즈베리파이":10041,"digitalWrite":10042,"위주로":10043,"9200번":10044,"다이소":10045,"1개":10046,"1층":10047,"45":10048,"wh":10049,"갈거":10050,"같구":10051,"같으면":10052,"거나":10053,"관계":10054,"기초":10055,"나누":10056,"단지":10057,"리스트":10058,"막상":10059,"말자":10060,"맞나":10061,"맥주":10062,"모햐":10063,"목요일":10064,"못봐":10065,"뮤ㅓ":10066,"미루":10067,"배열":10068,"버거":10069,"붙어":10070,"비밀":10071,"빠른":10072,"사준":10073,"사와":10074,"살짝":10075,"상담":10076,"속도":10077,"시킬":10078,"실습":10079,"싫어서":10080,"아푸":10081,"안녕":10082,"않지":10083,"없으니":10084,"열정":10085,"오전":10086,"오키":10087,"완성":10088,"외부":10089,"울어":10090,"이쓰":10091,"이혼":10092,"작년에":10093,"잘나":10094,"잘하고":10095,"잡고":10096,"접속":10097,"팀장":10098,"해써":10099,"회장":10100,"##하겠지":10101,"##구마":10102,"##이요":10103,"##이징":10104,"##이름":10105,"##애기":10106,"##만약":10107,"##리도":10108,"##너한테":10109,"##에구":10110,"##에휴":10111,"##마음":10112,"##틀린":10113,"##릴게":10114,"##었오":10115,"##컴퓨터":10116,"##게찌":10117,"##여나":10118,"##했지만":10119,"##때마다":10120,"##전남친":10121,"##동아리":10122,"##사를":10123,"##66":10124,"##명서":10125,"##설마":10126,"##살려":10127,"##속상":10128,"##ab":10129,"##rea":10130,"##커피":10131,"##텐츠":10132,"##욤❓":10133,"##몸이":10134,"##활동":10135,"##OW":10136,"##볶이":10137,"##ㅋㅋㅋㅋㅋㅋㅋㅋㅋㅋㅋㅋㅋㅋㅋㅋㅋㅋㅋㅋㅋㅋㅋㅋㅋㅋㅋㅋㅋㅋ":10138,"##댕이두":10139,"생각함":10140,"사람이랑":10141,"##00일":10142,"그런듯":10143,"공부해야":10144,"회사에":10145,"힝구댕이":10146,"모르겠네":10147,"카톡을":10148,"출발해":10149,"그랬어":10150,"인나따":10151,"이번엔":10152,"가능성":10153,"##ers":10154,"기다리고":10155,"마음을":10156,"##♡♡♡♡♡♡":10157,"##ㅡㅡㅡㅡ":10158,"거기에":10159,"옹동이가":10160,"##어디가":10161,"노력을":10162,"고마워여":10163,"의미가":10164,"머글까":10165,"ㅇㅎㅇㅎ":10166,"##아침에":10167,"000원을":10168,"cout":10169,"해요보이스톡":10170,"들오가":10171,"##잠깐만":10172,"지수쟝":10173,"오른쪽":10174,"##삭제된":10175,"1학년":10176,"6장":10177,"cin":10178,"각자":10179,"걸림":10180,"겨우":10181,"고야":10182,"내리면":10183,"당당":10184,"되어버":10185,"뒤로":10186,"뒤집":10187,"로망":10188,"마쟈":10189,"말만":10190,"망할":10191,"먄해":10192,"먹어도":10193,"먹었어":10194,"무거":10195,"뭔뎅":10196,"믿어":10197,"바꼈":10198,"복잡":10199,"비포":10200,"사건":10201,"살까":10202,"소름":10203,"신고":10204,"심하게":10205,"쓸까":10206,"운이":10207,"이ㅛ":10208,"인데":10209,"인프":10210,"일은":10211,"임마":10212,"잔다":10213,"잤어":10214,"전역":10215,"좋다고":10216,"지식":10217,"직전":10218,"진경":10219,"집착":10220,"출신":10221,"컨셉":10222,"하러":10223,"하까":10224,"하트":10225,"하느라":10226,"할인":10227,"확률":10228,"후문":10229,"##하다구":10230,"##하끄야":10231,"##구로":10232,"##구파":10233,"##아도":10234,"##아프":10235,"##장난":10236,"##오네":10237,"##오ㅑ":10238,"##예인":10239,"##었습니다":10240,"##보기":10241,"##스톤":10242,"##했나":10243,"##18":10244,"##10분":10245,"##질거":10246,"##냐냐":10247,"##냐곸":10248,"##두근":10249,"##신한":10250,"##ㅜㅑ":10251,"##코딩":10252,"##드폰":10253,"##ㅇㄷ":10254,"##ㅇㅁㅇ":10255,"##엄빠":10256,"##th":10257,"##출근":10258,"##낼바":10259,"##등록":10260,"##큐ㅠㅠㅠ":10261,"##옛날":10262,"##ㅋㅋㅋㅋ아니":10263,"ㅋㅋㅋㅋㅋㅋㅋㅋㅋㅋㅋㅋㅋ댕이":10264,"##하는게":10265,"사람한테":10266,"있는거":10267,"하나씩":10268,"얘기를":10269,"##시간이":10270,"문제지":10271,"아냐아냐":10272,"아니라서":10273,"알아야":10274,"미안하다":10275,"##ㅜㅜㅠ":10276,"고마웠":10277,"생각해보니":10278,"가야겠다":10279,"##이이이":10280,"찌찌가":10281,"##잘자여":10282,"가능한":10283,"기다리":10284,"오께♡":10285,"나왔져":10286,"경험이":10287,"사라져떠":10288,"##사람이":10289,"오디가":10290,"##하겠습니다":10291,"시키는":10292,"뭐해욤❓":10293,"##맛있게":10294,"도움이":10295,"드라마":10296,"##ㅃㄹㅃㄹ":10297,"확진자":10298,"##ames":10299,"train":10300,"0x":10301,"2월":10302,"8월":10303,"개꿀":10304,"갤럭시":10305,"거심":10306,"거징":10307,"거리는":10308,"그정도":10309,"김에":10310,"낮잠":10311,"놀고":10312,"됐다":10313,"들었는데":10314,"등등":10315,"마나":10316,"만점":10317,"말함":10318,"말하지":10319,"먹게":10320,"며칠":10321,"뭐든":10322,"반에":10323,"부터":10324,"사자":10325,"사줄":10326,"생리":10327,"시절":10328,"실제":10329,"싶었던":10330,"아버":10331,"아쉬":10332,"아뉘":10333,"아줌마":10334,"안아주":10335,"어머님":10336,"여신":10337,"예를":10338,"은근":10339,"이정도":10340,"일수":10341,"있으니":10342,"잘라":10343,"잘거야":10344,"제한":10345,"제목":10346,"찍고":10347,"참가":10348,"참내":10349,"타쪄":10350,"탔는데":10351,"푸는":10352,"한마디":10353,"##나의":10354,"##자낰":10355,"##로워":10356,"##는다고":10357,"##만이":10358,"##대면":10359,"##지에":10360,"##에만":10361,"##야돼":10362,"##25":10363,"##소설":10364,"##으라고":10365,"##오히려":10366,"##오에스":10367,"##요♡":10368,"##감을":10369,"##려궁":10370,"##교육":10371,"##수를":10372,"##결이":10373,"##냐는":10374,"##무원":10375,"##봐바":10376,"##치지":10377,"##석이":10378,"##ㄱㅋㅋㅋㅋㅋㅋㅋㅋㅋ":10379,"##린데":10380,"##종설":10381,"##립니다":10382,"##갈겡":10383,"##ys":10384,"##괜히":10385,"##호관":10386,"##열심히":10387,"##필요":10388,"##랬는데":10389,"아니잖아":10390,"생각하지":10391,"우리의":10392,"ㅋㅋㅋㅋㅋㅋㅋ댕이":10393,"##ㅎㅎㅎ":10394,"사진은":10395,"##해야겠다":10396,"##이었으면":10397,"있어요":10398,"아무래도":10399,"물어보고":10400,"중요해":10401,"아빠랑":10402,"떨어지면":10403,"이뿌니는":10404,"많아여":10405,"애들도":10406,"먹어여":10407,"##ate":10408,"##이어떠":10409,"커플티":10410,"인터뷰":10411,"엄빠랑":10412,"안좋아":10413,"##오디야":10414,"탔어용":10415,"무서워":10416,"##lay":10417,"2점":10418,"2명":10419,"4학년":10420,"59":10421,"is":10422,"ㅂㅅ":10423,"갈거야":10424,"갑댜기":10425,"같던데":10426,"개웃곀":10427,"거래":10428,"건너":10429,"걸린":10430,"걸어가":10431,"곳에":10432,"곳에서":10433,"교수":10434,"구매":10435,"국내":10436,"끊어":10437,"나고":10438,"나면":10439,"내릴":10440,"노는":10441,"누르면":10442,"돼써":10443,"들었어":10444,"땡이가":10445,"룽냐":10446,"만낭":10447,"많지":10448,"많네":10449,"머겄":10450,"뭐고":10451,"바꿀":10452,"밖에서":10453,"방송":10454,"보이스톡":10455,"본사":10456,"부딪":10457,"상대":10458,"손해":10459,"수시":10460,"싫다고":10461,"싶기도":10462,"않게":10463,"어휴":10464,"언어":10465,"없오":10466,"없떠":10467,"올래":10468,"옴총":10469,"인날":10470,"자유":10471,"장단":10472,"재택":10473,"전문":10474,"절반":10475,"좋구":10476,"줄어":10477,"찾는":10478,"추워":10479,"탔옹":10480,"틀린":10481,"편의점":10482,"하니":10483,"하금티":10484,"한잔":10485,"할라":10486,"해준":10487,"해쪄":10488,"해줬":10489,"해본":10490,"##어이":10491,"##그랴서":10492,"##하넹":10493,"##누군":10494,"##위로":10495,"##는ㄷ0":10496,"##제어":10497,"##해준":10498,"##라스":10499,"##예요":10500,"##예정":10501,"##주는데":10502,"##모레":10503,"##시가":10504,"##시래":10505,"##부가":10506,"##했오":10507,"##했더니":10508,"##실에":10509,"##실제로":10510,"##비슷":10511,"##디오":10512,"##♡ㅋㅋㅋㅋㅋㅋㅋㅋ":10513,"##차라리":10514,"##as":10515,"##ㅑㅑ":10516,"##맛나게":10517,"##순간":10518,"##강의":10519,"##최소":10520,"##ㅈㅅ":10521,"##엌ㅋㅋㅋㅋㅋㅋㅋ":10522,"ㅋㅋㅋㅋ왜":10523,"ㅋㅋㅋㅋ우리":10524,"ㅋㅋㅋㅋ나도":10525,"댕이다":10526,"진짜진짜":10527,"생각하기":10528,"들어야":10529,"사진이":10530,"시간표":10531,"해야하는데":10532,"퇴근해":10533,"오구오구":10534,"친구랑":10535,"알았다":10536,"안나와":10537,"ㅎㅋㅎㅋ":10538,"아파트":10539,"가져가":10540,"한번도":10541,"바빠서":10542,"이뿌나":10543,"주변에":10544,"##이상한":10545,"옛날에":10546,"잠들었":10547,"##이크로":10548,"예뿌나":10549,"축하해":10550,"##아닌가":10551,"헬스장":10552,"##분당선":10553,"미세먼지":10554,"7시에":10555,"LOW":10556,"cj":10557,"th":10558,"ㅜㅠ":10559,"걔네":10560,"거절":10561,"곳은":10562,"곳으로":10563,"공수":10564,"그롬":10565,"길에":10566,"까지":10567,"끝나는":10568,"다를":10569,"드러":10570,"들려":10571,"떵싸":10572,"띠용":10573,"롯정":10574,"마셔":10575,"마무리":10576,"만원":10577,"맞긴":10578,"멀리":10579,"모자":10580,"못하게":10581,"못하겠":10582,"미어":10583,"미아냉":10584,"배울":10585,"버티":10586,"빨라":10587,"살았":10588,"생겨서":10589,"선생":10590,"센서":10591,"소고기":10592,"순두부":10593,"시끄":10594,"시발":10595,"싸울":10596,"싸웠":10597,"아껴":10598,"아늘":10599,"아쉽":10600,"안한다":10601,"앉아서":10602,"않다":10603,"양현재":10604,"양시숲":10605,"없애":10606,"없잖아":10607,"에고":10608,"오버":10609,"운영":10610,"응원":10611,"의심":10612,"이럼":10613,"인가":10614,"인식":10615,"입니다":10616,"자존":10617,"잘했져":10618,"저의":10619,"저걸":10620,"적어":10621,"전압":10622,"접수":10623,"정의":10624,"줄여":10625,"지도":10626,"착각":10627,"참아":10628,"초과":10629,"취향":10630,"치즈":10631,"토요일에":10632,"트리":10633,"폴더":10634,"핑계":10635,"한참":10636,"후배":10637,"##ol":10638,"##om":10639,"##자랑":10640,"##하더라":10641,"##하려구":10642,"##고곡":10643,"##인공":10644,"##인걸":10645,"##위가":10646,"##도는":10647,"##만의":10648,"##아두이노":10649,"##리얼":10650,"##소리가":10651,"##라즈베리":10652,"##요정":10653,"##었으면":10654,"##주까":10655,"##주얼":10656,"##러가":10657,"##시네":10658,"##여떠":10659,"##망할":10660,"##버리":10661,"##버터":10662,"##un":10663,"##if":10664,"##때부터":10665,"##우선":10666,"##우니까":10667,"##내려":10668,"##수로":10669,"##왔져":10670,"##재생":10671,"##pt":10672,"##드림":10673,"##토스":10674,"##차는":10675,"##ㄱㅋㅋㅋㅋㅋㅋㅋㅋㅋㅋ":10676,"##땡이야":10677,"##타임":10678,"##느니":10679,"##째서":10680,"##식당":10681,"##채용":10682,"##십니까":10683,"##됐다":10684,"##틱틱":10685,"ㅋㅋㅋㅋ이게":10686,"아니까":10687,"##ㅠㅠㅠㅠㅠㅠㅠ":10688,"얘기해":10689,"##해야돼":10690,"해야겠다":10691,"없어도":10692,"힘들지":10693,"하지마":10694,"##엄마한테":10695,"많아떠":10696,"귀여웤":10697,"##ort":10698,"프로그래밍":10699,"먹을래":10700,"자기소개":10701,"삼성전자":10702,"거였어":10703,"##보구시포":10704,"헤어지":10705,"나갈게":10706,"##옹동아":10707,"부족한":10708,"찡찡거":10709,"입장에서":10710,"미쳤다":10711,"다녀와":10712,"##중간에":10713,"##괜찮아":10714,"##교수님이":10715,"##알고리즘":10716,"##아버지":10717,"마라탕":10718,"당요나지":10719,"안놀아":10720,"문화경영학과":10721,"32":10722,"to":10723,"가려면":10724,"구러":10725,"기념":10726,"꾸질":10727,"나빴":10728,"느꼈":10729,"디지":10730,"마싯":10731,"말임":10732,"먹었는데":10733,"멀라":10734,"몇개":10735,"못생":10736,"못보":10737,"뭐임":10738,"미쳐":10739,"반박":10740,"보장":10741,"봐떠":10742,"부자":10743,"사수":10744,"사무":10745,"생김":10746,"샤워":10747,"섭웨":10748,"성과":10749,"세대":10750,"수지":10751,"수요일":10752,"시원":10753,"싶구":10754,"싸우는":10755,"쓰는데":10756,"아닙":10757,"안경":10758,"알음":10759,"얘는":10760,"어구":10761,"오끄야":10762,"와도":10763,"와줘서":10764,"웹앱":10765,"인증":10766,"일년":10767,"자낭":10768,"잘했어":10769,"좋겠어":10770,"주문":10771,"지하":10772,"진쨔":10773,"집어":10774,"찝찝":10775,"차가":10776,"초대":10777,"타입":10778,"토닥":10779,"필기":10780,"했네":10781,"회로":10782,"##그리":10783,"##그나마":10784,"##자도":10785,"##하려":10786,"##이는데":10787,"##안녕":10788,"##화를":10789,"##서가":10790,"##아지":10791,"##에이":10792,"##오지":10793,"##학번":10794,"##ㅌㅋ":10795,"##파크":10796,"##시기":10797,"##시스템":10798,"##려도":10799,"##겠구나":10800,"##정보":10801,"##승재":10802,"##직무":10803,"##문학":10804,"##비도":10805,"##냐묜":10806,"##있지":10807,"##되네":10808,"##드디어":10809,"##트리":10810,"##먹어":10811,"##할겡":10812,"##저번":10813,"##ㄱㄷ":10814,"##ㄴㄲ":10815,"##타는":10816,"##테스트":10817,"##참고로":10818,"##큰일":10819,"##걸까":10820,"##돌이":10821,"##듣고":10822,"##같아":10823,"ㅋㅋㅋㅋ하":10824,"ㅋㅋㅋㅋ음":10825,"아니지만":10826,"##하는거":10827,"사랑스럽":10828,"있는게":10829,"내일도":10830,"얘기하고":10831,"##인가요":10832,"똑같아":10833,"이유를":10834,"##하자마자":10835,"타롱하구댕이도":10836,"옹동이는":10837,"사람들도":10838,"자체를":10839,"말했던":10840,"카카오페이":10841,"헤어졌":10842,"##으으으으":10843,"호고곡":10844,"서운해":10845,"ㄱㅊㄱㅊ":10846,"매일매일":10847,"느끼는":10848,"신호등":10849,"##당연히":10850,"분위기":10851,"29":10852,"2학년":10853,"31":10854,"an":10855,"chil":10856,"it":10857,"names":10858,"par":10859,"개념":10860,"거부":10861,"것두":10862,"공개":10863,"기상":10864,"김치":10865,"깜짝":10866,"나머지는":10867,"날라":10868,"남의":10869,"눌렀":10870,"대기":10871,"돼여":10872,"됐지":10873,"때무":10874,"많음":10875,"맘대로":10876,"매니저":10877,"모아":10878,"모냐":10879,"몰래":10880,"미뤄":10881,"별개":10882,"보임":10883,"뽑는":10884,"사수랑":10885,"세금":10886,"소듕":10887,"소리가":10888,"수행":10889,"시잘":10890,"심리":10891,"안받":10892,"없뎌":10893,"없냐":10894,"없었는데":10895,"오기":10896,"옮겨":10897,"요기":10898,"음식":10899,"일하는":10900,"있도록":10901,"재경이":10902,"쟤는":10903,"제외":10904,"좋겠당":10905,"주제":10906,"줘서":10907,"지갑":10908,"직원":10909,"찍는":10910,"찍어서":10911,"차려":10912,"채워":10913,"캡쳐":10914,"커널":10915,"쿠키":10916,"탈출":10917,"틀어":10918,"파스타":10919,"포샵":10920,"풀었":10921,"하도":10922,"하장":10923,"하던데":10924,"흔들":10925,"##기분":10926,"##로우":10927,"##하라는":10928,"##는걸":10929,"##이떠":10930,"##이를":10931,"##만하면":10932,"##일로":10933,"##에ㅔ":10934,"##해바":10935,"##마에":10936,"##라니까":10937,"##거니까":10938,"##었뎌":10939,"##시작":10940,"##부니가":10941,"##셨는데":10942,"##겠니":10943,"##정확":10944,"##ic":10945,"##과연":10946,"##우음":10947,"##우스":10948,"##잘해또":10949,"##문경":10950,"##결과":10951,"##비를":10952,"##경형":10953,"##되니까":10954,"##건뎅":10955,"##점은":10956,"##습니까":10957,"##써ㅋㅋㅋㅋ":10958,"##선이":10959,"##많은":10960,"##플릭":10961,"##났는데":10962,"##80":10963,"##연애":10964,"##천천히":10965,"##께서":10966,"##커플":10967,"##머글":10968,"##배터":10969,"##강남":10970,"##허허":10971,"##껄껄":10972,"##외활동":10973,"##롭게":10974,"##ㅋㅋ이거":10975,"ㅋㅋㅋㅋ댕이는":10976,"##이야ㅋㅋㅋㅋ":10977,"ㅋㅋ아":10978,"##이랑은":10979,"##부터는":10980,"얘기한":10981,"##이었나":10982,"아닌지":10983,"남자친구":10984,"힘들다":10985,"힘들면":10986,"들어가는":10987,"물어보는":10988,"##ㄱㄱㄱㄱ":10989,"찌찌를":10990,"시작한":10991,"아빠한테":10992,"피곤해":10993,"댕이야나":10994,"그럴리가":10995,"떨어질":10996,"돌아가는":10997,"경험은":10998,"ㅋㅋㅋㅋㅋㅋㅋㅋㅋㅋㅋㅋㅋㅋㅋㅋㅋㅋㅋㅋㅋㅋㅋㅋㅋㅋㅋㅋㅋㅋㅋㅋㅋㅋㅋㅋㅋㅋㅋㅋㅋㅋㅋㅋ":10999,"잘해따":11000,"컴퓨터공학":11001,"사귀는":11002,"##아침부터":11003,"##인터넷":11004,"해요페이스톡":11005,"할머니댁":11006,"end":11007,"##노트북":11008,"child":11009,"26":11010,"3호선":11011,"400":11012,"99":11013,"iot":11014,"ㅂㄷ":11015,"갔어":11016,"걔는":11017,"거긴":11018,"고르":11019,"공간":11020,"공식":11021,"과연":11022,"그랴서":11023,"금지":11024,"깊게":11025,"난다":11026,"날라가":11027,"낼은":11028,"노예":11029,"눈물":11030,"대리":11031,"되냐":11032,"두려":11033,"따지면":11034,"리눅":11035,"말해야":11036,"무료":11037,"뭐얔":11038,"바뀜":11039,"발생":11040,"발전":11041,"밥은":11042,"버는":11043,"부전공":11044,"비가":11045,"비전":11046,"사기":11047,"송금":11048,"썼는데":11049,"아라":11050,"않니":11051,"알자나":11052,"애를":11053,"어카지":11054,"언급":11055,"열어":11056,"예전":11057,"오앙":11058,"올리는":11059,"와야":11060,"요리":11061,"우와":11062,"웃어":11063,"유일":11064,"있단":11065,"있거든":11066,"저래":11067,"적용":11068,"전부터":11069,"종일":11070,"주장":11071,"죽어":11072,"지나가":11073,"착한":11074,"체계":11075,"최대":11076,"치는":11077,"침대":11078,"할거야":11079,"화나":11080,"효과":11081,"##어찌":11082,"##어떡":11083,"##그만":11084,"##나면":11085,"##로가":11086,"##고사":11087,"##인후":11088,"##구가":11089,"##구글":11090,"##도리":11091,"##도를":11092,"##화면":11093,"##대앵이":11094,"##랑은":11095,"##일본":11096,"##피스":11097,"##장에서":11098,"##해지고":11099,"##해줘야":11100,"##예약":11101,"##보안":11102,"##상황":11103,"##여댕이":11104,"##스의":11105,"##들끼리":11106,"##했는지":11107,"##son":11108,"##때가":11109,"##때문에":11110,"##한단":11111,"##넼ㅋㅋㅋㅋㅋㅋ":11112,"##영화":11113,"##결혼":11114,"##동산":11115,"##♡댕아":11116,"##신기":11117,"##분간":11118,"##색이":11119,"##카라":11120,"##잠만":11121,"##무시":11122,"##ㄱㅋㅋㅋㅋㅋㅋㅋㅋㅋㅋㅋ":11123,"##삼겹살":11124,"##연이":11125,"##관심":11126,"##환불":11127,"##맛탱":11128,"##wer":11129,"##떨어":11130,"##쪽에":11131,"##찡찡":11132,"##큐ㅠㅠㅠㅠㅠ":11133,"##엌ㅋㅋㅋㅋ":11134,"##쩐지":11135,"ㅋㅋㅋㅋ흠":11136,"ㅋㅋㅋㅋ댕이가":11137,"댕아우리":11138,"ㅎㅎ나":11139,"사랑햐":11140,"사랑스러":11141,"그러는데":11142,"##우리나라":11143,"얘기하다가":11144,"##ㅋㅋㅋㅋㅋㅋㅋㅋㅋㅋㅋㅋㅋㅋㅋㅋㅋㅋㅋㅋㅋㅋㅋㅋㅋㅋㅋㅋㅋㅋㅋㅋㅋ":11145,"그렇긴":11146,"만들면":11147,"##ㅠㅠㅠㅠㅠㅠㅠㅠㅠ":11148,"이상해":11149,"버스가":11150,"출발할":11151,"필요는":11152,"##적으로는":11153,"##그러니까":11154,"나가고":11155,"가능성이":11156,"준비하고":11157,"아빠는":11158,"피곤할텐데":11159,"##ㅇㅇㅇ":11160,"12월":11161,"12시에":11162,"일어나면":11163,"##ㅏㅏㅏㅏㅏ":11164,"구래서":11165,"사라짐":11166,"누구야":11167,"ㅋㅋㅋㅋㅋㅋㅋㅋㅋㅋㅋㅋㅋㅋㅋㅋㅋㅋㅋㅋㅋㅋㅋㅋㅋㅋㅋㅋㅋㅋㅋㅋㅋㅋㅋㅋㅋㅋㅋㅋㅋㅋ":11168,"있다면":11169,"받았는데":11170,"##파일파일":11171,"관심이":11172,"갔다와":11173,"이쁘게":11174,"책임님":11175,"방법이":11176,"최고의":11177,"##마지막에":11178,"배터리":11179,"돈까쓰":11180,"##ult":11181,"수지구청역":11182,"부재중":11183,"로그인":11184,"아늘까":11185,"parent":11186,"44":11187,"55":11188,"ST":11189,"bo":11190,"post":11191,"sk":11192,"sns":11193,"♡♡♡♡":11194,"ㅠㅋㅋㅋㅋ":11195,"갈수록":11196,"건물":11197,"걸려서":11198,"고양이":11199,"공격":11200,"근육":11201,"까까":11202,"나을":11203,"날짜":11204,"내린":11205,"당시":11206,"댱이가":11207,"데마":11208,"되기":11209,"될까":11210,"두근":11211,"둘째":11212,"들으":11213,"등장":11214,"만드":11215,"많았어":11216,"말로":11217,"몇시에":11218,"믿음을":11219,"방향":11220,"배부":11221,"배워":11222,"번호":11223,"봐용":11224,"부산":11225,"붙은":11226,"브랜드":11227,"사줘":11228,"서서":11229,"석사":11230,"소통":11231,"수고":11232,"스토리":11233,"시대":11234,"실행":11235,"싶었는데":11236,"씻으":11237,"아뉭":11238,"안올":11239,"않으까":11240,"앵간":11241,"어카":11242,"여휴":11243,"연산":11244,"올리면":11245,"외국":11246,"웅우":11247,"으휴":11248,"이벤":11249,"이정도면":11250,"일도":11251,"일정":11252,"입어":11253,"입학":11254,"잉댕이":11255,"잘댜":11256,"잘해쪄":11257,"잘해써":11258,"조건":11259,"지각":11260,"지우":11261,"쪼꿈":11262,"챙기":11263,"커서":11264,"커뮤":11265,"키우":11266,"토익":11267,"평소에":11268,"포장":11269,"피료":11270,"필수":11271,"해여":11272,"효율":11273,"##어난":11274,"##입고":11275,"##ou":11276,"##인정":11277,"##인프":11278,"##인사":11279,"##인스타":11280,"##운이":11281,"##이유":11282,"##이럴":11283,"##안해":11284,"##도와":11285,"##용으로":11286,"##대박":11287,"##지수":11288,"##일주일":11289,"##장애":11290,"##다녀":11291,"##20분":11292,"##포기":11293,"##오댜":11294,"##요워":11295,"##ㅌㅋㅋ":11296,"##시여":11297,"##스라":11298,"##했다는":11299,"##했구나":11300,"##eg":11301,"##당장":11302,"##문과":11303,"##디바이스":11304,"##줄까":11305,"##사고":11306,"##사업":11307,"##있다":11308,"##왔어":11309,"##앞에":11310,"##휴학":11311,"##점점":11312,"##줬던":11313,"##글거":11314,"##쓰는":11315,"##집이":11316,"##봐봐":11317,"##치게":11318,"##럽게":11319,"##조차":11320,"##번의":11321,"##머리가":11322,"##걸이":11323,"##론트":11324,"##햐서":11325,"##햇져":11326,"##았네":11327,"##축하":11328,"##똑같은":11329,"##NE":11330,"##싶당":11331,"##쒸익":11332,"##늨데":11333,"##ㅋㅋㅋㅋㅋㅋㅋㅋㅋㅋㅋㅋㅋㅋㅋㅋㅋㅋㅋㅋㅋㅋㅋㅋㅋㅋㅋㅋㅋㅋㅋ":11334,"아니냐고":11335,"ㅎㅎ댕아":11336,"사진을":11337,"고생했어":11338,"저나해":11339,"##인가바":11340,"모르겠당":11341,"개발자가":11342,"출발햐":11343,"필요없":11344,"보내고":11345,"보내준":11346,"##ㄱㄱㅋㅋ":11347,"시작해서":11348,"안나는데":11349,"나왔어":11350,"2019":11351,"ㅋㅋㅋㅋㅋㅋㅋㅋㅋㅋㅋㅋㅋㅋㅋㅋㅋㅋㅋㅋㅋㅋㅋㅋㅋㅋㅋㅋㅋㅋㅋㅋㅋㅋㅋㅋㅋㅋㅋㅋㅋㅋㅋ":11352,"##ong":11353,"##사람들":11354,"##동원이":11355,"해주구":11356,"운동하구":11357,"재밌는":11358,"##ㅜㅠㅜㅠ":11359,"##ㅎㅎㅎㅎㅎㅎㅎㅎ":11360,"##이뿌니는":11361,"##이뿌니도":11362,"성장하고":11363,"##애애애애":11364,"사주께":11365,"끝내고":11366,"대체로":11367,"##거기서":11368,"정보를":11369,"불안해":11370,"##ㅏㅏㅏㅏㅏㅏㅏㅏㅏㅏㅏㅏㅏㅏㅏㅏ":11371,"단톡방":11372,"와이프":11373,"using":11374,"NU":11375,"write":11376,"가즈":11377,"감기":11378,"갔을":11379,"강제":11380,"거겠지":11381,"겨울":11382,"경력":11383,"경량화":11384,"계좌":11385,"귀차나":11386,"기절":11387,"기록":11388,"끼고":11389,"내면":11390,"냉장":11391,"넓은":11392,"넘나":11393,"높아":11394,"다녔":11395,"다이어트":11396,"단계":11397,"답변":11398,"둘다":11399,"뜨고":11400,"마냥":11401,"만지":11402,"만한":11403,"말에":11404,"말여":11405,"맞을":11406,"맞은":11407,"먹는다":11408,"모으":11409,"배경":11410,"붙잡":11411,"비평":11412,"사가":11413,"설레":11414,"신분당선":11415,"심심":11416,"썼다":11417,"쓰벌":11418,"씨플":11419,"아들":11420,"아내":11421,"안타":11422,"어쨌든":11423,"업체":11424,"엘지":11425,"엘베":11426,"올릴":11427,"와파":11428,"왜냐하면":11429,"용서":11430,"의자":11431,"의무":11432,"이겨":11433,"이뤄":11434,"이메일":11435,"인해":11436,"자격":11437,"잘하구":11438,"잠들어":11439,"잠시만":11440,"저희":11441,"저랬":11442,"종강":11443,"지옥":11444,"직군":11445,"집이":11446,"쫓아":11447,"처럼":11448,"치면":11449,"키보드":11450,"타론":11451,"하잖아":11452,"하던가":11453,"하반기":11454,"학부":11455,"항목":11456,"해또":11457,"힌구":11458,"##어우":11459,"##남자가":11460,"##입구":11461,"##나고":11462,"##고지":11463,"##인지는":11464,"##는중":11465,"##안에":11466,"##ㄷㄴ데":11467,"##아웃":11468,"##리닝":11469,"##야되는데":11470,"##포트":11471,"##해져서":11472,"##오리":11473,"##오또케":11474,"##졌는데":11475,"##상은":11476,"##컴파일":11477,"##시오":11478,"##부턴":11479,"##여ㅋㅋㅋㅋ":11480,"##들과":11481,"##정부":11482,"##했었":11483,"##했당":11484,"##ist":11485,"##ive":11486,"##ect":11487,"##한듯":11488,"##원은":11489,"##수학":11490,"##냐가":11491,"##귀찮":11492,"##3일":11493,"##ver":11494,"##꺼는":11495,"##ㅜㅠㅠ":11496,"##뭐라고":11497,"##트는":11498,"##희희":11499,"##저번에":11500,"##명을":11501,"##회로":11502,"##설거지":11503,"##따로":11504,"##뭔데":11505,"##테니":11506,"##테크":11507,"##량이":11508,"##맛난":11509,"##ds":11510,"##쩌업":11511,"##본다":11512,"##꼬마오":11513,"##뭘로":11514,"##ㅓㅇ":11515,"##쿠팡":11516,"##튜버":11517,"##베르":11518,"##큐ㅠㅠㅠㅠㅠㅠ":11519,"##존나":11520,"##댱이가":11521,"##엌ㅋㅋㅋㅋㅋ":11522,"##십분":11523,"##ㅕㅕ":11524,"##닉스":11525,"##Res":11526,"##ㅋㅋㅋㅋㅋㅋㅋㅋ댕이":11527,"ㅋㅋㅋㅋ호":11528,"아니었어":11529,"댕아ㅋㅋㅋㅋ":11530,"댕아댕이":11531,"##으로써":11532,"ㅎㅎ댕이":11533,"ㅋㅋㅋㅋㅋㅋ댕이":11534,"##아니아니":11535,"ㅋㅋㅋㅋㅋㅋㅋㅋㅋㅋㅋㅋㅋㅋㅋㅋㅋㅋㅋㅋㅋㅋㅋㅋㅋㅋㅋㅋㅋㅋㅋㅋㅋㅋㅋㅋㅋㅋㅋ":11536,"들어간":11537,"##다는게":11538,"ㅋㅋㅋㅋㅋㅋㅋㅋㅋㅋㅋ댕이":11539,"하나가":11540,"그거슨":11541,"만나여":11542,"만나기로":11543,"언제와":11544,"10개":11545,"저나하자":11546,"모르겠어서":11547,"이렇게까지":11548,"학교에":11549,"점심에":11550,"안나오":11551,"2020":11552,"##은경이가":11553,"##시반쯤":11554,"않았을까":11555,"조금만":11556,"졸업식":11557,"없었고":11558,"##ild":11559,"갈아탔":11560,"싫어하는":11561,"##아무도":11562,"고맙고":11563,"ㅠㅠㅠㅠㅠㅠㅠㅠㅠㅠㅠㅠㅠㅠ":11564,"귀엽다":11565,"지난번에":11566,"디자인":11567,"기회를":11568,"잘게용댕이":11569,"com":11570,"한숨만":11571,"과정에서":11572,"빡세게":11573,"##유ㅓㄴ":11574,"##바부야":11575,"데려다":11576,"피고내":11577,"떠오르는":11578,"30장사진":11579,"##eturn":11580,"main":11581,"라이브":11582,"도시재생":11583,"##진대회":11584,"##화장실":11585,"##pace":11586,"디지털":11587,"카카오페이머니":11588,"ㅂㄷㅂㄷ":11589,"1일":11590,"4일":11591,"print":11592,"가기로":11593,"강서":11594,"거마워":11595,"거신가":11596,"검아":11597,"경진대회":11598,"구성":11599,"그제":11600,"길게":11601,"꼼꼼":11602,"끝남":11603,"놀라":11604,"놈이":11605,"다름":11606,"달라고":11607,"당신":11608,"돌리":11609,"돌렸":11610,"되네":11611,"두시간":11612,"떠서":11613,"말해주":11614,"맞으면":11615,"모집":11616,"모태":11617,"몰카":11618,"못봤":11619,"무너":11620,"물건":11621,"밤새":11622,"백신":11623,"보소":11624,"불렀":11625,"블랙":11626,"비온":11627,"뿌엥":11628,"살면":11629,"색칠":11630,"셋이":11631,"손님":11632,"솔직":11633,"수료":11634,"수밖에":11635,"실력을":11636,"싸우고":11637,"안봐":11638,"안걸":11639,"안그래도":11640,"얻어":11641,"없던":11642,"없단":11643,"없긴":11644,"없넹":11645,"없었어":11646,"역대급":11647,"열공":11648,"오리":11649,"오우":11650,"와우":11651,"요정":11652,"월요일에":11653,"이기":11654,"이산":11655,"인문학":11656,"일상":11657,"잠을":11658,"장소":11659,"정자":11660,"정답":11661,"주지":11662,"최악":11663,"칭찬":11664,"탄탄":11665,"토깽":11666,"투썸":11667,"했었":11668,"환경":11669,"후기":11670,"흐름":11671,"힝구나":11672,"##미가":11673,"##였다고":11674,"##그레":11675,"##성과":11676,"##더랑":11677,"##나네":11678,"##기본":11679,"##하디":11680,"##하신":11681,"##하죠":11682,"##하쟝":11683,"##인생":11684,"##구구":11685,"##구조":11686,"##는대":11687,"##이겠지":11688,"##안드로이드":11689,"##만들":11690,"##아라":11691,"##아니다":11692,"##지다":11693,"##제한":11694,"##일반":11695,"##피자":11696,"##다보니":11697,"##해라":11698,"##해버렸":11699,"##보지":11700,"##보러":11701,"##주려고":11702,"##공대":11703,"##흐흑":11704,"##ㅌㅋㅋㅋㅋㅋㅋ":11705,"##시나":11706,"##겠냐":11707,"##정거장":11708,"##했다가":11709,"##전기":11710,"##급행":11711,"##우웅":11712,"##넼ㅋㅋㅋㅋ":11713,"##말을":11714,"##문자":11715,"##사원":11716,"##있네":11717,"##신호":11718,"##재현":11719,"##쓰지":11720,"##키키":11721,"##궁금":11722,"##트워크":11723,"##청소":11724,"##났어":11725,"##6시":11726,"##연구":11727,"##슬슬":11728,"##품을":11729,"##링크":11730,"##LL":11731,"##튜디오":11732,"##댱이는":11733,"##엌ㅋㅋㅋㅋㅋㅋ":11734,"##렁해":11735,"ㅋㅋㅋㅋ안":11736,"ㅋㅋㅋㅋ그럼":11737,"아니겠지":11738,"##으로만":11739,"##한테도":11740,"ㅠㅠㅠ댕이":11741,"모르니까":11742,"오빠두":11743,"얘기는":11744,"ㅋㅋㅋㅋㅋㅋㅋㅋㅋㅋㅋㅋㅋㅋ댕이":11745,"시간도":11746,"언제쯤":11747,"공부는":11748,"##자기가":11749,"있을지":11750,"만들기":11751,"미안행":11752,"나오지":11753,"출발하면":11754,"힘들고":11755,"힘들게":11756,"들어가용":11757,"사실을":11758,"##하나만":11759,"괜찮지":11760,"##어가지고":11761,"가능해":11762,"안해죠":11763,"피곤하지":11764,"ㅋㅋㅋㅋ나두":11765,"떨어지":11766,"내려가":11767,"짜증내서":11768,"150":11769,"데이터를":11770,"가지게":11771,"홧팅해":11772,"사롱햐":11773,"이걸로":11774,"궁금해":11775,"저기서":11776,"안보여":11777,"자동으로":11778,"우울해":11779,"##스마스":11780,"##클래스":11781,"토닥토닥":11782,"namespace":11783,"1월":11784,"388":11785,"lg":11786,"len":11787,"num":11788,"vot":11789,"가라":11790,"가려":11791,"갈때":11792,"같았":11793,"같으니까":11794,"경영":11795,"고파":11796,"고등학교":11797,"궈궈":11798,"길이":11799,"끌어":11800,"끌려":11801,"나네":11802,"나무":11803,"났다":11804,"내리는":11805,"넣으면":11806,"논리":11807,"다닐":11808,"드립":11809,"듣기":11810,"디비":11811,"리턴":11812,"만지게":11813,"먹음":11814,"멋진":11815,"메인":11816,"모듈":11817,"모아서":11818,"바껴":11819,"박스":11820,"반도":11821,"반대로":11822,"방해":11823,"배사":11824,"백화점":11825,"범위":11826,"변환":11827,"보이지":11828,"볼까":11829,"봐여":11830,"부정":11831,"뽀시래":11832,"사도":11833,"사망":11834,"산책":11835,"생성":11836,"생존":11837,"소스":11838,"수록":11839,"순서":11840,"시흔":11841,"실험":11842,"싫고":11843,"싶긴":11844,"쓰던":11845,"않지만":11846,"억울":11847,"역사":11848,"역할":11849,"연관":11850,"오오오":11851,"올거야":11852,"외워":11853,"운전":11854,"윈도우":11855,"유지":11856,"음성":11857,"이내":11858,"일하구":11859,"자식이":11860,"장애":11861,"장면":11862,"저도":11863,"전세":11864,"정부":11865,"주희":11866,"집은":11867,"쫌만":11868,"차이나":11869,"첫번째":11870,"측정":11871,"코스트코":11872,"퇴사":11873,"포인터":11874,"하길래":11875,"해볼":11876,"해따":11877,"헛소리":11878,"홍대":11879,"화내":11880,"화요일":11881,"히영":11882,"##히고":11883,"##진경":11884,"##어울":11885,"##어휴":11886,"##어써":11887,"##미국":11888,"##나보고":11889,"##하단":11890,"##하던데":11891,"##하였습니다":11892,"##고맙":11893,"##아떠":11894,"##아항":11895,"##가자":11896,"##리다":11897,"##일수":11898,"##다나":11899,"##다며":11900,"##해질":11901,"##라나":11902,"##요오":11903,"##주기":11904,"##공고":11905,"##침대":11906,"##볼겡":11907,"##의도":11908,"##올해":11909,"##준대":11910,"##스쿨":11911,"##초밥":11912,"##당나":11913,"##당이":11914,"##전히":11915,"##전과":11916,"##511":11917,"##16":11918,"##내용":11919,"##와따":11920,"##겼는데":11921,"##신입":11922,"##재빈":11923,"##코인":11924,"##눈이":11925,"##금요일":11926,"##트론":11927,"##8ㅅ8":11928,"##저러":11929,"##역이":11930,"##계절":11931,"##조심":11932,"##조가":11933,"##옹댕이":11934,"##적이야":11935,"##놨는데":11936,"##행기":11937,"##개인":11938,"##쪽이":11939,"##똑같":11940,"##돈이":11941,"##응께":11942,"##Serial":11943,"##큐ㅠ":11944,"##됐어":11945,"##캉스":11946,"##ㅋㅋㅋㅋ이런":11947,"ㅋㅋㅋㅋ나는":11948,"아니구나":11949,"ㅋㅋㅋㅋㅋㅋㅋㅋ아니":11950,"ㅠㅠ아":11951,"##댕아댕아나":11952,"ㅋㅋㅋㅋㅋㅋㅋㅋㅋㅋㅋㅋ댕아":11953,"ㅋㅋㅋㅋㅋㅋㅋㅋㅋㅋㅋㅋ아니":11954,"##한테서":11955,"##하구만":11956,"##지금도":11957,"미안하다고":11958,"은경이랑":11959,"여자친구":11960,"나와쪄":11961,"나와따":11962,"괜찮은데":11963,"이해할":11964,"##꺼야ㅋㅋㅋㅋ":11965,"찾아보":11966,"떨어지는":11967,"기억은":11968,"소리를":11969,"이뿌니도":11970,"##은경이는":11971,"##alse":11972,"알또오":11973,"##아아아아아아":11974,"가지마":11975,"기여오":11976,"##라인드":11977,"##이러면":11978,"관심을":11979,"생일선물":11980,"거였는데":11981,"완전히":11982,"맞춰서":11983,"내용이":11984,"보냈는데":11985,"기준으로":11986,"##이에여":11987,"인났져":11988,"기반으로":11989,"엔지니어로":11990,"votes":11991,"700":11992,"con":11993,"os":11994,"ㄱㄴㄲ":11995,"가떠":11996,"가득":11997,"가깝":11998,"가있을":11999,"거냐":12000,"거지만":12001,"거라는":12002,"거처럼":12003,"검은":12004,"고려":12005,"굥이는":12006,"구나":12007,"구댕":12008,"기도":12009,"꾸워":12010,"나에":12011,"내로":12012,"내림":12013,"넘기":12014,"넷플릭":12015,"노루":12016,"능력을":12017,"뎃고":12018,"도대체":12019,"돈도":12020,"루플":12021,"많다":12022,"망한":12023,"먹으로":12024,"모임":12025,"못하면":12026,"못하는데":12027,"밀린":12028,"바뀐":12029,"벚꽃":12030,"보이고":12031,"보인다":12032,"불구":12033,"상근":12034,"신뢰":12035,"실무":12036,"실시간":12037,"썼어":12038,"쒸익":12039,"안구":12040,"안주":12041,"안에서":12042,"안하구":12043,"안보고":12044,"않겠지":12045,"애플":12046,"어떻":12047,"어젯":12048,"어이가":12049,"업서":12050,"없대":12051,"연기":12052,"오오오오":12053,"웃겨":12054,"유튜버":12055,"읎어":12056,"이는":12057,"이중":12058,"잉왜":12059,"자살":12060,"잔소리":12061,"잘할":12062,"제주":12063,"존재":12064,"좋긴":12065,"주워":12066,"지내":12067,"진지":12068,"집가":12069,"집가여":12070,"찍었":12071,"초기":12072,"카레":12073,"커녕":12074,"토대로":12075,"특징":12076,"틀림":12077,"하려":12078,"하며":12079,"해먹":12080,"혹은":12081,"흥미":12082,"힝댕이":12083,"##어용":12084,"##던지":12085,"##통령":12086,"##그마":12087,"##데나":12088,"##하거든":12089,"##하냐고":12090,"##하시는":12091,"##생일":12092,"##인거지":12093,"##위에서":12094,"##는지는":12095,"##이쁘":12096,"##대표":12097,"##서운":12098,"##서치":12099,"##가방":12100,"##가족":12101,"##가끔":12102,"##지쨔":12103,"##장도":12104,"##에어":12105,"##에요":12106,"##다운":12107,"##2시간":12108,"##보다가":12109,"##보면서":12110,"##보이는":12111,"##보세요":12112,"##주변":12113,"##공지":12114,"##게써":12115,"##시벌":12116,"##버릴":12117,"##루션":12118,"##겠구만":12119,"##스에서":12120,"##얘네":12121,"##im":12122,"##때매":12123,"##당황":12124,"##한번":12125,"##친다":12126,"##중이야":12127,"##임티":12128,"##임없이":12129,"##급이":12130,"##우울":12131,"##넼ㅋㅋㅋㅋㅋ":12132,"##59":12133,"##영어":12134,"##원을":12135,"##터가":12136,"##와우":12137,"##직원":12138,"##비트":12139,"##후에":12140,"##드립니다":12141,"##금융":12142,"##씨는":12143,"##세서":12144,"##카롱":12145,"##치마":12146,"##설계":12147,"##역으로":12148,"##삼전":12149,"##산소":12150,"##ㅅ어":12151,"##력서":12152,"##반데":12153,"##적당히":12154,"##개웃기넼":12155,"##았던":12156,"##없다":12157,"##증이":12158,"##처니":12159,"##작년에":12160,"##77":12161,"##담에":12162,"##싫어":12163,"##됐네":12164,"##🦈🌊":12165,"##ㅋㅋㅋㅋ히히":12166,"ㅋㅋㅋㅋ잘":12167,"ㅋㅋㅋㅋ저":12168,"ㅋㅋㅋㅋ이런":12169,"ㅋㅋㅋㅋㅋ나":12170,"아니더라도":12171,"댕아♡♡♡":12172,"진짜루":12173,"##자나ㅋㅋㅋㅋ":12174,"우리팀":12175,"이거바":12176,"들어온":12177,"들어와서":12178,"그러면서":12179,"같은뎅":12180,"얘기가":12181,"이런거":12182,"ㅋㅋㅋㅋㅋㅋㅋㅋㅋㅋㅋㅋㅋㅋㅋ댕이":12183,"좋아하고":12184,"그렇지만":12185,"그렇구나":12186,"져아ㅋㅋㅋㅋ":12187,"미안한":12188,"이상하게":12189,"사랑해♡♡":12190,"물어봄":12191,"가야하는":12192,"이번에는":12193,"##스트레스":12194,"괜찮을":12195,"##♡♡♡♡♡♡♡♡":12196,"##ㅇㅇㅇㅇ":12197,"하루에":12198,"걱정마":12199,"내려떠":12200,"##고생이":12201,"애들한테":12202,"코드가":12203,"##사람들이":12204,"해주면":12205,"데이터분석":12206,"조금이라도":12207,"가져와":12208,"지원자":12209,"사이언":12210,"사이즈":12211,"은경이도":12212,"다행이당":12213,"포기하지":12214,"비슷하게":12215,"다르지":12216,"아프지":12217,"사롱하는":12218,"인터럽":12219,"이쁘지":12220,"예쁘게":12221,"##라이브":12222,"공모전에":12223,"##나보네":12224,"선배님":12225,"##8888":12226,"수상을":12227,"마리오":12228,"머그까":12229,"뭔소리야":12230,"answer":12231,"##마어마":12232,"직장인":12233,"잘생겼":12234,"보이는데":12235,"SW마에":12236,"the":12237,"##Result":12238,"SW마에스트로":12239,"00":12240,"5년":12241,"Ma":12242,"OUT":12243,"Serial":12244,"add":12245,"api":12246,"dfs":12247,"loo":12248,"pc":12249,"return":12250,"♡♡♡":12251,"ㄱㅅ":12252,"가쟈":12253,"갑분":12254,"강제로":12255,"것입니다":12256,"계열":12257,"글씨":12258,"깜빡":12259,"껴안":12260,"나나":12261,"나에게":12262,"남휴":12263,"남사친":12264,"넣고":12265,"놀다가":12266,"달달":12267,"달라서":12268,"댄이":12269,"댕티":12270,"돈은":12271,"동기가":12272,"떡볶이":12273,"마이크로":12274,"많으니까":12275,"맘이":12276,"망했다":12277,"머지":12278,"뭐라도":12279,"버릴":12280,"번째":12281,"베르":12282,"보일":12283,"보호":12284,"볼수":12285,"봤음":12286,"비롯":12287,"빈집":12288,"빡빡":12289,"뽑을":12290,"뿐이지":12291,"삐져떠":12292,"사겨":12293,"소프트":12294,"수능":12295,"스크":12296,"싶단":12297,"쌓아":12298,"쓸데":12299,"아끼":12300,"아깝":12301,"아픈데":12302,"안오":12303,"안갈":12304,"안와서":12305,"안받아":12306,"않는데":12307,"어색":12308,"어댜":12309,"없겠지":12310,"에엥":12311,"엥왜":12312,"연수":12313,"예뽀":12314,"오네":12315,"오옹":12316,"온디바이스":12317,"유모":12318,"이면":12319,"이동":12320,"이끌":12321,"이딴":12322,"일이야":12323,"입을":12324,"있옹":12325,"있겠다":12326,"있다구":12327,"있던데":12328,"자래":12329,"제정신":12330,"조교":12331,"조절":12332,"종합":12333,"죽고":12334,"줄은":12335,"줄게":12336,"집이야":12337,"출석":12338,"컴구":12339,"케잌":12340,"크기":12341,"탈주":12342,"터졌":12343,"편한":12344,"하드":12345,"하겠다":12346,"하겠지":12347,"하더니":12348,"하려구":12349,"할아버지":12350,"해줘서":12351,"해줘야":12352,"했었는데":12353,"호기":12354,"##어주":12355,"##남자는":12356,"##였을":12357,"##성공":12358,"##나가는":12359,"##자깅":12360,"##로드":12361,"##하규":12362,"##고마":12363,"##이로":12364,"##이틀":12365,"##도도":12366,"##만으로도":12367,"##대고":12368,"##가기":12369,"##가타":12370,"##웹툰":12371,"##지야":12372,"##지롱":12373,"##지는데":12374,"##장으로":12375,"##다보니까":12376,"##포지":12377,"##포인터":12378,"##포인트":12379,"##ㅋㅅㅋ":12380,"##특히":12381,"##해결":12382,"##해줄게":12383,"##오바":12384,"##국수":12385,"##거덩":12386,"##예를":12387,"##보네":12388,"##움을":12389,"##모니터":12390,"##상근":12391,"##시판":12392,"##유튜브":12393,"##군ㅋㅋㅋㅋ":12394,"##울댕이":12395,"##르기":12396,"##얘는":12397,"##ee":12398,"##달란":12399,"##갔어":12400,"##갔는데":12401,"##프린":12402,"##실수":12403,"##♡댕이":12404,"##사도":12405,"##점에서":12406,"##3시":12407,"##신데":12408,"##cal":12409,"##드러":12410,"##드시":12411,"##났네":12412,"##ㄹㅋ":12413,"##8시":12414,"##목이":12415,"##힘내":12416,"##댔는데":12417,"##연봉":12418,"##ㅏㅆ":12419,"##속이":12420,"##관계":12421,"##ri":12422,"##흠냐":12423,"##발표":12424,"##체가":12425,"##슴다":12426,"##박이":12427,"##걔가":12428,"##Read":12429,"댕이내가":12430,"생각한":12431,"그래야":12432,"ㅋㅋㅋㅋㅋㅋ나":12433,"##아니네":12434,"ㅋㅋㅋㅋㅋㅋㅋ나":12435,"ㅋㅋㅋㅋㅋㅋㅋ댕아":12436,"하는거":12437,"ㅋㅋㅋㅋㅋㅋㅋㅋㅋㅋㅋ아니":12438,"하나의":12439,"##시간에":12440,"ㅋㅋㅋㅋㅋㅋㅋㅋㅋㅋㅋㅋㅋㅋ아니":12441,"##이었지":12442,"고생해쪄":12443,"##해주구":12444,"##오빠두":12445,"##ㅜㅜㅠㅠ":12446,"타롱해♡♡♡":12447,"##하기로":12448,"히히ㅋㅋㅋㅋ":12449,"힘들었":12450,"나랑은":12451,"아이돌":12452,"아이폰":12453,"ㅋㅋㅋㅋ댕이야":12454,"말이여":12455,"떨어져서":12456,"20만원":12457,"소리야":12458,"자구낼":12459,"##은경아":12460,"누구랑":12461,"누구냐":12462,"ㅋㅋㅋㅋㅋㅋㅋㅋㅋㅋㅋㅋㅋㅋㅋㅋㅋㅋㅋㅋㅋㅋㅋㅋㅋㅋㅋㅋㅋㅋㅋㅋㅋㅋㅋㅋㅋㅋㅋㅋㅋㅋㅋㅋㅋㅋㅋㅋ":12463,"##어디야":12464,"짜증내":12465,"코드를":12466,"보여서":12467,"동생은":12468,"고마워요":12469,"서울대":12470,"말했자나":12471,"30분만":12472,"##이번엔":12473,"홧팅하구":12474,"ㅠㅠㅠㅠㅠㅠㅠㅠㅠㅠㅠㅠㅠㅠㅠ":12475,"도전을":12476,"개발자로":12477,"예쁘다":12478,"##아아아앙":12479,"가까운":12480,"지나면":12481,"##이너스":12482,"저러는":12483,"진심으로":12484,"##ㅂㄷㅂㄷ":12485,"힘드러":12486,"어떠케":12487,"간단한":12488,"digitalRead":12489,"드라이버":12490,"##이뿌나":12491,"최근에":12492,"전기과":12493,"##오픈소스":12494,"때무네":12495,"##그레이드":12496,"OUTPUT":12497,"1이":12498,"3만원":12499,"cnt":12500,"lo":12501,"new":12502,"♡ㅋㅋㅋㅋ":12503,"ㅜㅋㅋㅋㅋ":12504,"가진":12505,"가나":12506,"가리":12507,"개웃기넼":12508,"거만":12509,"걸리면":12510,"것들":12511,"것이다":12512,"구경":12513,"구분":12514,"그땐":12515,"급하게":12516,"기야":12517,"깨우":12518,"꿈에서":12519,"끊임없이":12520,"끌고":12521,"남는":12522,"넣은":12523,"넹넹":12524,"노오":12525,"노가다":12526,"놀자":12527,"눈을":12528,"느낀":12529,"단어가":12530,"당일":12531,"당한":12532,"데이":12533,"돼용":12534,"될거야":12535,"두명":12536,"뛰어서":12537,"마인":12538,"만지고":12539,"맛나":12540,"멀쩡":12541,"명령":12542,"모레":12543,"몬데":12544,"무ㅏ":12545,"무겁":12546,"문해":12547,"벗어":12548,"벗어나":12549,"변경":12550,"보수":12551,"보다는":12552,"복붙":12553,"부러":12554,"부럽":12555,"부르는":12556,"분당":12557,"분류":12558,"불타":12559,"비주얼":12560,"빡쳐서":12561,"빼곤":12562,"생길":12563,"선도":12564,"손이":12565,"수영":12566,"수치":12567,"스테":12568,"신나":12569,"싫은데":12570,"쌉가능":12571,"써있":12572,"아홉":12573,"안다":12574,"안바":12575,"애기가":12576,"얘네":12577,"어캄":12578,"없징":12579,"엉엉":12580,"연예인":12581,"오라고":12582,"오전에":12583,"워낙":12584,"유행":12585,"육아":12586,"융웅":12587,"이자":12588,"이하":12589,"입술":12590,"자지":12591,"자라":12592,"자극":12593,"저에게":12594,"정통":12595,"정해":12596,"제안":12597,"졸귀탱":12598,"종류":12599,"주어":12600,"주식":12601,"주세요":12602,"죽여":12603,"지역":12604,"지나서":12605,"카턱":12606,"캡스톤":12607,"타임":12608,"파악":12609,"페이지":12610,"평범":12611,"피해":12612,"하였습니다":12613,"한가":12614,"한전":12615,"핵심":12616,"했는디":12617,"혜택":12618,"훔냐":12619,"##히면":12620,"##어려":12621,"##던게":12622,"##던뎅":12623,"##그지":12624,"##데기":12625,"##데도":12626,"##나오":12627,"##자야":12628,"##자면":12629,"##기기":12630,"##기말":12631,"##하래":12632,"##하십니까":12633,"##고만":12634,"##인하대":12635,"##민국":12636,"##구는":12637,"##구니까":12638,"##댕니":12639,"##이비":12640,"##애들이":12641,"##가야":12642,"##가바":12643,"##랑해":12644,"##리스트":12645,"##제대로":12646,"##크루":12647,"##22":12648,"##2분":12649,"##해찌":12650,"##오옹":12651,"##거래":12652,"##주당":12653,"##주년":12654,"##모델":12655,"##방학":12656,"##든가":12657,"##여자가":12658,"##정해":12659,"##uest":12660,"##el":12661,"##달라는":12662,"##잖앜":12663,"##넼ㅋㅋㅋㅋㅋㅋㅋㅋㅋ":12664,"##단에서":12665,"##1시간":12666,"##수고":12667,"##님님":12668,"##직접":12669,"##문은":12670,"##사학":12671,"##fl":12672,"##있던":12673,"##재미":12674,"##범죄":12675,"##드를":12676,"##금방":12677,"##쓰고":12678,"##세대":12679,"##분명":12680,"##껀데":12681,"##치를":12682,"##현실":12683,"##계획":12684,"##조시미":12685,"##받았":12686,"##림이":12687,"##반대":12688,"##테일":12689,"##9시":12690,"##알지":12691,"##ㅛ는데":12692,"##참내":12693,"##권이":12694,"##번호":12695,"##체로":12696,"##월드":12697,"##AI":12698,"##즈니":12699,"##없음":12700,"##닼ㅋㅋㅋㅋㅋㅋ":12701,"##증명서":12702,"##최고":12703,"##최종":12704,"##뽑뽀":12705,"##큐ㅠㅠ":12706,"##첨에":12707,"##ql":12708,"##밑에":12709,"##왼쪽":12710,"##ㅋㅋㅋㅋ이게":12711,"ㅋㅋㅋㅋ어":12712,"ㅋㅋㅋㅋ후":12713,"ㅋㅋㅋㅋ진짜":12714,"ㅋㅋㅋㅋ지금":12715,"ㅋㅋㅋㅋㅋㅋㅋㅋ근데":12716,"ㅠㅠㅜㅠ":12717,"웅냐댕이":12718,"ㅋㅋㅋㅋㅋㅋㅋㅋㅋㅋㅋㅋ아":12719,"##그래그래":12720,"하나로":12721,"공부하는":12722,"공부하기":12723,"10시에":12724,"아직은":12725,"아니라는":12726,"저나를":12727,"퇴근하구":12728,"좋아요":12729,"있을겡":12730,"져아댕이":12731,"알아또":12732,"ㅠㅠㅠㅠ댕이":12733,"모르겠음":12734,"그렇게까지":12735,"필요햐":12736,"생각해보":12737,"가야대":12738,"##ㄱㄱㄱ":12739,"##정도로":12740,"어제도":12741,"##하자는":12742,"안돼서":12743,"30만원":12744,"부분은":12745,"먹어떠":12746,"##문제는":12747,"##문제가":12748,"##ation":12749,"다행히":12750,"안된대":12751,"##아무것도":12752,"안했으면":12753,"##이뿌니가":12754,"귀엽고":12755,"##애애애":12756,"##옹동이는":12757,"꼬마오♡":12758,"정신이":12759,"시키면":12760,"끝내구":12761,"##다음주":12762,"최고야":12763,"##나보넹":12764,"사귀고":12765,"##동생이":12766,"프로젝트를":12767,"우울증":12768,"delay":12769,"현재는":12770,"근처에":12771,"##하하하하":12772,"아저씨가":12773,"대단한":12774,"소비자":12775,"엔지니어":12776,"재빈이":12777,"##ream":12778,"인날게":12779,"리눅스":12780,"커뮤니":12781,"loop":12782,"1회":12783,"3월":12784,"3학년":12785,"48":12786,"4월":12787,"6반":12788,"bool":12789,"false":12790,"ui":12791,"♡♡":12792,"ㅋㅌ":12793,"ㅎㄷㄷ":12794,"가시":12795,"가볍":12796,"값이":12797,"값을":12798,"개판":12799,"개선":12800,"거구":12801,"걸리는":12802,"고구마":12803,"공짜":12804,"과장":12805,"굥이가":12806,"구조":12807,"그룹":12808,"그짓말":12809,"글코":12810,"깨끗":12811,"끝낼":12812,"남성":12813,"남았는데":12814,"내에서":12815,"내년에":12816,"냉이":12817,"놓침":12818,"놓쳤":12819,"놓치기":12820,"뉴스":12821,"늘어나":12822,"달고":12823,"당근":12824,"당욘":12825,"당분간":12826,"도저히":12827,"동작":12828,"되려나":12829,"된대":12830,"등의":12831,"딸이":12832,"땡아":12833,"막혀":12834,"많자나":12835,"망설":12836,"먹기로":12837,"멍청":12838,"멘트":12839,"목소리가":12840,"몸은":12841,"못했는데":12842,"바빴":12843,"받구":12844,"밥먹":12845,"방에":12846,"방식이":12847,"배우는":12848,"배구파":12849,"봤던":12850,"봤다":12851,"분량":12852,"붙었":12853,"빠진":12854,"빠빠":12855,"사전":12856,"선언":12857,"스프":12858,"슬픈":12859,"쓴다":12860,"아싸":12861,"안뜨":12862,"알져":12863,"알겠다":12864,"알겠어":12865,"암거나":12866,"애교":12867,"에그":12868,"연어":12869,"오똑":12870,"온제":12871,"우분투":12872,"원본":12873,"을지로":12874,"의지":12875,"이라는":12876,"잘한":12877,"재경":12878,"쟤가":12879,"전송":12880,"전자기":12881,"조케":12882,"지키":12883,"지식을":12884,"출품":12885,"취뽀":12886,"케이":12887,"코인":12888,"쿠폰":12889,"크리":12890,"클라우드":12891,"타자":12892,"토끼":12893,"티비":12894,"페이스톡":12895,"피부":12896,"학겨":12897,"햄버거":12898,"했오":12899,"후움":12900,"희곡":12901,"##였네":12902,"##그려":12903,"##나머지":12904,"##자료":12905,"##자들이":12906,"##기엽":12907,"##하실":12908,"##하셔":12909,"##고는":12910,"##고딩":12911,"##인간":12912,"##댕댕":12913,"##이직":12914,"##이며":12915,"##이자너":12916,"##애매":12917,"##심한":12918,"##아앙":12919,"##가도":12920,"##지망":12921,"##너네":12922,"##너를":12923,"##각이":12924,"##일어":12925,"##일까지":12926,"##으며":12927,"##해봤는데":12928,"##함을":12929,"##오랜만에":12930,"##마이":12931,"##마라":12932,"##마치":12933,"##라거":12934,"##거여":12935,"##예전에":12936,"##었더니":12937,"##주랑":12938,"##주행":12939,"##공강":12940,"##움이":12941,"##시잘":12942,"##부레":12943,"##버즈":12944,"##버려서":12945,"##겠대":12946,"##정리":12947,"##정한":12948,"##정보통":12949,"##했더":12950,"##했잖아":12951,"##했거든":12952,"##평생":12953,"##우를":12954,"##우산":12955,"##것두":12956,"##와이":12957,"##교회":12958,"##사에서":12959,"##냐하":12960,"##킹덤":12961,"##300":12962,"##웅아":12963,"##신경":12964,"##pu":12965,"##딱히":12966,"##글쎄":12967,"##토요일":12968,"##물을":12969,"##집은":12970,"##많아":12971,"##ㅇ0":12972,"##65":12973,"##600":12974,"##저장":12975,"##택시":12976,"##탈출":12977,"##따나":12978,"##추행":12979,"##42":12980,"##90":12981,"##알아서":12982,"##매번":12983,"##머야":12984,"##배송":12985,"##웠는데":12986,"##겁나":12987,"##벌레":12988,"##굥이는":12989,"##닼ㅋㅋㅋㅋㅋ":12990,"##센서":12991,"##몰아":12992,"##Of":12993,"##답장":12994,"##엌ㅅ":12995,"##DE":12996,"##렌즈":12997,"##ㅋㅋㅋㅋ근데":12998,"ㅋㅋㅋㅋ힝":12999,"ㅋㅋㅋㅋ웅웅":13000,"댕이오늘":13001,"ㅋㅋㅋㅋㅋ댕이":13002,"ㅋㅋㅋㅋㅋㅋㅋㅋ이거":13003,"ㅋㅋㅋㅋㅋㅋㅋㅋㅋㅋㅋㅋ나":13004,"ㅋㅋㅋㅋㅋㅋ댕아":13005,"##이라던가":13006,"ㅋㅋ댕아":13007,"도착했는데":13008,"들어도":13009,"타롱이야":13010,"ㅋㅋㅋㅋㅋㅋㅋㅋㅋㅋㅋㅋㅋㅋㅋㅋ댕이":13011,"해야해":13012,"아닌거":13013,"아닌듯":13014,"##어야해":13015,"남자애들":13016,"##ㅠㅠㅠㅠㅠㅠㅠㅠㅠㅠ":13017,"끝나떠":13018,"타롱해♡♡":13019,"여자애들":13020,"ㅡㅡㅋㅋㅋㅋ":13021,"출발하께":13022,"그랬다":13023,"수업을":13024,"나가기":13025,"받아들이":13026,"##엄마는":13027,"나왔다":13028,"##시반까지":13029,"##이따가":13030,"부분을":13031,"지원동기":13032,"##학교에서":13033,"깃헙요정":13034,"##여기까지":13035,"자체는":13036,"맞는듯":13037,"부모가":13038,"기여워":13039,"##eap":13040,"포기하고":13041,"하기엔":13042,"그런가바":13043,"나온다":13044,"아니었으면":13045,"대학생":13046,"##스럽고":13047,"인생이":13048,"만날까":13049,"성장하는":13050,"##스크린":13051,"##댕이야나":13052,"모르게따":13053,"##알쪄알쪄":13054,"여친이":13055,"어렵다":13056,"안들어가":13057,"타롱햐♡":13058,"어떡하지":13059,"##시켜서":13060,"##명이서":13061,"180":13062,"##아이디어":13063,"문과생":13064,"먹으까":13065,"떠올라":13066,"##이이이이이":13067,"답답해":13068,"최소한":13069,"금융권":13070,"##처음에":13071,"제공하는":13072,"경쟁률":13073,"어딨어":13074,"싸우지":13075,"##재밌게":13076,"알겠는데":13077,"##년도에":13078,"나눠서":13079,"##생각해보니까":13080,"수강하며":13081,"##etup":13082,"구체적으로":13083,"##ervo":13084,"선생님":13085,"endl":13086,"##정보통신":13087,"IN":13088,"ONE":13089,"bfs":13090,"kt":13091,"py":13092,"read":13093,"setup":13094,"ㄱㄷ":13095,"가려고":13096,"간호":13097,"간첩":13098,"갈라":13099,"갑자깅":13100,"같네":13101,"거슬":13102,"거까지":13103,"거냐고":13104,"건디":13105,"것으로":13106,"고정":13107,"구혜":13108,"국민":13109,"규칙":13110,"근거":13111,"기울":13112,"기름":13113,"기부니가":13114,"길어":13115,"껄껄":13116,"나지":13117,"나감":13118,"나는데":13119,"난감":13120,"난이도":13121,"낮은":13122,"넣는":13123,"다닌":13124,"단점":13125,"댕타":13126,"동네":13127,"뒹굴":13128,"듣는데":13129,"들면":13130,"때만":13131,"땡기":13132,"뜨면":13133,"마자나":13134,"만화":13135,"매년":13136,"맥북":13137,"먹규":13138,"멤버":13139,"몰러":13140,"못했다":13141,"밀어":13142,"버리":13143,"버린":13144,"보냄":13145,"보완":13146,"부동산":13147,"분이":13148,"빠를":13149,"빡침":13150,"사지":13151,"사주는":13152,"사주고":13153,"상품":13154,"생기면":13155,"솔루션":13156,"수술":13157,"슈도":13158,"시전":13159,"시즌":13160,"심해":13161,"싶따":13162,"쏟아":13163,"쓰려고":13164,"안심":13165,"안먹":13166,"알면":13167,"앞서":13168,"애로":13169,"야쓰":13170,"어머니":13171,"어쩐지":13172,"없으":13173,"여긴":13174,"오나":13175,"오라":13176,"올림":13177,"왠지":13178,"외박":13179,"욕하는":13180,"운명":13181,"웃고":13182,"웅ㅇ":13183,"으로":13184,"으으":13185,"이잉":13186,"있니":13187,"있더라":13188,"잘래":13189,"잡혀":13190,"쟤네":13191,"저항":13192,"전까지는":13193,"조언":13194,"좋네":13195,"중이야":13196,"직전에":13197,"집가서":13198,"징징":13199,"쩌업":13200,"참조":13201,"찾고":13202,"초록":13203,"추억":13204,"추석":13205,"코틀린":13206,"콘텐츠":13207,"태그":13208,"택배":13209,"토글":13210,"토론":13211,"통장":13212,"통학":13213,"투표":13214,"평소":13215,"포스트":13216,"핑크":13217,"하께":13218,"학사":13219,"할끄야":13220,"해라":13221,"해바":13222,"했대":13223,"혼나":13224,"혼란":13225,"흰색":13226,"##어렵":13227,"##어셈":13228,"##남은":13229,"##던디":13230,"##성은":13231,"##입을":13232,"##더만":13233,"##oT":13234,"##자네":13235,"##기두":13236,"##기술":13237,"##하나도":13238,"##하려는":13239,"##인하":13240,"##는뎈":13241,"##이음":13242,"##이너가":13243,"##만두":13244,"##ㄷㅔ":13245,"##아저씨":13246,"##가로":13247,"##리카":13248,"##제출":13249,"##일도":13250,"##일은":13251,"##일때":13252,"##일뿐":13253,"##일텐데":13254,"##야근":13255,"##야해서":13256,"##으론":13257,"##오ㅓ":13258,"##새벽":13259,"##거란":13260,"##거리는":13261,"##거기에":13262,"##예쁜":13263,"##었더":13264,"##모가":13265,"##모르게":13266,"##상도":13267,"##상으로":13268,"##ㅌㅋㅋㅋㅋㅋㅋㅋ":13269,"##방구":13270,"##방이":13271,"##시킨":13272,"##봤어":13273,"##버리네":13274,"##려먹":13275,"##했단":13276,"##했옹":13277,"##때나":13278,"##달래":13279,"##중야":13280,"##우가":13281,"##단이":13282,"##날에":13283,"##왜냐하면":13284,"##말로":13285,"##또카지":13286,"##내꺼":13287,"##취준":13288,"##결론":13289,"##경량화":13290,"##줄이":13291,"##줄거야":13292,"##사지":13293,"##xt":13294,"##ft":13295,"##난리":13296,"##왔고":13297,"##막상":13298,"##점대":13299,"##신지":13300,"##cu":13301,"##눈물":13302,"##물실":13303,"##분은":13304,"##무한":13305,"##형으로":13306,"##플레":13307,"##플러스":13308,"##할머니":13309,"##저도":13310,"##앙데":13311,"##바보":13312,"##뭔소리":13313,"##받을":13314,"##밥은":13315,"##땡아":13316,"##속에서":13317,"##타입":13318,"##관리":13319,"##ag":13320,"##ap":13321,"##ans":13322,"##적이지":13323,"##적이고":13324,"##블로그":13325,"##께♡":13326,"##개웃":13327,"##개념":13328,"##텐도":13329,"##렸을":13330,"##출력":13331,"##머스":13332,"##월급":13333,"##배기":13334,"##본데":13335,"##브라":13336,"##았지":13337,"##넘넘":13338,"##굥이":13339,"##둥이":13340,"##곱창":13341,"##몰랑":13342,"##답이":13343,"##놈이":13344,"##외국":13345,"##FF":13346,"##휘몰아":13347,"##UP":13348,"##젠장":13349,"##♥♥":13350,"##🍃휘몰아":13351,"##ㅋㅋㅋㅋ내가":13352,"##ㅋㅋㅋ🌀":13353,"ㅋㅋㅋㅋ엥":13354,"ㅋㅋㅋㅋ웅냐":13355,"ㅋㅋㅋㅋ후후":13356,"ㅋㅋㅋㅋ일케":13357,"아니란":13358,"댕아난":13359,"ㅠㅠ난":13360,"ㅠㅠ오늘":13361,"진짜로":13362,"생각엔":13363,"웅냐ㅋㅋㅋㅋ":13364,"사람의":13365,"그래놓고":13366,"ㅎㅎㅎㅎㅎㅎ":13367,"이거봐":13368,"하는지":13369,"ㅠㅠㅠㅠㅠ댕이":13370,"들어오면":13371,"타롱을":13372,"그러다가":13373,"##하지도":13374,"만나구":13375,"얘기하자":13376,"일단은":13377,"ㅜㅜㅋㅋㅋㅋ":13378,"##해야해":13379,"##해야할":13380,"언제나":13381,"언제부터":13382,"있었을":13383,"있었다":13384,"있었으면":13385,"해야징":13386,"해야할지":13387,"고생해써":13388,"아니라면":13389,"##ㅋㅋㅋㅋㅋㅋㅋㅋㅋㅋㅋㅋㅋㅋㅋㅋㅋㅋㅋㅋㅋㅋㅋㅋㅋㅋㅋㅋㅋㅋㅋㅋㅋㅋㅋㅋ":13390,"안되나":13391,"안되냐":13392,"오구댕이":13393,"그렇구만":13394,"이러니까":13395,"다른데":13396,"없는게":13397,"들어가면":13398,"가야해":13399,"##스트라":13400,"받아야":13401,"##이이잉":13402,"##그거랑":13403,"##정도는":13404,"기다리구":13405,"준비를":13406,"마음은":13407,"피곤한데":13408,"##저나하구":13409,"이떠여":13410,"떨어지고":13411,"하루만":13412,"##ㄷㄷㄷㄷㄷ":13413,"기억나":13414,"ㅎㅋㅎㅋㅎㅋ":13415,"돌아다니":13416,"누구한테":13417,"##어디로":13418,"끝났어":13419,"##힝구네":13420,"결혼하면":13421,"100만원":13422,"어쩌다":13423,"다니면서":13424,"아프면":13425,"##ess":13426,"있으며":13427,"찡찡대":13428,"##ㅌㅌㅌㅌㅌㅌㅌㅌ":13429,"##child":13430,"시키고":13431,"##웃기ㅋㅋㅋ🌀":13432,"##귀여웤":13433,"방법을":13434,"보냈습니다":13435,"이용하여":13436,"##나보지":13437,"때려치고":13438,"메시지를":13439,"개빡쳐":13440,"바꾸고":13441,"느껴지는":13442,"자동환불":13443,"##ㅠㅠㅠㅠㅠㅠㅠㅠㅠㅠㅠㅠㅠㅠㅠㅠㅠㅠㅠㅠㅠㅠㅠㅠㅠㅠㅠㅠㅠㅠㅠㅠ":13444,"넘어가는":13445,"좋겠는데":13446,"도움을":13447,"##ㅓㅏㅓㅏㅓㅏㅓㅏ":13448,"##zzzzzzzz":13449,"만약에":13450,"고객의":13451,"남편이":13452,"자세히":13453,"소비자의":13454,"##생각해보니":13455,"수강신청":13456,"가르쳐":13457,"##백동원님이":13458,"배불러":13459,"장단점":13460,"아닙니다":13461,"##스라이팅":13462,"INPUT":13463,"##🍃휘몰아웃기ㅋㅋㅋ🌀":13464,"1위":13465,"1억":13466,"2만원":13467,"3차":13468,"3시에":13469,"4명":13470,"45분":13471,"9월":13472,"9호선":13473,"999":13474,"cpp":13475,"dow":13476,"iost":13477,"tmp":13478,"ㅡㅋㅋㅋㅋ":13479,"가보":13480,"각각":13481,"간대":13482,"갠찮":13483,"거죠":13484,"거마우":13485,"것이라":13486,"고통":13487,"고로":13488,"고터":13489,"고양":13490,"구월":13491,"국가":13492,"그린":13493,"기뻐":13494,"깨닫":13495,"꼬꼬":13496,"꿈에":13497,"나눈":13498,"났어":13499,"너두":13500,"넘는":13501,"뇌절":13502,"누구나":13503,"눈앞에서":13504,"느려":13505,"담당":13506,"대다":13507,"대외활동":13508,"더워서":13509,"덕에":13510,"데가":13511,"동워":13512,"돼쪄":13513,"되잖아":13514,"뒤에서":13515,"때랑":13516,"떴는데":13517,"리더":13518,"마치":13519,"많을":13520,"말라는":13521,"매주":13522,"먹으면서":13523,"먼데":13524,"면제":13525,"몇년":13526,"모가":13527,"목이":13528,"못찾":13529,"못봐서":13530,"뭠마":13531,"믿을":13532,"바탕":13533,"바라는":13534,"바이러":13535,"번역":13536,"변화":13537,"변수":13538,"별거":13539,"별루":13540,"보까":13541,"복싱":13542,"봐야대":13543,"부럽다":13544,"불만":13545,"비해":13546,"빠지":13547,"빵댕이":13548,"사다":13549,"사원":13550,"사수가":13551,"설득":13552,"쉬웠":13553,"스킬":13554,"스택":13555,"스튜디오":13556,"시기":13557,"시리얼":13558,"신은":13559,"쓰다가":13560,"씻어":13561,"아웃":13562,"안무":13563,"안썼":13564,"알지만":13565,"어우":13566,"어깨":13567,"없더":13568,"없었다":13569,"여튼":13570,"여섯":13571,"영향":13572,"예외":13573,"예측":13574,"오규":13575,"온댕":13576,"온갖":13577,"우동":13578,"웅ㅇ웅":13579,"원칙":13580,"의문":13581,"의식":13582,"이만":13583,"이득":13584,"자꺼야":13585,"자기는":13586,"작아":13587,"잘쟈":13588,"잘끄야":13589,"장점":13590,"적금":13591,"조사":13592,"주의":13593,"중딩":13594,"진작":13595,"참나":13596,"찾을":13597,"출전":13598,"츄리닝":13599,"캐릭":13600,"컨버터":13601,"키키":13602,"태경형":13603,"토욜에":13604,"파란":13605,"풀면":13606,"프론트":13607,"하쟈":13608,"학과":13609,"학원":13610,"할꺼":13611,"할텐데":13612,"해두":13613,"호캉스":13614,"##어쨌든":13615,"##통신":13616,"##그룹":13617,"##그동안":13618,"##니깡":13619,"##나머지는":13620,"##자들":13621,"##하드":13622,"##하눈뎅":13623,"##고마오":13624,"##구대":13625,"##안드":13626,"##만으로":13627,"##서야":13628,"##서유":13629,"##아ㅏ":13630,"##가격":13631,"##리니까":13632,"##일걸":13633,"##일부러":13634,"##야겠":13635,"##다다":13636,"##다보면":13637,"##2개":13638,"##소린지":13639,"##ㅋㄷ":13640,"##으셨":13641,"##해줌":13642,"##오나":13643,"##쳐도":13644,"##국공":13645,"##마스크":13646,"##릴까":13647,"##거파":13648,"##었다는":13649,"##주라":13650,"##주세여":13651,"##공수":13652,"##상태":13653,"##학을":13654,"##ㅗㅗ":13655,"##ㅗㅜㅑ":13656,"##든지":13657,"##시킬":13658,"##부로":13659,"##여도":13660,"##의식":13661,"##했으니까":13662,"##한지":13663,"##한숨":13664,"##갔져":13665,"##과정":13666,"##임베":13667,"##말하는":13668,"##1분":13669,"##취소":13670,"##문재":13671,"##문에서":13672,"##징ㅋㅋㅋㅋ":13673,"##비싸":13674,"##사회":13675,"##왔던":13676,"##신이":13677,"##재경":13678,"##pl":13679,"##꺼가":13680,"##법이":13681,"##세수":13682,"##뭐래":13683,"##ㄹ케":13684,"##설팅":13685,"##힘드로":13686,"##받은":13687,"##옹이":13688,"##추천":13689,"##ay":13690,"##항항":13691,"##알람":13692,"##개꿀":13693,"##김치":13694,"##맛이":13695,"##맛있는":13696,"##dm":13697,"##검색":13698,"##왠지":13699,"##배는":13700,"##식은":13701,"##았습니다":13702,"##쥬ㅓ":13703,"##레이터":13704,"##셔야":13705,"##페미":13706,"##션이":13707,"##박스":13708,"##70":13709,"##74":13710,"##베이스":13711,"##졸귀탱":13712,"##쪼끔":13713,"##휘이잉":13714,"##극혐":13715,"##😭😭":13716,"ㅋㅋㅋㅋ오늘":13717,"ㅋㅋㅋㅋ하지만":13718,"ㅋㅋㅋㅋ언제":13719,"ㅋㅋㅋㅋ댱이":13720,"댕이ㅋㅋㅋㅋ":13721,"아니거든":13722,"아니었는데":13723,"근데나":13724,"##하는지":13725,"##인데왜":13726,"ㅋㅋ와":13727,"##이랑도":13728,"타롱이":13729,"그러치":13730,"##이거나":13731,"ㅋㅋㅋㅋㅋㅋㅋㅋㅋㅋㅋ아":13732,"ㅋㅋㅋㅋㅋㅋㅋㅋㅋㅋㅋ댕아":13733,"만나기":13734,"보고시퍼":13735,"시간초과":13736,"##잖아요":13737,"ㅋㅋㅋㅋㅋㅋㅋㅋㅋㅋㅋㅋㅋㅋㅋ아니":13738,"좋아해서":13739,"##ㅋㅋㅋㅋㅋㅋㅋㅋㅋㅋㅋㅋㅋㅋㅋㅋㅋㅋㅋㅋㅋㅋㅋㅋㅋㅋㅋㅋㅋㅋㅋㅋㅋㅋㅋㅋㅋ":13740,"그렇네":13741,"알아찌":13742,"남자들이":13743,"카톡도":13744,"카톡할게":13745,"##거든근데":13746,"히히나":13747,"출발해여":13748,"출발할게":13749,"고마옹":13750,"아무렇":13751,"가야할":13752,"나와또":13753,"여기는":13754,"여기저기":13755,"행복했구":13756,"엄청난":13757,"##ere":13758,"이해하고":13759,"기다렸":13760,"똑같은데":13761,"준비해야":13762,"전화를":13763,"##하자너":13764,"선물로":13765,"선물과":13766,"말해도":13767,"말해줬":13768,"말해줘":13769,"걱정이":13770,"내려또":13771,"돌아다":13772,"처음으로":13773,"고민이":13774,"올라온":13775,"않았어":13776,"않았나":13777,"않았는데":13778,"ㅋㅋㅋㅋㅋㅋㅋㅋㅋㅋㅋㅋㅋㅋㅋㅋㅋㅋㅋㅋㅋㅋㅋㅋㅋㅋㅋㅋㅋㅋㅋㅋㅋㅋㅋㅋㅋㅋㅋㅋㅋㅋㅋㅋㅋㅋ":13779,"##프로는":13780,"30초":13781,"끝났는데":13782,"오래걸":13783,"알려줘":13784,"알려주는":13785,"##마니마니":13786,"다행이네":13787,"##베디드는":13788,"말했잖아":13789,"받았던":13790,"##요즘에":13791,"예정입니다":13792,"##아무래도":13793,"다르다고":13794,"##보구시퍼":13795,"경우에는":13796,"카페에서":13797,"##구래구래":13798,"도전하는":13799,"개발자의":13800,"상태로":13801,"도와주":13802,"모르게떠":13803,"##그걸로":13804,"이름이":13805,"대한민국":13806,"##art":13807,"동기들":13808,"마곡나루로":13809,"##시키는":13810,"표정으로":13811,"모습을":13812,"뛰어난":13813,"느끼게":13814,"##더더더더":13815,"##ㅔㅔㅔㅔ":13816,"안고파":13817,"가슴이":13818,"어린이":13819,"갈아입고":13820,"불쌍한":13821,"실화인가":13822,"충전기":13823,"프린터":13824,"프린트":13825,"새벽에":13826,"##은굥이":13827,"메모리":13828,"프리랜":13829,"인하공방":13830,"##인나쪄":13831,"사촌동생":13832,"피료해":13833,"NUM":13834,"뽀시래기":13835,"불구하고":13836,"인터럽트":13837,"비롯하여":13838,"##🍃휘몰아웃기ㅋㅋㅋ🌀휘이잉":13839,"down":13840,"iostream":13841,"33":13842,"3명":13843,"4년":13844,"5명":13845,"5살":13846,"5G":13847,"5시간":13848,"IoT":13849,"LG":13850,"PU":13851,"cns":13852,"fail":13853,"json":13854,"sm":13855,"wine":13856,"ㅅㄱ":13857,"ㅌㅋㅋㅋㅋㅋㅋㅋㅋ":13858,"가탕":13859,"가니까":13860,"가다가":13861,"간지":13862,"갈수":13863,"갈듯":13864,"갈끄야":13865,"감염":13866,"감정이":13867,"갔으면":13868,"강조":13869,"같진":13870,"개강":13871,"갠차낭":13872,"거네":13873,"것에":13874,"계정":13875,"고랭":13876,"고백":13877,"공공":13878,"공기업":13879,"구대":13880,"구치":13881,"귀야오":13882,"극복":13883,"글케":13884,"기달":13885,"깨지":13886,"꺄르륵":13887,"꺼낸":13888,"꼬기":13889,"나다":13890,"나이가":13891,"남음":13892,"남기고":13893,"내놓":13894,"너뮤":13895,"넘겨":13896,"넣을":13897,"네트워크":13898,"놀면":13899,"놀았":13900,"놈들":13901,"닫았":13902,"당하는":13903,"대출":13904,"댄니":13905,"도히":13906,"동갑":13907,"되겠다":13908,"든다":13909,"들이":13910,"들음":13911,"때리":13912,"땽이":13913,"로맨":13914,"마장":13915,"마련":13916,"마우스":13917,"만남":13918,"말투":13919,"말돌":13920,"말하는데":13921,"머가":13922,"머냐":13923,"먹는데":13924,"멈추":13925,"명동":13926,"몇시":13927,"모양":13928,"목적":13929,"몰아":13930,"뭐하":13931,"뭐다":13932,"미오":13933,"미련":13934,"발로":13935,"밥을":13936,"버리구":13937,"보인":13938,"보게":13939,"보네":13940,"본다":13941,"봤더니":13942,"분반":13943,"분노":13944,"붙으면":13945,"비율":13946,"빵떡":13947,"뻔히":13948,"사장":13949,"산업":13950,"상위":13951,"세트":13952,"소환":13953,"수리":13954,"수익":13955,"숙소":13956,"쉬워":13957,"시장":13958,"시푼":13959,"식은":13960,"실기":13961,"심사":13962,"쓰긴":13963,"아구":13964,"아재":13965,"아놔":13966,"안열":13967,"안가고":13968,"알쏘":13969,"앞뒤":13970,"얘긴":13971,"업그레이드":13972,"여덟":13973,"예비":13974,"오자마자":13975,"올랐":13976,"와야대":13977,"왔더":13978,"왔당":13979,"왔옹":13980,"울고":13981,"음슴":13982,"읎다":13983,"이나":13984,"이에":13985,"이과":13986,"이마트":13987,"이력서":13988,"인기":13989,"인형":13990,"임원":13991,"임베":13992,"있길래":13993,"자게":13994,"작가":13995,"잘잤":13996,"잠시":13997,"전전남친":13998,"정류":13999,"져은데":14000,"조용":14001,"좀비":14002,"좋지만":14003,"죠은":14004,"줄이":14005,"줄일":14006,"지지":14007,"지났":14008,"짧은":14009,"쪼개":14010,"차별":14011,"찾기":14012,"첨엔":14013,"청바지":14014,"커버":14015,"콘경":14016,"콜라":14017,"콩나물":14018,"크라우드":14019,"클났다":14020,"태경이":14021,"통계":14022,"튀어나":14023,"파트":14024,"파워":14025,"팔로우":14026,"패스":14027,"하필":14028,"하냐고":14029,"한시":14030,"합의":14031,"해놓":14032,"했구":14033,"화해":14034,"후엥":14035,"히용쓰":14036,"##어플":14037,"##미아냉":14038,"##였는지":14039,"##그라":14040,"##그와중에":14041,"##성도":14042,"##성적":14043,"##데마":14044,"##더나":14045,"##gle":14046,"##나이":14047,"##나쁘":14048,"##나ㅋㅋㅋㅋ":14049,"##나는데":14050,"##자동":14051,"##자연":14052,"##기요":14053,"##하텍":14054,"##고에":14055,"##이면서":14056,"##이걸로":14057,"##안그래도":14058,"##도에":14059,"##애당초":14060,"##대기":14061,"##대아":14062,"##가까":14063,"##랑이":14064,"##리아":14065,"##각형":14066,"##일이야":14067,"##다섯":14068,"##2차":14069,"##으휴":14070,"##마을":14071,"##새로":14072,"##새로운":14073,"##거구":14074,"##거랑":14075,"##거시야":14076,"##예나":14077,"##예전":14078,"##보려고":14079,"##모나":14080,"##모지":14081,"##모터":14082,"##ㅌㅋㅋㅋㅋㅋㅋㅋㅋㅋㅋ":14083,"##러운":14084,"##게ㅛ":14085,"##부리":14086,"##부지":14087,"##여러":14088,"##봤더니":14089,"##간당":14090,"##려다":14091,"##올리":14092,"##정상":14093,"##정치":14094,"##uu":14095,"##초딩":14096,"##한명":14097,"##전세":14098,"##중이":14099,"##중요":14100,"##우수":14101,"##bt":14102,"##프다":14103,"##프사":14104,"##프레":14105,"##넼ㅋㅋㅋㅋㅋㅋㅋ":14106,"##단지":14107,"##내년":14108,"##까바":14109,"##동방":14110,"##질이":14111,"##비번":14112,"##줄래":14113,"##재수강":14114,"##물리":14115,"##쓰면":14116,"##죠서":14117,"##뭐해":14118,"##잠시만":14119,"##할끄야":14120,"##치즈":14121,"##치는데":14122,"##회장":14123,"##케이스":14124,"##살아":14125,"##긴했는데":14126,"##타나":14127,"##추가":14128,"##놔서":14129,"##ack":14130,"##40":14131,"##4개":14132,"##4번":14133,"##블러":14134,"##된대":14135,"##른데":14136,"##묜서":14137,"##온라인":14138,"##괜차나":14139,"##검사":14140,"##패스":14141,"##헤헤":14142,"##호가":14143,"##값이":14144,"##얌마":14145,"##맞네":14146,"##빼고":14147,"##작은":14148,"##둘다":14149,"##7시":14150,"##옆에":14151,"##렀다":14152,"##긋네":14153,"##빤니":14154,"##담주에":14155,"##맘에":14156,"##Data":14157,"##율주행":14158,"##훨씬":14159,"##quest":14160,"##ㄳㄳ":14161,"##ㅋㅋㅋㅋ와":14162,"ㅋㅋㅋㅋ야":14163,"ㅋㅋㅋㅋㅋ댕아":14164,"아니여":14165,"ㅋㅋㅋㅋㅋㅋㅋㅋ나두":14166,"ㅠㅠ근데":14167,"생각인데":14168,"웅냐나":14169,"ㅋㅋㅋㅋㅋㅋㅋㅋㅋㅋㅋㅋ근데":14170,"웅웅나":14171,"그래프":14172,"이거랑":14173,"이거야":14174,"##인데요":14175,"##인데ㅋㅋㅋㅋ":14176,"사랑이":14177,"사랑하고":14178,"들어올":14179,"그러더라":14180,"그런지":14181,"그런게":14182,"##아아ㅏ":14183,"ㅜㅜㅜㅜ":14184,"보고시포":14185,"문제야":14186,"잘자♡":14187,"##이었다고":14188,"##ㅋㅋㅋㅋㅋㅋㅋㅋㅋㅋㅋㅋㅋㅋㅋㅋㅋㅋㅋㅋㅋㅋㅋㅋㅋㅋㅋㅋㅋㅋㅋㅋㅋㅋㅋㅋㅋㅋㅋㅋ":14189,"아닌디":14190,"끝나자마자":14191,"타롱해♡♡♡♡":14192,"카톡으로":14193,"없는디":14194,"사랑해♡♡♡":14195,"그랬고":14196,"들어가고":14197,"가야하는데":14198,"가야하나":14199,"친구는":14200,"말고는":14201,"이번달":14202,"가는게":14203,"시작함":14204,"##그거는":14205,"준비하구":14206,"마음의":14207,"오께여":14208,"안나옴":14209,"잘게여":14210,"찾아보고":14211,"하루도":14212,"소리지":14213,"걱정하지":14214,"느낌이야":14215,"11시에":14216,"많아또":14217,"상황을":14218,"사라지":14219,"않았고":14220,"아닐걸":14221,"아닐텐데":14222,"ㅋㅋㅋㅋㅋㅋㅋㅋㅋㅋㅋㅋㅋㅋㅋㅋㅋㅋㅋㅋㅋㅋㅋㅋㅋㅋㅋㅋㅋㅋㅋㅋㅋㅋㅋㅋㅋㅋㅋㅋㅋㅋㅋㅋㅋㅋㅋ":14223,"##10시에":14224,"옹냐옹냐":14225,"어쩌구":14226,"가지러":14227,"되었고":14228,"##ㅣㅣㅣ":14229,"##ean":14230,"해결하고":14231,"마지막으로":14232,"얼굴이":14233,"다니고":14234,"다르니까":14235,"알떠알떠":14236,"헤어진":14237,"수준이":14238,"되어있":14239,"부족해서":14240,"##하냐구":14241,"확실한":14242,"호고독":14243,"1년동안":14244,"결과가":14245,"사주까":14246,"예쁘고":14247,"취준생":14248,"그로치":14249,"##12시":14250,"##귀여운":14251,"##다음에":14252,"##이에용":14253,"##점심은":14254,"있긴한데":14255,"신한은행에서":14256,"검색하면":14257,"진행하는":14258,"ㄷㄷㄷㄷㄷㄷ":14259,"선배가":14260,"##시쯤에":14261,"감사합니다":14262,"넘어가면":14263,"바뀌고":14264,"바뀌는":14265,"한달에":14266,"과목을":14267,"##하쟈♡":14268,"##머거떠":14269,"과정을":14270,"##모르겠다":14271,"모델을":14272,"분야의":14273,"웃긴게":14274,"졸리다":14275,"갈아입구":14276,"##동영상동영상동영상동영상":14277,"머시냐":14278,"##ㄱㅅㄱㅅ":14279,"소중한":14280,"행보케":14281,"뒤집어":14282,"##라스틱":14283,"별개로":14284,"이벤트":14285,"카카오페이머니는":14286,"꼼꼼히":14287,"유모차":14288,"##🍃휘몰아웃기ㅋㅋㅋ🌀휘이잉🍃휘몰아웃기ㅋㅋㅋ🌀휘이잉":14289,"PULL":14290,"1호선":14291,"4시간":14292,"5시에":14293,"6개":14294,"6월":14295,"7장":14296,"8만원":14297,"hm":14298,"te":14299,"ㅎㄹ":14300,"ㅎㅇ":14301,"가디":14302,"가자고":14303,"가스라이팅":14304,"같습니다":14305,"개이":14306,"거군":14307,"걸어서":14308,"걸리고":14309,"고장":14310,"곳도":14311,"관한":14312,"교양":14313,"구두":14314,"굴러":14315,"귀요워":14316,"그날":14317,"그녀":14318,"글이":14319,"길을":14320,"꺼져":14321,"끊고":14322,"나음":14323,"나왓":14324,"나처럼":14325,"남들":14326,"넉넉":14327,"놀랐":14328,"누르고":14329,"눈썹":14330,"눈물이":14331,"다익":14332,"다쳤":14333,"닭갈비":14334,"담배":14335,"당하고":14336,"대고":14337,"댱이는":14338,"더더":14339,"더착":14340,"데에":14341,"돌리면":14342,"동일":14343,"땡깡":14344,"랩실":14345,"렌즈":14346,"마시고":14347,"맞춤":14348,"머겅":14349,"멋있":14350,"모여서":14351,"목숨":14352,"못했을":14353,"문장":14354,"뭐냐고":14355,"뭐라구":14356,"미치":14357,"믿는":14358,"바꾼":14359,"반쯤":14360,"반드시":14361,"배차":14362,"범죄":14363,"보단":14364,"보셈":14365,"볼래":14366,"부리":14367,"부숴":14368,"부스트":14369,"불이":14370,"비판":14371,"비플":14372,"빡센":14373,"사구":14374,"사떠":14375,"살게":14376,"삼십분":14377,"상반기":14378,"성향":14379,"성추행":14380,"세번":14381,"손가락":14382,"시위":14383,"시져":14384,"식당":14385,"실내":14386,"싶으니까":14387,"싸이":14388,"쓰니까":14389,"씨가":14390,"않네":14391,"알징":14392,"알쬬":14393,"양이":14394,"어지":14395,"어머":14396,"어마어마":14397,"억지로":14398,"없게":14399,"오르":14400,"오니까":14401,"오꺼야":14402,"온다고":14403,"올ㅋ":14404,"와두":14405,"우수":14406,"유통":14407,"융융":14408,"의도":14409,"의사":14410,"이진":14411,"이지":14412,"이쏘":14413,"인풋":14414,"일욜에":14415,"읽는":14416,"있기":14417,"있겠":14418,"있겠지만":14419,"잘때":14420,"잘라구":14421,"장학":14422,"재생":14423,"저때":14424,"저쩌":14425,"저럴":14426,"전국":14427,"전달":14428,"전에는":14429,"정수":14430,"정책":14431,"정렬":14432,"조합":14433,"졸라":14434,"졸령":14435,"주로":14436,"주도":14437,"주인공":14438,"중임":14439,"증가":14440,"지우고":14441,"집도착":14442,"차지":14443,"찾았다":14444,"출구":14445,"출시":14446,"캐글":14447,"커리":14448,"커밋":14449,"커리어":14450,"컨디":14451,"탑승":14452,"탔졍":14453,"터질":14454,"특허":14455,"파마":14456,"평일":14457,"포트":14458,"피방":14459,"피드":14460,"하진":14461,"하심":14462,"하라는":14463,"한결":14464,"한번에":14465,"할라구":14466,"해줌":14467,"해찌":14468,"해달라고":14469,"했나":14470,"했단":14471,"현직":14472,"현차":14473,"현정이":14474,"황당":14475,"희희":14476,"##짜잔":14477,"##그등":14478,"##약속":14479,"##더워":14480,"##나름":14481,"##자와":14482,"##자취":14483,"##자바":14484,"##자체":14485,"##기지":14486,"##하심":14487,"##하늘":14488,"##하길래":14489,"##고가":14490,"##인성":14491,"##인거고":14492,"##이랭":14493,"##도시":14494,"##앵간":14495,"##을지":14496,"##심심":14497,"##근무":14498,"##대단":14499,"##아오":14500,"##가장":14501,"##언니가":14502,"##제는":14503,"##제발":14504,"##에러":14505,"##야한다":14506,"##다이어트":14507,"##28":14508,"##소한":14509,"##소름":14510,"##소에서":14511,"##해짐":14512,"##해볼":14513,"##음밥":14514,"##요리":14515,"##었거든":14516,"##감사":14517,"##보임":14518,"##공채":14519,"##모두":14520,"##ㅌㅋㅋㅋㅋㅋㅋㅋㅋ":14521,"##ㅌㅋㅋㅋ":14522,"##ㅌㅋㅋㅋㅋㅋ":14523,"##ㅌㅋㅋㅋㅋㅋㅋㅋㅋㅋ":14524,"##방송":14525,"##파라":14526,"##시원":14527,"##버리는":14528,"##려니":14529,"##르지":14530,"##겠찌":14531,"##스랑":14532,"##스테":14533,"##정석":14534,"##했군":14535,"##us":14536,"##초반":14537,"##당근":14538,"##당요":14539,"##평가":14540,"##평균":14541,"##갔다가":14542,"##전은":14543,"##전거":14544,"##전부":14545,"##전혀":14546,"##급으로":14547,"##우유":14548,"##우린":14549,"##우분투":14550,"##것만":14551,"##1차":14552,"##15분":14553,"##수준":14554,"##동의":14555,"##판에":14556,"##되긴":14557,"##되자나":14558,"##두개":14559,"##두번째":14560,"##건강":14561,"##겼다":14562,"##31":14563,"##줬음":14564,"##범위":14565,"##선은":14566,"##분히":14567,"##집도":14568,"##ㅍ퓨":14569,"##무룩":14570,"##저걸":14571,"##역에":14572,"##따ㅋㅋㅋㅋ":14573,"##바빠":14574,"##케이":14575,"##계산":14576,"##긴해":14577,"##타닉":14578,"##테고":14579,"##알았":14580,"##알았어":14581,"##매우":14582,"##므로":14583,"##양심":14584,"##텐뎅":14585,"##노래":14586,"##머신":14587,"##ws":14588,"##팀이":14589,"##월요일":14590,"##배로":14591,"##줘야지":14592,"##콘경":14593,"##똑같이":14594,"##꼬치":14595,"##최대한":14596,"##7분":14597,"##핸드폰":14598,"##짘ㅋㅋㅋㅋㅋ":14599,"##GH":14600,"##암것도":14601,"##덜덜":14602,"##CT":14603,"##뮤ㅓ":14604,"##헬스":14605,"##샐러드":14606,"##ㅋㅋㅋㅋ사진":14607,"ㅋㅋㅋㅋㅠㅠ":14608,"ㅋㅋㅋㅋ그래서":14609,"ㅋㅋㅋㅋ댕아나":14610,"ㅋㅋㅋㅋ그건":14611,"댕이만":14612,"아니나":14613,"아니어도":14614,"ㅋㅋㅋㅋㅋㅋㅋㅋㅋㅋㅋㅋㅋ아니":14615,"생각이야":14616,"웅냐♡♡♡":14617,"그래또":14618,"오늘까지":14619,"지금의":14620,"도착해쪄":14621,"있는디":14622,"ㅋㅋㅋㅋㅋㅋㅋㅋㅋㅋ댕이":14623,"ㅋㅋㅋㅋㅋㅋㅋㅋㅋㅋ아니":14624,"오빠를":14625,"하나라도":14626,"사진찍":14627,"##우리도":14628,"ㅋㅋㅋㅋㅋㅋㅋㅋㅋㅋㅋㅋㅋㅋ아":14629,"ㅜㅜㅠ":14630,"문제도":14631,"문제에":14632,"##해야하지":14633,"언제까지":14634,"있었지":14635,"있었져":14636,"공부해":14637,"##구나두":14638,"아니라걍":14639,"##해주세요":14640,"##ㅋㅋㅋㅋㅋㅋㅋㅋㅋㅋㅋㅋㅋㅋㅋㅋㅋㅋㅋㅋㅋㅋㅋㅋㅋㅋㅋㅋㅋㅋㅋㅋㅋㅋㅋ":14641,"안되니까":14642,"어디에":14643,"힝구야":14644,"힝구네":14645,"만들었":14646,"##어야대":14647,"나오네":14648,"계속해서":14649,"마자마자":14650,"필요도":14651,"보내죠":14652,"그랬을":14653,"잘못했네":14654,"생각해봤는데":14655,"##하다니":14656,"때문이야":14657,"때문입니다":14658,"##어가고":14659,"아이패":14660,"##그거슨":14661,"기다릴":14662,"마음으로":14663,"알았지":14664,"안해줘":14665,"아빠도":14666,"않아도":14667,"안나가":14668,"면접관":14669,"말해줘서":14670,"걱정돼":14671,"타롱하구잘자구":14672,"연락이":14673,"올라가는":14674,"어떻게든":14675,"##해보께":14676,"사라진":14677,"ㅋㅋㅋㅋㅋㅋㅋㅋㅋㅋㅋㅋㅋㅋㅋㅋㅋㅋㅋㅋㅋㅋㅋㅋㅋㅋㅋㅋㅋㅋㅋㅋㅋㅋㅋㅋㅋㅋㅋㅋㅋㅋㅋㅋㅋㅋㅋㅋㅋㅋㅋㅋ":14678,"짜증을":14679,"미친놈":14680,"##zzz":14681,"갈게여":14682,"끝났오":14683,"보여주":14684,"삼성은":14685,"어쩌라는":14686,"알려죠":14687,"서버는":14688,"##오오오오오":14689,"없었던":14690,"출근해여":14691,"##ear":14692,"갔다올게":14693,"##친구가":14694,"의미로":14695,"의미에서":14696,"다르게":14697,"ㅋㅋㅋㅋ이거바":14698,"세상이":14699,"강의를":14700,"커플링":14701,"시켜서":14702,"앞으로도":14703,"같긴해":14704,"##옹동이가":14705,"##공방에서":14706,"교육을":14707,"있으려나":14708,"결과를":14709,"알쪄알쪄":14710,"이후에":14711,"기업이":14712,"##찌찌야":14713,"기준이":14714,"어렵지":14715,"많았구":14716,"for문":14717,"##시키고":14718,"배고파서":14719,"##회사에서":14720,"공모전을":14721,"친구들이랑":14722,"관련해서":14723,"무엇보다":14724,"자료구조":14725,"##매일매일":14726,"성적표":14727,"안될까":14728,"신입생":14729,"깨워주":14730,"최종면접":14731,"##ceive":14732,"##ostResult":14733,"##마리오":14734,"##미쳤다":14735,"떠오르":14736,"반응이":14737,"receive":14738,"냄새가":14739,"실화냐":14740,"세수하고":14741,"따뜻한":14742,"자르러":14743,"확률이":14744,"자존심":14745,"사무실":14746,"유일한":14747,"numOf":14748,"넷플릭스":14749,"##에어컨":14750,"Mast":14751,"소프트웨어":14752,"##포지토리":14753,"##flow":14754,"PULLUP":14755,"000":14756,"1교":14757,"1명":14758,"1박":14759,"2호선":14760,"3번째":14761,"4차":14762,"4시반에":14763,"6시반":14764,"75":14765,"7월":14766,"9장":14767,"AV":14768,"CN":14769,"Mine":14770,"PostResult":14771,"at":14772,"beg":14773,"get":14774,"iss":14775,"mys":14776,"sql":14777,"⠀이거":14778,"ㄷㄷㄷ":14779,"ㅈㅅ":14780,"ㅋㅅ":14781,"ㅌㅋㅋㅋㅋㅋㅋㅋ":14782,"ㅗㅜㅑ":14783,"ㅠ나":14784,"ㅠ아":14785,"가긴":14786,"감자":14787,"개웃기":14788,"거바":14789,"거리고":14790,"것보다는":14791,"겨수님":14792,"계신":14793,"고대":14794,"고소":14795,"곤란":14796,"공사":14797,"구럼":14798,"그른":14799,"글쿠":14800,"기모":14801,"꺼냈":14802,"꾸고":14803,"끄고":14804,"나갔다":14805,"나을듯":14806,"날씨가":14807,"남이":14808,"남주":14809,"내서":14810,"너희":14811,"넣어야":14812,"놋북":14813,"누르":14814,"늦어서":14815,"당아":14816,"대우":14817,"더ㅣ":14818,"도입":14819,"돌려서":14820,"동경":14821,"됐고":14822,"따위":14823,"딴데":14824,"땡이랑":14825,"땡이는":14826,"떠나서":14827,"뜨거":14828,"뜨네":14829,"뜻이":14830,"랜덤":14831,"로얄":14832,"로봇":14833,"리가":14834,"리조":14835,"마카롱":14836,"마이너스":14837,"많다고":14838,"말걸":14839,"말인데":14840,"맞아서":14841,"멀어":14842,"멋져":14843,"모여":14844,"모의":14845,"문의":14846,"뭐시":14847,"뭐할":14848,"뭐람":14849,"미금":14850,"민우":14851,"박사":14852,"반환":14853,"발동":14854,"배신":14855,"백숙":14856,"벌고":14857,"변명":14858,"보라":14859,"보관":14860,"보태":14861,"보려고":14862,"분산":14863,"불행":14864,"비대면":14865,"빡쳐":14866,"뻔뻔":14867,"뿐이야":14868,"사오":14869,"사줘야":14870,"살구":14871,"설문":14872,"소심":14873,"소양":14874,"손에":14875,"순수":14876,"숨겨":14877,"쉬바":14878,"스포":14879,"승훈":14880,"신문":14881,"실력이":14882,"싸운":14883,"싸피":14884,"쌍욕":14885,"썼던":14886,"썼지":14887,"쓰자":14888,"쓰구":14889,"쓴다고":14890,"안떠":14891,"안했다":14892,"안가는":14893,"않구":14894,"알쪙":14895,"애도":14896,"어떰":14897,"어른":14898,"얻고":14899,"업쪄":14900,"업따":14901,"여주":14902,"옆으로":14903,"예나가":14904,"오긴":14905,"오ㅓ":14906,"오면서":14907,"옷갈아":14908,"와요":14909,"왔을":14910,"외모":14911,"요구":14912,"웃는":14913,"웃곀":14914,"이랑":14915,"이리":14916,"이닦":14917,"인원":14918,"입은":14919,"있더":14920,"자제":14921,"작품":14922,"잘하면":14923,"잘보구":14924,"저렴":14925,"적게":14926,"적극":14927,"전쟁":14928,"정처":14929,"정거장":14930,"졸린데":14931,"종료":14932,"종속":14933,"좋군":14934,"좋을까":14935,"좌표":14936,"주까":14937,"주께":14938,"쥬글":14939,"지연":14940,"지웠":14941,"직업":14942,"짜는":14943,"짱짱":14944,"쪽으로":14945,"쬬아":14946,"찢어":14947,"차이는":14948,"찾은":14949,"쳐도":14950,"최선을":14951,"타락":14952,"터진":14953,"파는":14954,"판매":14955,"폭행":14956,"하라":14957,"하든":14958,"하신":14959,"하닉":14960,"하시는":14961,"하겠습니다":14962,"한거":14963,"한동안":14964,"한결이":14965,"함정":14966,"항공":14967,"해석":14968,"핸드폰":14969,"했냐":14970,"했거든":14971,"했는지":14972,"헤드":14973,"현수":14974,"홀리":14975,"확대":14976,"##남편":14977,"##통이":14978,"##gth":14979,"##기획":14980,"##로지":14981,"##하거":14982,"##하먄":14983,"##하필":14984,"##하려나":14985,"##고랭":14986,"##인건":14987,"##인들이":14988,"##인도네시아":14989,"##위험":14990,"##이오":14991,"##이즈":14992,"##이기도":14993,"##이정도면":14994,"##도망":14995,"##ㅐㅇ":14996,"##용량":14997,"##을뿐":14998,"##대기업":14999,"##서비스":15000,"##서플로우":15001,"##아냥":15002,"##아슬":15003,"##가슴":15004,"##랑도":15005,"##리냐":15006,"##일거야":15007,"##피커":15008,"##크게":15009,"##에타":15010,"##야한다고":15011,"##2가":15012,"##2시":15013,"##소가":15014,"##해♡":15015,"##해외":15016,"##해가지고":15017,"##오버":15018,"##오타":15019,"##오른":15020,"##음ㅋㅋㅋㅋ":15021,"##마냥":15022,"##마음이":15023,"##거다":15024,"##예쁘":15025,"##예린":15026,"##요기":15027,"##었지만":15028,"##주인":15029,"##공학과":15030,"##상대":15031,"##불이":15032,"##불편":15033,"##불쌍":15034,"##러러":15035,"##파스타":15036,"##시도":15037,"##시픈":15038,"##부럽":15039,"##봤다":15040,"##망했다":15041,"##셨나":15042,"##ui":15043,"##때려":15044,"##때문":15045,"##승연":15046,"##한참":15047,"##중앙":15048,"##중인데":15049,"##급실":15050,"##단톡":15051,"##5시":15052,"##5번":15053,"##잘장":15054,"##말까":15055,"##내기":15056,"##내면":15057,"##란다":15058,"##문화":15059,"##질거야":15060,"##능력":15061,"##비로":15062,"##사무":15063,"##사수가":15064,"##for":15065,"##난다고":15066,"##쉬어":15067,"##두면":15068,"##36":15069,"##print":15070,"##ㅜㅠㅠㅠ":15071,"##드리는":15072,"##토끼":15073,"##선에서":15074,"##찌포":15075,"##죠ㅋㅋㅋㅋ":15076,"##겨울":15077,"##겨우":15078,"##봐용":15079,"##늦은":15080,"##먹지":15081,"##차도":15082,"##ㄱㅋㅋㅋㅋㅋㅋㅋㅋㅋㅋㅋㅋㅋㅋㅋ":15083,"##따구":15084,"##바쁘":15085,"##확인":15086,"##댔지":15087,"##계약":15088,"##곸ㅋㅋㅋㅋㅋ":15089,"##긴다":15090,"##블루":15091,"##놨어":15092,"##ring":15093,"##개의":15094,"##ㅛ어":15095,"##텐디":15096,"##노노":15097,"##째로":15098,"##년생":15099,"##팀은":15100,"##돌아가":15101,"##쪽은":15102,"##쪽에서":15103,"##없고":15104,"##닼ㅋㅋㅋㅋ":15105,"##채점":15106,"##랄라":15107,"##OO":15108,"##맥주":15109,"##ND":15110,"##랬지":15111,"##댱아나":15112,"##깨워":15113,"##쉽게":15114,"##됩니다":15115,"##갱이":15116,"##ㅋㅋㅋㅋㅋㅋㅋㅋ나":15117,"ㅋㅋㅋㅋ댕":15118,"ㅋㅋㅋㅋ응":15119,"ㅋㅋㅋㅋ이고":15120,"ㅋㅋㅋㅋ힝구":15121,"ㅋㅋㅋㅋ여기":15122,"ㅋㅋㅋㅋ이렇게":15123,"댕이저나":15124,"ㅋㅋㅋㅋㅋ아":15125,"아니군":15126,"댕아너":15127,"사람으로":15128,"오늘따라":15129,"ㅎㅎ난":15130,"지금이":15131,"이거지":15132,"##이라두":15133,"##이라니까":15134,"ㅋㅋ헐":15135,"ㅋㅋㅋㅋㅋㅋㅋ근데":15136,"ㅠㅠㅠㅋㅋㅋㅋ":15137,"ㅋㅋㅋㅋㅋㅋㅋㅋㅋㅋ오구":15138,"##면서도":15139,"하나에":15140,"그거야":15141,"##우리집":15142,"##시간을":15143,"ㅜㅜㅜㅜㅜㅜ":15144,"문제임":15145,"##해야함":15146,"잘자여♡":15147,"공부할":15148,"있어여":15149,"해야돼":15150,"ㅋㅋㅋㅋㅋㅋㅋㅋㅋㅋㅋㅋㅋㅋㅋ아":15151,"아니라그냥":15152,"퇴근하고":15153,"어디까지":15154,"##ㅌㅌㅋㅋㅋㅋㅋㅋㅋㅋㅋ":15155,"모르겠구":15156,"##어야징":15157,"정도만":15158,"고마운":15159,"들어가여":15160,"물어보니까":15161,"물어봤는데":15162,"잘못된":15163,"가야징":15164,"친구한테":15165,"여기가":15166,"행복해떠":15167,"죠아ㅋㅋㅋㅋ":15168,"##하나하나":15169,"찌찌는":15170,"##했어요":15171,"준비가":15172,"이유도":15173,"알았음":15174,"##♡♡♡♡ㅋㅋㅋㅋ":15175,"##하자고":15176,"찾아보니까":15177,"그럴걸":15178,"20대":15179,"2018":15180,"처음엔":15181,"머리를":15182,"##고생했져":15183,"##ord":15184,"프로세":15185,"애들이랑":15186,"##그런가":15187,"ㅋㅋㅋㅋㅋㅋㅋㅋㅋㅋㅋㅋㅋㅋㅋㅋㅋㅋㅋㅋㅋㅋㅋㅋㅋㅋㅋㅋㅋㅋㅋㅋㅋㅋㅋㅋㅋㅋㅋㅋㅋㅋㅋㅋㅋ":15188,"##프로젝트":15189,"##프로그래밍":15190,"##프로세서":15191,"알또알또":15192,"사랑하구댕이도":15193,"교수님은":15194,"미친듯이":15195,"1500":15196,"사이에서":15197,"ㅋㅋㅋㅋ댕아댕아":15198,"##생각이":15199,"##만큼은":15200,"말했지":15201,"기여운":15202,"##이러는데":15203,"해결책":15204,"일어난":15205,"중간고사":15206,"연결하면":15207,"먹었져":15208,"##ㅓㅓㅓ":15209,"귀엽지":15210,"만날래":15211,"성장할":15212,"있으까":15213,"한국인":15214,"도와줘서":15215,"도희가":15216,"바람을":15217,"바람에":15218,"미쳤네":15219,"##그렇다고":15220,"자야돼":15221,"##are":15222,"가까이":15223,"많았져":15224,"어떡해":15225,"파이썬으로":15226,"##고고고고":15227,"순간부터":15228,"##OST":15229,"소개시켜":15230,"##ang":15231,"한명은":15232,"##진심으로":15233,"##블리즈":15234,"##블리셔":15235,"문자열":15236,"안쓰고":15237,"##ㅐㅐㅐㅐ":15238,"괴롭히":15239,"이은경님이":15240,"벌어와":15241,"바쁜가":15242,"##당연하지":15243,"사라져따":15244,"request":15245,"투자도":15246,"결론이":15247,"댜깅이가":15248,"자연스럽게":15249,"하시는데":15250,"순두부찌개":15251,"오버플로우":15252,"##정확히":15253,"라이브러리":15254,"경진대회에":15255,"토깽이":15256,"length":15257,"호기심":15258,"hm10":15259,"장학금":15260,"begin":15261,"1번은":15262,"2시에":15263,"38":15264,"3d":15265,"4만원":15266,"4시반":15267,"5점":15268,"5월":15269,"5시까지":15270,"9시까지":15271,"PC":15272,"cl":15273,"c언어":15274,"line":15275,"list":15276,"ppt":15277,"s3":15278,"sd":15279,"vect":15280,"♡♡♡♡♡":15281,"ㅇㄷ":15282,"가요":15283,"가치":15284,"가라고":15285,"간다구":15286,"갈꺼":15287,"갈꺼야":15288,"감이":15289,"갔네":15290,"같단":15291,"같다구":15292,"같았어":15293,"거를":15294,"것들이":15295,"계단":15296,"고칠":15297,"구라":15298,"구워":15299,"구하는":15300,"그르":15301,"그니깤":15302,"기기":15303,"기침":15304,"기쁨":15305,"꿈이":15306,"끊어버":15307,"끔찍":15308,"끝이야":15309,"나니까":15310,"날아가":15311,"남들이":15312,"남았어":15313,"납땜":15314,"내리고":15315,"냈는데":15316,"넣어서":15317,"네카라":15318,"노하":15319,"노라":15320,"놀다":15321,"눈으로":15322,"뉘앙":15323,"능력이":15324,"늦잠":15325,"다만":15326,"단정":15327,"달아":15328,"담아":15329,"대학교":15330,"대통령":15331,"댱아나":15332,"더우":15333,"도중":15334,"돈으로":15335,"돌린":15336,"돌리고":15337,"동적":15338,"동방에":15339,"됐든":15340,"됐져":15341,"되거든":15342,"되었다":15343,"된다는":15344,"될지":15345,"됩니다":15346,"두달":15347,"들여":15348,"들러서":15349,"딸기":15350,"마실":15351,"많으면":15352,"많았는데":15353,"말란":15354,"말이다":15355,"말하기":15356,"맞다고":15357,"맞자나":15358,"맞겠지":15359,"매달":15360,"먹장":15361,"며느":15362,"못들":15363,"못햐":15364,"문단":15365,"뭐옄":15366,"뭐하고":15367,"밖으로":15368,"반은":15369,"받는다":15370,"받으면서":15371,"발라":15372,"밥먹구":15373,"뱃살":15374,"버림":15375,"버리는":15376,"베이스":15377,"보상":15378,"보드":15379,"보며":15380,"보기로":15381,"보기에":15382,"복구":15383,"볼거야":15384,"붙을":15385,"비전공":15386,"비행기":15387,"빠질":15388,"빡치네":15389,"사내":15390,"사례":15391,"사가지고":15392,"살쪄":15393,"샀다":15394,"샀는데":15395,"생산":15396,"성능":15397,"소득":15398,"소린지":15399,"속에":15400,"손잡":15401,"수많은":15402,"쉴래":15403,"스토":15404,"스벅":15405,"신용":15406,"신세계":15407,"심한":15408,"싶다구":15409,"싸구":15410,"쓰게":15411,"쓰여":15412,"씨는":15413,"씨제":15414,"아슬":15415,"아팠":15416,"안갔":15417,"안온":15418,"안해떠":15419,"안했어":15420,"안오는":15421,"안돌아":15422,"안재현":15423,"알앙":15424,"알잖아":15425,"애한테":15426,"야야":15427,"어ㅐ":15428,"어후":15429,"어떨":15430,"언넝":15431,"없군":15432,"없더라":15433,"여석":15434,"역량":15435,"영혼":15436,"예린":15437,"오름":15438,"오퍼":15439,"옮기":15440,"왓져":15441,"왔으면":15442,"왜용":15443,"왜지":15444,"왜왜":15445,"우짜":15446,"우는":15447,"위하여":15448,"유리":15449,"유형":15450,"유치":15451,"유닉스":15452,"은호":15453,"음료":15454,"응답":15455,"이라":15456,"이희영":15457,"일해":15458,"일부":15459,"있자너":15460,"자야대":15461,"작동":15462,"잖아":15463,"잘했네":15464,"잡는":15465,"잡혔":15466,"잼게":15467,"저지":15468,"적절":15469,"전엔":15470,"전까진":15471,"점이":15472,"제작":15473,"젤다":15474,"주먹":15475,"주택":15476,"죽음":15477,"죽어도":15478,"중심":15479,"중독":15480,"줬던":15481,"쥐어":15482,"지어":15483,"지는":15484,"진영":15485,"짓을":15486,"쪼금":15487,"쪼꼼":15488,"찐따":15489,"차고":15490,"채점":15491,"천사":15492,"철학":15493,"춘식이":15494,"친척":15495,"쿠킹덤":15496,"퀴즈":15497,"크롬":15498,"크림":15499,"키우는":15500,"타서":15501,"타격":15502,"태어나":15503,"테케":15504,"톡하께":15505,"통해서":15506,"판교":15507,"팔고":15508,"팔짱":15509,"포스":15510,"폭력":15511,"풀었는데":15512,"핀테크":15513,"하셨":15514,"하래":15515,"하거나":15516,"하겠다고":15517,"한편":15518,"한명이":15519,"할만":15520,"할말":15521,"해소":15522,"했습니다":15523,"했는뎅":15524,"허거덩":15525,"혀로":15526,"현정":15527,"현타":15528,"홈페이지":15529,"홍보":15530,"황제":15531,"후보":15532,"훠궈":15533,"히힣":15534,"힝그":15535,"##히힣":15536,"##어는":15537,"##어라":15538,"##어죽":15539,"##미다":15540,"##였다는":15541,"##던거":15542,"##그랴":15543,"##성에":15544,"##더랔":15545,"##나올":15546,"##나쁜":15547,"##자만":15548,"##자신":15549,"##로부터":15550,"##하누":15551,"##하겠당":15552,"##고양이":15553,"##인기":15554,"##인증":15555,"##인적성":15556,"##구두":15557,"##구댕이":15558,"##위를":15559,"##이론":15560,"##이컨":15561,"##이구만":15562,"##안전":15563,"##도에서":15564,"##을리가":15565,"##만해":15566,"##대놓고":15567,"##서를":15568,"##아닐":15569,"##가만히":15570,"##리라":15571,"##언젠":15572,"##제비":15573,"##일수도":15574,"##장면":15575,"##에고":15576,"##야하나":15577,"##야게따":15578,"##소음":15579,"##으나":15580,"##으시":15581,"##으묜":15582,"##으려면":15583,"##해두":15584,"##해커톤":15585,"##함이":15586,"##오류":15587,"##오ㅋㅋㅋㅋ":15588,"##오자마자":15589,"##거려":15590,"##예뿌":15591,"##었다가":15592,"##보여서":15593,"##주소":15594,"##주희":15595,"##공감":15596,"##공모":15597,"##학기는":15598,"##ㅌㅋㅋㅋㅋㅋㅋㅋㅋㅋㅋㅋ":15599,"##불어":15600,"##불안":15601,"##볼래":15602,"##게떠":15603,"##부를":15604,"##의가":15605,"##버전":15606,"##버드":15607,"##버닝":15608,"##버리면":15609,"##스펙":15610,"##스텀":15611,"##했넹":15612,"##si":15613,"##iz":15614,"##eo":15615,"##달달":15616,"##전문":15617,"##전드":15618,"##과도":15619,"##임을":15620,"##임ㅋㅋㅋㅋ":15621,"##500":15622,"##내리":15623,"##실을":15624,"##와써":15625,"##수의":15626,"##04":15627,"##비밀":15628,"##디가":15629,"##줄거":15630,"##사항":15631,"##xes":15632,"##냐ㅋㅋㅋㅋ":15633,"##있다고":15634,"##있다가":15635,"##쉬운":15636,"##두두":15637,"##건너":15638,"##34":15639,"##3년":15640,"##3월":15641,"##습니당":15642,"##신은":15643,"##cc":15644,"##cm":15645,"##금을":15646,"##토롤":15647,"##토익":15648,"##토요일에":15649,"##쓰레기":15650,"##찌만":15651,"##키고":15652,"##힌다":15653,"##카해":15654,"##멍청":15655,"##잠이":15656,"##먹으면":15657,"##할걸":15658,"##회식":15659,"##차이":15660,"##설명":15661,"##ㄱㅋㅋㅋㅋㅋㅋㅋㅋㅋㅋㅋㅋㅋㅋ":15662,"##댔어":15663,"##댔자나":15664,"##조각":15665,"##받아서":15666,"##편지":15667,"##ㅏㅇ":15668,"##워낙":15669,"##백신":15670,"##aa":15671,"##4시":15672,"##400":15673,"##된다는":15674,"##9♡":15675,"##98":15676,"##개웃기":15677,"##ter":15678,"##노루":15679,"##복잡":15680,"##환이":15681,"##돼지":15682,"##돼써":15683,"##돼따":15684,"##검진":15685,"##뎈ㅋㅋㅋㅋㅋ":15686,"##호고":15687,"##줘용":15688,"##값은":15689,"##닥터":15690,"##브랜드":15691,"##없어서":15692,"##닼ㅋㅋㅋㅋㅋㅋㅋㅋ":15693,"##끝까지":15694,"##몰랐":15695,"##75":15696,"##옆에서":15697,"##짘ㅋㅋㅋㅋㅋㅋ":15698,"##NT":15699,"##홀리":15700,"##쳤는데":15701,"##않이":15702,"##혁배":15703,"##챙겨":15704,"##겄지":15705,"##❤❤":15706,"##헷갈":15707,"##ㅋㅋㅋㅋ난":15708,"##ㅋㅋㅋㅋ흠":15709,"##ㅋㅋㅋㅋㅋㅋㅋㅋ아":15710,"ㅋㅋㅋㅋㅎㅎ":15711,"ㅋㅋㅋㅋ오빠":15712,"ㅋㅋㅋㅋ일단":15713,"ㅋㅋㅋㅋ앙대":15714,"ㅋㅋㅋㅋㅋㅋㅋㅋㅋ아니":15715,"아니었다":15716,"댕아오늘":15717,"##댕아내가":15718,"생각하구":15719,"사람임":15720,"사람이야":15721,"웅웅♡":15722,"ㅎㅎ아":15723,"우리나":15724,"우리학교":15725,"이거다":15726,"##다가도":15727,"ㅋㅋ나":15728,"ㅋㅋㅁㅊ":15729,"ㅠㅠㅠㅠㅠ댕아":15730,"사랑을":15731,"사랑스러운":15732,"들어오는":15733,"##아아앙":15734,"##우리의":15735,"얘기하는데":15736,"ㅜㅜㅠㅠ":15737,"있었뎌":15738,"공부한":15739,"##이었거든":15740,"있어용":15741,"저나해떠":15742,"저나하께":15743,"안되네":15744,"만들었는데":15745,"이러다가":15746,"남자를":15747,"이상으로":15748,"어케해":15749,"여자의":15750,"여자애가":15751,"사람이면":15752,"출발해떠":15753,"##내일도":15754,"정도의":15755,"보내주":15756,"고마우":15757,"잘못해떠":15758,"여기떠":15759,"말고도":15760,"요즘은":15761,"사실은":15762,"괜찮다고":15763,"때문이지":15764,"시작하는":15765,"시작하면":15766,"가능해요":15767,"이해해":15768,"똑같네":15769,"싶은대로":15770,"알았져":15771,"전화로":15772,"피곤한":15773,"##하자면":15774,"안나네":15775,"찾아봤는데":15776,"하루가":15777,"12시까지":15778,"선물을":15779,"선물은":15780,"그때는":15781,"알바가용":15782,"ㄴㄴㄴ":15783,"느낌인데":15784,"##이런식으로":15785,"타롱하구잘자":15786,"일어나떠":15787,"고민해":15788,"상황은":15789,"거기까지":15790,"정말정말":15791,"##오구오구":15792,"##아직은":15793,"사람들한테":15794,"##타롱해♡♡":15795,"##아아아아아아아":15796,"별로야":15797,"취업은":15798,"취업하고":15799,"##하면서도":15800,"부분에":15801,"보여주는":15802,"보여주고":15803,"보구시픈데":15804,"삼성이":15805,"과제는":15806,"과제를":15807,"운동을":15808,"오디쯤":15809,"부모님이":15810,"언니도":15811,"언니한테":15812,"동원이가":15813,"당연한":15814,"맛있겠다":15815,"속상하게":15816,"##하겠다고":15817,"못해줘서":15818,"아프다":15819,"경우도":15820,"##버스가":15821,"어때요":15822,"커플이":15823,"커플이에용":15824,"ㅎㅎㅎㅋㅋㅋㅋ":15825,"##end":15826,"할까봐":15827,"자신의":15828,"정신을":15829,"있으께":15830,"2번은":15831,"궁금해서":15832,"있나요":15833,"들었져":15834,"이뿌다":15835,"이뿌게":15836,"몰랐는데":15837,"자야겠당":15838,"여러번":15839,"사용자":15840,"신한은행의":15841,"250":15842,"것만으로도":15843,"부모님한테":15844,"바꾸는":15845,"##야할듯":15846,"애매한":15847,"내렸어":15848,"모습이":15849,"그것보다":15850,"오류가":15851,"##mport":15852,"디자이너가":15853,"저러고":15854,"보굽당":15855,"무엇인가":15856,"인스타에":15857,"전남친이":15858,"위험한":15859,"본인의":15860,"결제는":15861,"주안역":15862,"##ㅍㅍㅍㅍ":15863,"넘무넘무":15864,"스마트폰":15865,"프로그램을":15866,"##lass":15867,"괴롭혀":15868,"한두개":15869,"##세상에서":15870,"결론은":15871,"누군가":15872,"모른다":15873,"##사롱하구":15874,"살려줘":15875,"예민한":15876,"돈까스":15877,"##디자인":15878,"개웃김":15879,"언젠가":15880,"##냄새가":15881,"단순히":15882,"##주말에":15883,"이쓰께":15884,"##able":15885,"미어캣":15886,"##배터리":15887,"날라가유":15888,"boxes":15889,"##지수쟝":15890,"##장애인":15891,"가즈아":15892,"인문학적":15893,"문해기":15894,"##즈니스":15895,"##마라탕":15896,"바탕으로":15897,"##서유기":15898,"아무렇지":15899,"##bti":15900,"myservo":15901,"vector":15902,"0점":15903,"0개":15904,"1인":15905,"1은":15906,"1점":15907,"1시에":15908,"2000":15909,"2시반":15910,"3배":15911,"37":15912,"49":15913,"5천":15914,"8장":15915,"8개":15916,"98":15917,"HI":15918,"bl":15919,"by":15920,"ch":15921,"dt":15922,"ip":15923,"ㅎㄷㄷㄷㄷ":15924,"가네":15925,"가래":15926,"갈지":15927,"감겨":15928,"갔져":15929,"강입":15930,"개잘":15931,"개어이":15932,"객관":15933,"것이라고":15934,"것보단":15935,"경고":15936,"고치":15937,"고개":15938,"공과":15939,"공뷰":15940,"공무원":15941,"과외":15942,"구별":15943,"군인":15944,"굳굳":15945,"글쿤":15946,"금욜에":15947,"긴장":15948,"깊은":15949,"깼져":15950,"날이야":15951,"남녀":15952,"남아서":15953,"내에":15954,"내세":15955,"내놔":15956,"내령":15957,"낼모레":15958,"넋놓고":15959,"넣었는데":15960,"늦은":15961,"늦었다":15962,"니즈":15963,"닦구":15964,"달랐":15965,"답을":15966,"답장이":15967,"당여":15968,"당당히":15969,"대앵":15970,"더이상":15971,"덕질":15972,"데서":15973,"도ㅑ":15974,"독학":15975,"동창":15976,"돼야":15977,"됐다고":15978,"되어서":15979,"드실":15980,"드는데":15981,"뛰어가":15982,"로제":15983,"리서치":15984,"마시는":15985,"막히는":15986,"만두":15987,"만지는":15988,"만거지":15989,"많긴":15990,"말라구":15991,"말해주는":15992,"맥날":15993,"맥락":15994,"머릿":15995,"먼가":15996,"모고":15997,"모공":15998,"모행":15999,"모텔":16000,"목요일에":16001,"몸에":16002,"못자":16003,"못써":16004,"못타":16005,"못했어":16006,"못한다고":16007,"무난":16008,"문젠":16009,"뭐징":16010,"뮤슨":16011,"미니":16012,"민주당":16013,"믿음":16014,"바쁠":16015,"발산":16016,"방구":16017,"버렸":16018,"법을":16019,"보긴":16020,"보쟈":16021,"보규":16022,"복사":16023,"볼게":16024,"봐야지":16025,"봤을때":16026,"블라인드":16027,"비공":16028,"뽑아서":16029,"삐져":16030,"사귈":16031,"살이":16032,"상해":16033,"생태":16034,"서감":16035,"성숙":16036,"세팅":16037,"소화":16038,"소식":16039,"손톱":16040,"수원":16041,"수명":16042,"수사학":16043,"쉬구":16044,"쉬다가":16045,"스페":16046,"스캔":16047,"슬픔":16048,"습관":16049,"시점":16050,"실전":16051,"싫으면":16052,"싶음":16053,"싶더라":16054,"쌓은":16055,"씻었":16056,"아뇨":16057,"아뱅":16058,"아이가":16059,"안지":16060,"안감":16061,"안사":16062,"안왔":16063,"안한다고":16064,"안져아":16065,"안알려":16066,"야동":16067,"얘도":16068,"어니":16069,"어필":16070,"어려서":16071,"에피":16072,"에스":16073,"여깄":16074,"연대":16075,"연상":16076,"열차":16077,"온도":16078,"올거":16079,"올려서":16080,"옷이":16081,"옼케":16082,"와야지":16083,"왔음":16084,"왜냐묜":16085,"외로":16086,"외우":16087,"우유":16088,"우주의":16089,"울음":16090,"웃김":16091,"원숭":16092,"월세":16093,"웹강":16094,"위기":16095,"윗옷":16096,"응용":16097,"이성":16098,"이수":16099,"인공지":16100,"일곱":16101,"일이얌":16102,"입어도":16103,"잇져":16104,"있낭":16105,"있냐고":16106,"있겠네":16107,"잊을":16108,"자도":16109,"자네":16110,"자두":16111,"자야겠다":16112,"자려궁":16113,"잔당":16114,"잘거":16115,"잘까":16116,"잘랐":16117,"잘해주":16118,"잠수":16119,"잠옷":16120,"잡아서":16121,"잤는데":16122,"장모":16123,"쟤도":16124,"적도":16125,"전날":16126,"제육":16127,"젠장":16128,"젼나":16129,"좋으면":16130,"주신":16131,"주무":16132,"주이고":16133,"죽는":16134,"중소":16135,"중이라":16136,"중이얌":16137,"중에서도":16138,"지적":16139,"진ㅋ":16140,"짧게":16141,"찍으면":16142,"차례":16143,"찬양":16144,"채로":16145,"책을":16146,"챙기는":16147,"처벌":16148,"첫째":16149,"청년":16150,"체험":16151,"출튀":16152,"친규":16153,"커스텀":16154,"켜져":16155,"크고":16156,"타기":16157,"탔다":16158,"태풍":16159,"터치":16160,"테이블":16161,"튀김":16162,"팀이":16163,"퍼블리셔":16164,"펌웨어":16165,"편해":16166,"폰으로":16167,"플러스":16168,"하자고":16169,"하영이":16170,"할때":16171,"할당":16172,"할랭":16173,"할걸":16174,"할꺼야":16175,"해킹":16176,"해보는":16177,"햌ㅅ":16178,"호다닥":16179,"화요일에":16180,"확보":16181,"회복":16182,"훔쳐":16183,"휴강":16184,"흠일단":16185,"히영이":16186,"##어아":16187,"##어를":16188,"##어카지":16189,"##남이":16190,"##미어":16191,"##미쳐":16192,"##였군":16193,"##통화":16194,"##더ㅣ":16195,"##나다":16196,"##나옴":16197,"##나봄":16198,"##자주":16199,"##자한테":16200,"##로벌":16201,"##하든":16202,"##하라구":16203,"##하금티":16204,"##고자":16205,"##인치":16206,"##인턴":16207,"##인건가":16208,"##구현":16209,"##운딩":16210,"##는듯":16211,"##이진":16212,"##이사":16213,"##이다가":16214,"##이냐고":16215,"##이길래":16216,"##안을":16217,"##안되는":16218,"##안되면":16219,"##안된다고":16220,"##용실":16221,"##만명":16222,"##대답":16223,"##서도":16224,"##빠른":16225,"##끼리는":16226,"##리리":16227,"##리긴":16228,"##리자나":16229,"##지연":16230,"##너의":16231,"##제목":16232,"##피고":16233,"##피아":16234,"##크리":16235,"##야하고":16236,"##2주":16237,"##26":16238,"##ㅋ가":16239,"##해봐야":16240,"##함ㅋㅋㅋㅋ":16241,"##오때":16242,"##오전":16243,"##마가":16244,"##마시":16245,"##라두":16246,"##라했는데":16247,"##거마우":16248,"##표정":16249,"##주자":16250,"##주니까":16251,"##모르는":16252,"##방울":16253,"##불러":16254,"##게시판":16255,"##파파":16256,"##시대":16257,"##시설":16258,"##시절":16259,"##부장":16260,"##부정":16261,"##부담":16262,"##여야":16263,"##봤을":16264,"##간다고":16265,"##려야":16266,"##스토리":16267,"##들께":16268,"##정의":16269,"##했쟈":16270,"##달라구":16271,"##평소에":16272,"##전도":16273,"##과는":16274,"##중고":16275,"##중국":16276,"##넼ㅋㅋㅋㅋㅋㅋㅋㅋ":16277,"##것다":16278,"##잘근":16279,"##1도":16280,"##띠용":16281,"##문으로":16282,"##결제":16283,"##질문":16284,"##비포":16285,"##비부":16286,"##줄은":16287,"##줄겡":16288,"##사각형":16289,"##있었는데":16290,"##길게":16291,"##되었습니다":16292,"##두는":16293,"##써도":16294,"##ph":16295,"##pen":16296,"##꺼지":16297,"##꺼임":16298,"##글이":16299,"##금이":16300,"##금으로":16301,"##씨방":16302,"##씨플":16303,"##세영":16304,"##트남":16305,"##트라":16306,"##트에서":16307,"##무지":16308,"##플레이":16309,"##먹자":16310,"##먹은":16311,"##할랭":16312,"##윈도우":16313,"##저리":16314,"##럽고":16315,"##계탕":16316,"##조사":16317,"##산업":16318,"##연산":16319,"##ㄴ느":16320,"##☆☆":16321,"##땡이가":16322,"##ㅏㄴ":16323,"##백엔드":16324,"##속에":16325,"##속으로":16326,"##롱이":16327,"##꾸가":16328,"##Val":16329,"##44":16330,"##40분":16331,"##갈때":16332,"##람이":16333,"##느라고":16334,"##노력":16335,"##머가":16336,"##탱이":16337,"##갠차낭":16338,"##메인":16339,"##메스":16340,"##웍스":16341,"##본인":16342,"##뎈ㅋㅋㅋㅋㅋㅋ":16343,"##웠어":16344,"##았음":16345,"##았져":16346,"##맞지":16347,"##없져":16348,"##없네":16349,"##레로":16350,"##꼬리":16351,"##링이":16352,"##엘지":16353,"##싸움":16354,"##얔ㅋㅋㅋㅋㅋㅋ":16355,"##덕에":16356,"##덕분에":16357,"##령액":16358,"##ㅈㄹ":16359,"##외로":16360,"##십쇼":16361,"##손으로":16362,"##헐랭":16363,"##롭고":16364,"##겄다":16365,"##뷰터":16366,"##kcal":16367,"##UDE":16368,"##짬뽕":16369,"##멘토":16370,"##풍기":16371,"##쭈쭈":16372,"##멤버":16373,"##팩트":16374,"##컬레이터":16375,"##콜릿":16376,"##ㅋㅋㅋㅋ얘":16377,"##ㅋㅋㅋㅋ이건":16378,"ㅋㅋㅋㅋ뭐":16379,"ㅋㅋㅋㅋㄷㄷ":16380,"ㅋㅋㅋㅋ이제":16381,"댕이왜":16382,"댕이우리":16383,"댕이밖에":16384,"댕이에게":16385,"아니오":16386,"ㅋㅋㅋㅋㅋㅋㅋㅋ오":16387,"ㅋㅋㅋㅋㅋㅋㅋㅋ와":16388,"ㅋㅋㅋㅋㅋㅋㅋㅋ난":16389,"댕아♡♡":16390,"ㅠㅠㅋㅋㅋㅋㅋㅋㅋㅋ":16391,"ㅠㅠ댕이는":16392,"##하는거지":16393,"생각들":16394,"생각했던":16395,"사람인데":16396,"ㅋㅋㅋㅋㅋㅋ근데":16397,"ㅋㅋㅋㅋㅋㅋ웅냐":16398,"도착해써":16399,"도착할듯":16400,"ㅠㅠㅠ댕아":16401,"사랑해서":16402,"##그래야":16403,"##그래머스":16404,"##이거는":16405,"##이거바":16406,"##ㅎㅎㅋㅋㅋㅋ":16407,"하나밖에":16408,"그거만":16409,"사진도":16410,"만나도":16411,"만나지":16412,"만나장":16413,"만나게":16414,"얘기만":16415,"얘기할":16416,"얘기하면":16417,"##해야하나":16418,"있었군":16419,"있었지만":16420,"##이었을":16421,"##이었군":16422,"##이었네":16423,"##이었지만":16424,"해야하고":16425,"##구나도":16426,"10월":16427,"고생해":16428,"좋아한다고":16429,"보구찌포":16430,"##ㅋㅋㅋㅋㅋㅋㅋㅋㅋㅋㅋㅋㅋㅋㅋㅋㅋㅋㅋㅋㅋㅋㅋㅋㅋㅋㅋㅋㅋㅋㅋㅋㅋㅋㅋㅋㅋㅋㅋㅋㅋㅋㅋㅋ":16431,"##ㅋㅋㅋㅋㅋㅋㅋㅋㅋㅋㅋㅋㅋㅋㅋㅋㅋㅋㅋㅋㅋㅋㅋㅋㅋㅋㅋㅋㅋㅋㅋㅋㅋㅋㅋㅋㅋㅋㅋ":16432,"그렇겠지":16433,"이러심":16434,"남자들은":16435,"남자애가":16436,"나오기":16437,"나오긴":16438,"어케든":16439,"카톡이":16440,"카톡은":16441,"없어졌":16442,"여자를":16443,"여자들이":16444,"없는듯":16445,"없는뎅":16446,"사랑해ㅋㅋㅋㅋ":16447,"사랑해♡♡♡♡":16448,"사랑해♡ㅋㅋㅋㅋ":16449,"그랬다고":16450,"그랬더니":16451,"가야돼":16452,"##그러게":16453,"##그러다가":16454,"나가야":16455,"사실상":16456,"가는즁":16457,"때문이":16458,"이미지가":16459,"##eras":16460,"이해는":16461,"##끄야ㅋㅋㅋㅋ":16462,"싶은지":16463,"준비해":16464,"##히히히히":16465,"마음도":16466,"안해봐서":16467,"전화해서":16468,"머거쪄":16469,"##한다는데":16470,"나왔던":16471,"그럴까":16472,"그때도":16473,"면접에서":16474,"잘자구우리":16475,"20살":16476,"소리얌":16477,"자구내일":16478,"##사랑해ㅋㅋㅋㅋ":16479,"시퍼여":16480,"##이런거":16481,"ㅎㅋㅎㅋㅎㅋㅎㅋ":16482,"고민을":16483,"##ㅏㅏㅏㅏㅏㅏ":16484,"##ㅡㅡㅡ":16485,"사라질":16486,"사라지고":16487,"사람들이랑":16488,"##10시":16489,"##10만원":16490,"코드는":16491,"해주지":16492,"##스타트업":16493,"100프로":16494,"은경이를":16495,"##11시":16496,"##ath":16497,"서버가":16498,"서버에":16499,"서버를":16500,"서버에서":16501,"##오오오오오오":16502,"말했지만":16503,"받았다고":16504,"갈아탈":16505,"스타일이":16506,"되게따":16507,"아니었고":16508,"얼굴에":16509,"연결하는":16510,"어려울":16511,"안했네":16512,"헤어져":16513,"헤어질":16514,"회의중":16515,"##스럽다":16516,"ㅠㅠㅠㅠㅠㅠㅠㅠㅠㅠㅠㅠㅠㅠㅠㅠㅠㅠㅠㅠㅠㅠㅠㅠㅠㅠㅠㅠㅠ":16517,"##으으으":16518,"인생에":16519,"없을듯":16520,"한번씩":16521,"##ㄴㄴㄴ":16522,"상태에서":16523,"기업이라는":16524,"거랑은":16525,"##버렸어":16526,"##버렸다":16527,"나쁘진":16528,"생겼다":16529,"생겼네":16530,"생겼는데":16531,"자리에서":16532,"ㅋㅋㅋㅋㅋㅋㅋㅋㅋㅋㅋㅋㅋㅋㅋㅋㅋㅋㅋㅋㅋㅋㅋㅋㅋㅋㅋㅋㅋㅋㅋㅋㅋㅋㅋㅋㅋㅋㅋㅋㅋㅋㅋㅋㅋㅋㅋㅋㅋㅋㅋㅋㅋㅋㅋㅋㅋㅋ":16533,"이용해":16534,"머글랭":16535,"성격이":16536,"3번은":16537,"마곡나루에서":16538,"신한은행이":16539,"읽씹해떠":16540,"대신에":16541,"가께♡":16542,"내렸져":16543,"대화를":16544,"##우우우":16545,"inputData":16546,"##이해가":16547,"이쁜데":16548,"머그면":16549,"에구구":16550,"##야야야":16551,"##저기서":16552,"큰일났다":16553,"##버려떠":16554,"##lee":16555,"미래를":16556,"21일":16557,"목표는":16558,"못하겠다":16559,"대단하다":16560,"에어팟":16561,"##배고프":16562,"스펙이":16563,"기엽지":16564,"멘토링":16565,"간단히":16566,"전여친이":16567,"집중해서":16568,"잘생긴":16569,"이은경입니다":16570,"이야기":16571,"타이밍":16572,"당요니":16573,"##기억이":16574,"컴파일러":16575,"승연이":16576,"완벽히":16577,"##끝나면":16578,"##드라마":16579,"어딘데":16580,"언젠간":16581,"블루투":16582,"초반에":16583,"##겤ㅅ다":16584,"버거크루":16585,"오키오키":16586,"전역변":16587,"##아프지":16588,"아쉬워":16589,"문화경영학과로":16590,"수행하며":16591,"심리학":16592,"STUDE":16593,"두근두근":16594,"솔직하게":16595,"##신호등":16596,"바껴서":16597,"선배님들께":16598,"베르베르":16599,"수영복":16600,"전자기학":16601,"동워니가":16602,"태경이형":16603,"피드백":16604,"AVG":16605,"##0421":16606,"HIGH":16607,"생태계":16608,"인공지능":16609,"STUDENT":16610,"2가":16611,"2일":16612,"2의":16613,"2층":16614,"2학기":16615,"36":16616,"3천":16617,"3단계":16618,"46":16619,"4천":16620,"4시에":16621,"5배":16622,"9시에":16623,"9600":16624,"BT":16625,"Co":16626,"CJ":16627,"DD":16628,"KT":16629,"POST":16630,"RO":16631,"So":16632,"av":16633,"ek":16634,"keras":16635,"on":16636,"res":16637,"tail":16638,"you":16639,"ㅌㅋㅋㅋㅋ":16640,"ㅌㅋㅋㅋㅋㅋㅋ":16641,"ㅌㅋㅋㅋㅋㅋ":16642,"ㅎㅋㅋ":16643,"가두":16644,"가방에":16645,"간에":16646,"갈비":16647,"감덩":16648,"강아지":16649,"거구나":16650,"거리가":16651,"거라서":16652,"거마어":16653,"걸음":16654,"것과":16655,"것부터":16656,"게시":16657,"고급":16658,"고3":16659,"고작":16660,"공철":16661,"교환":16662,"구해":16663,"구르":16664,"구멍":16665,"구축":16666,"그롷":16667,"그랰":16668,"그자체":16669,"글을":16670,"금상을":16671,"기어":16672,"깊이":16673,"까는":16674,"까먹고":16675,"깼는데":16676,"꼬리":16677,"꼬막":16678,"끊었":16679,"끼워":16680,"끼양":16681,"나쁠":16682,"난방":16683,"내도":16684,"널구":16685,"널널":16686,"넣었":16687,"넥타이":16688,"노우":16689,"논란":16690,"누나":16691,"누워서":16692,"다뤄":16693,"닮아":16694,"대여":16695,"대비":16696,"더운":16697,"더불어":16698,"된거야":16699,"될거":16700,"드려":16701,"듣지":16702,"등을":16703,"등에":16704,"딜레이":16705,"딩굴":16706,"땡겨":16707,"똑바로":16708,"뚫고":16709,"뜨는데":16710,"뜯어":16711,"라식":16712,"레지":16713,"레포지토리":16714,"레전드":16715,"마약":16716,"마중":16717,"마스터":16718,"많넹":16719,"말았":16720,"맛이":16721,"맛집":16722,"망함":16723,"망상":16724,"망했":16725,"먹었다":16726,"명이":16727,"목걸이":16728,"못하지":16729,"못보는":16730,"무제한":16731,"무의식":16732,"문구":16733,"뭐니":16734,"뭔소린지":16735,"반만":16736,"반말":16737,"반반":16738,"반년":16739,"받게":16740,"받는데":16741,"방문":16742,"배달":16743,"버구":16744,"버텨":16745,"번씩":16746,"베스트":16747,"보스":16748,"보정":16749,"보험":16750,"보자마자":16751,"복습":16752,"볼살":16753,"봐죠":16754,"봤져":16755,"부여":16756,"부른":16757,"붙고":16758,"비와":16759,"비즈니스":16760,"빠졌":16761,"빠지는":16762,"빠져서":16763,"빨아":16764,"빵빵":16765,"뽑는데":16766,"뿌리":16767,"사왔":16768,"사겼":16769,"사줬":16770,"사렁":16771,"사귄":16772,"삼각":16773,"샀어":16774,"생기는":16775,"석박":16776,"선수":16777,"선발":16778,"성실":16779,"속도가":16780,"수입":16781,"쉴게":16782,"스위":16783,"승인":16784,"시민":16785,"시야":16786,"시파":16787,"시계":16788,"시킴":16789,"시펐":16790,"식품":16791,"싸게":16792,"쌓을":16793,"써야지":16794,"쓰냐":16795,"쓸수":16796,"씻을":16797,"씻어야":16798,"아기":16799,"아베":16800,"안날":16801,"안터":16802,"안겨":16803,"안잡":16804,"안끝":16805,"안씀":16806,"안됑":16807,"안하지":16808,"안드는":16809,"안할게":16810,"않다고":16811,"알앜":16812,"압축":16813,"앜ㅎ":16814,"애랑":16815,"양보":16816,"어두":16817,"어따":16818,"어ㅏ":16819,"어땠":16820,"업찌":16821,"없당":16822,"없구나":16823,"에고고":16824,"여의도":16825,"연하":16826,"영역":16827,"예방":16828,"예나랑":16829,"오져":16830,"오랜":16831,"오엥":16832,"옮길":16833,"와주":16834,"와뗘":16835,"완행":16836,"왔졍":16837,"왔다고":16838,"요금":16839,"욕심":16840,"용량":16841,"으구":16842,"인국공":16843,"일까":16844,"일할":16845,"일종":16846,"읽을":16847,"있죠":16848,"있엉":16849,"자리가":16850,"자율주행":16851,"자전거":16852,"작아서":16853,"잘가":16854,"잘될":16855,"잘해주는":16856,"잡을":16857,"재수":16858,"저것도":16859,"적혀":16860,"전면":16861,"제시":16862,"졸아떠":16863,"종닭":16864,"좋당":16865,"죽은":16866,"줄이고":16867,"중야":16868,"중순":16869,"중이지":16870,"지쌋":16871,"집을":16872,"집단":16873,"집까지":16874,"짜고":16875,"쫓겨":16876,"착해":16877,"천황":16878,"첨부터":16879,"청순":16880,"초봉":16881,"최탈":16882,"최합":16883,"최우수":16884,"추진":16885,"충동":16886,"침대에":16887,"컴네":16888,"켜고":16889,"코스":16890,"크지":16891,"클릭":16892,"터짐":16893,"터지":16894,"통제":16895,"통합":16896,"투명":16897,"티빙":16898,"파고":16899,"팔아":16900,"폭발":16901,"표시":16902,"플레이":16903,"필터":16904,"하이":16905,"하겠":16906,"하기로":16907,"하겠지만":16908,"학벌":16909,"학폭":16910,"한줄":16911,"한순간":16912,"한이음":16913,"합쳐서":16914,"해지":16915,"해보자":16916,"해달라":16917,"핵교":16918,"햄스터":16919,"했다는":16920,"했으니":16921,"허리":16922,"협업":16923,"호구":16924,"화이자":16925,"훈련":16926,"희생":16927,"히잉":16928,"힝힝":16929,"##어에":16930,"##어린":16931,"##어른":16932,"##어엉":16933,"##어젯":16934,"##어딜":16935,"##어머님":16936,"##어째서":16937,"##미는":16938,"##미야":16939,"##미널":16940,"##였대":16941,"##였던가":16942,"##그니":16943,"##그랭":16944,"##그롬":16945,"##그림":16946,"##그만큼":16947,"##성화":16948,"##데스":16949,"##데려다":16950,"##나가서":16951,"##자에":16952,"##자녀":16953,"##자넝":16954,"##기대":16955,"##고나":16956,"##고징":16957,"##는지도":16958,"##이젠":16959,"##안하고":16960,"##도히":16961,"##도림":16962,"##만을":16963,"##만포":16964,"##ㄷㅋㅋㅋ":16965,"##아래":16966,"##빠르게":16967,"##가에":16968,"##가져":16969,"##가봐":16970,"##끼고":16971,"##리의":16972,"##지옥":16973,"##언넝":16974,"##일을":16975,"##일거":16976,"##일요일":16977,"##장사진":16978,"##다아":16979,"##해가고":16980,"##오기":16981,"##오트론":16982,"##마귀":16983,"##라기":16984,"##라떼":16985,"##라밸":16986,"##라호텔":16987,"##거등":16988,"##거리고":16989,"##예여":16990,"##었단":16991,"##보라":16992,"##보께":16993,"##보는데":16994,"##주시":16995,"##주신":16996,"##주일에":16997,"##공원":16998,"##모로":16999,"##모드":17000,"##상에":17001,"##상으로는":17002,"##학이":17003,"##ㅌㅋㅋㅋㅋ":17004,"##ㅌㅋㅋㅋㅋㅋㅋㅋㅋㅋㅋㅋㅋ":17005,"##ㅗㄴ":17006,"##게도":17007,"##파란":17008,"##시켰":17009,"##시죠":17010,"##부에서":17011,"##여자는":17012,"##군대":17013,"##간에":17014,"##려봐":17015,"##루플":17016,"##스토":17017,"##했으니":17018,"##uk":17019,"##sk":17020,"##em":17021,"##한두":17022,"##한거야":17023,"##쪄ㅋㅋㅋㅋ":17024,"##전이":17025,"##전역":17026,"##임이":17027,"##1이":17028,"##1은":17029,"##1층":17030,"##억울":17031,"##내년에":17032,"##굽파":17033,"##와쪄":17034,"##님도":17035,"##문항":17036,"##징징":17037,"##동워니":17038,"##디야":17039,"##경찰":17040,"##사에":17041,"##사수":17042,"##판이":17043,"##fit":17044,"##길이":17045,"##되기":17046,"##왔습니다":17047,"##덩이":17048,"##후우":17049,"##건디":17050,"##건조":17051,"##점으로":17052,"##32":17053,"##3개":17054,"##360":17055,"##써서":17056,"##신대":17057,"##줬어":17058,"##퓨바":17059,"##쓰가":17060,"##쓰벌":17061,"##찌는":17062,"##세희":17063,"##키는":17064,"##키보드":17065,"##굉장히":17066,"##티를":17067,"##트도":17068,"##무게":17069,"##먹었":17070,"##희망":17071,"##치자":17072,"##차로":17073,"##ㄱㅋㅋㅋㅋㅋㅋㅋㅋㅋㅋㅋㅋ":17074,"##현이":17075,"##현대":17076,"##힘든":17077,"##바뀌":17078,"##갑분":17079,"##뭔지":17080,"##산되어":17081,"##살짝":17082,"##ㅏ니":17083,"##ㅅ다":17084,"##반기에":17085,"##롱햐":17086,"##관련":17087,"##ad":17088,"##ase":17089,"##lg":17090,"##line":17091,"##적은":17092,"##ㅂㅂ":17093,"##갈래":17094,"##갈수록":17095,"##개봉":17096,"##ㅛ다":17097,"##양재":17098,"##양시숲":17099,"##참고":17100,"##느낌":17101,"##렸다고":17102,"##규나":17103,"##년이":17104,"##갠찮":17105,"##du":17106,"##ware":17107,"##메이":17108,"##뛰어":17109,"##IT":17110,"##검아":17111,"##검은":17112,"##녀가":17113,"##값을":17114,"##았나":17115,"##았고":17116,"##았으면":17117,"##쟤는":17118,"##쟤가":17119,"##쟤네":17120,"##꼬닥":17121,"##햌더":17122,"##싸피":17123,"##작용":17124,"##램핑":17125,"##SB":17126,"##득이":17127,"##랍니다":17128,"##됐다고":17129,"##씩이나":17130,"##걔는":17131,"##hn":17132,"##핑크":17133,"##샤벳":17134,"##깜짝":17135,"##튀김":17136,"##🔥🔥":17137,"##R코드":17138,"##찆쯰":17139,"##숭아":17140,"##🔊🔊":17141,"##ㅋㅋㅋㅋ왜":17142,"##ㅋㅋㅋㅋ일케":17143,"ㅋㅋㅋㅋㅋㅋㅋㅋㅋ아":17144,"아니니":17145,"아니래":17146,"아니어써":17147,"ㅋㅋㅋㅋㅋㅋㅋㅋ웅웅":17148,"댕아사랑해":17149,"댕아댕이도":17150,"ㅠㅠ울":17151,"ㅠㅠ내":17152,"ㅠㅠ나도":17153,"ㅋㅋㅋㅋㅋㅋㅋㅋㅋㅋㅋㅋㅋ나":17154,"생각난":17155,"사람만":17156,"ㅋㅋㅋㅋㅋㅋ웅웅":17157,"ㅋㅋㅋㅋㅋㅋㅋ난":17158,"##이랑께":17159,"있는가":17160,"그런거지":17161,"ㅋㅋㅋㅋㅋㅋㅋㅋㅋㅋ나":17162,"ㅋㅋㅋㅋㅋㅋㅋㅋㅋㅋ댕아":17163,"같은게":17164,"내일까지":17165,"얘기도":17166,"##시간초과":17167,"ㅜㅜㅜㅠ":17168,"ㅜㅜㅜㅜㅜ":17169,"보고서":17170,"##잖아근데":17171,"공부하":17172,"공부하자":17173,"##이었대":17174,"10초":17175,"10억":17176,"고생많":17177,"저나는":17178,"저나하까":17179,"보구파":17180,"같아요":17181,"##오빠한테":17182,"ㅠㅠㅠㅠ댕아":17183,"모르겠다고":17184,"아닌게":17185,"##어야겠다":17186,"남자도":17187,"##이다ㅋㅋㅋㅋ":17188,"이상형":17189,"보내줘":17190,"그랬음":17191,"그랬으면":17192,"물어보면":17193,"물어봐야":17194,"가야겠당":17195,"나와써":17196,"여기도":17197,"##하다보면":17198,"하지도":17199,"행복할":17200,"행복하구":17201,"행복하지":17202,"엄청나게":17203,"괜찮다":17204,"아이유":17205,"아이템":17206,"점심을":17207,"시작했":17208,"시작했는데":17209,"시작했고":17210,"알았으면":17211,"안해줘서":17212,"피곤하면":17213,"피곤하구나":17214,"댕이야♡":17215,"안나서":17216,"찾아보는":17217,"떨어짐":17218,"떨어트":17219,"하루만에":17220,"자꾸야":17221,"120":17222,"다음과":17223,"얼마전에":17224,"잘자구낼":17225,"잘자구사롱해":17226,"##ㅎㅋㅎㅋㅎ":17227,"돌아와서":17228,"11월":17229,"##은경님이":17230,"고민이야":17231,"귀여움":17232,"시험을":17233,"##고생했어":17234,"가타여":17235,"어떤거":17236,"올라간":17237,"거기다가":17238,"코테는":17239,"##해보며":17240,"옹동이도":17241,"누구보다":17242,"##언제까지":17243,"##에에에":17244,"##에에엥":17245,"사랑하구댕이":17246,"사랑하구잘자":17247,"사랑하구잘자구":17248,"##이따봐":17249,"부분등록":17250,"갈게♡":17251,"##후후후":17252,"과제가":17253,"저런식으로":17254,"ㅠㅠㅠㅠㅠㅠ댕이":17255,"##어버렸":17256,"알려주고":17257,"깃헙은":17258,"##ution":17259,"노력하고":17260,"땡이♡":17261,"받았다":17262,"상관이":17263,"상관없이":17264,"##나가고":17265,"사롱해♡":17266,"하기야":17267,"관심도":17268,"구랭구랭":17269,"##친구랑":17270,"예정시간":17271,"아니었음":17272,"거였고":17273,"얼굴을":17274,"다니면":17275,"##하겠지만":17276,"##하겠다는":17277,"ㅠㅠㅠㅠㅠㅠㅠ댕이":17278,"다르긴":17279,"##ㅎㅎㅎㅎㅎ":17280,"카페에":17281,"##ㄱㅋㄱ":17282,"##이긴한데":17283,"도전하며":17284,"선택한":17285,"인생은":17286,"인생에서":17287,"##너무너무너무":17288,"stl":17289,"##엄청난":17290,"상태가":17291,"벌써부터":17292,"스트레스를":17293,"사주구":17294,"들었을":17295,"##그렇지":17296,"아이디어를":17297,"기본적인":17298,"어렵게":17299,"##아빠랑":17300,"미리미리":17301,"이것두":17302,"기다려봐":17303,"댓글에":17304,"##ㄱㅊㄱㅊ":17305,"##로그인":17306,"이랬더니":17307,"신한은행에":17308,"바꾸면":17309,"잠들어서":17310,"ㄷㄷㄷㄷㄷㄷㄷ":17311,"##토리얼":17312,"넘어갈":17313,"안가도":17314,"안가져":17315,"영어로":17316,"##오디가":17317,"20분에":17318,"강남역":17319,"안할래":17320,"전과를":17321,"에바야":17322,"##정신이":17323,"근처에서":17324,"말아요":17325,"##ㅜㅜㅜㅜㅜ":17326,"##맛있겠다":17327,"되나요":17328,"오케오케":17329,"먹어야지":17330,"군대에서":17331,"안대까":17332,"##피곤해":17333,"무서운":17334,"아닠ㅋㅋㅋㅋ":17335,"보고싶어":17336,"##어ㅏ어ㅏ":17337,"전체적으로":17338,"머거야지":17339,"##어떻게든":17340,"가는중야":17341,"뭔소리여":17342,"##어어어어어":17343,"ent":17344,"##ㅁㅁㅁ":17345,"졸리당":17346,"##분위기":17347,"생활비":17348,"간단하게":17349,"##홧팅해":17350,"한두번":17351,"모터와":17352,"세수하구":17353,"와이파이":17354,"##사롱햐":17355,"##은굥이는":17356,"배불러서":17357,"중고딩":17358,"유명한":17359,"마이닝":17360,"상상도":17361,"이어폰":17362,"죄송합니다":17363,"##이것저것":17364,"##2년생":17365,"##reak":17366,"당당하게":17367,"0xFF":17368,"아버지":17369,"재택근무":17370,"##olution":17371,"문화경영학과를":17372,"못생겼":17373,"인증샷":17374,"체계적인":17375,"둘째치고":17376,"앵간하면":17377,"색칠공부":17378,"##하디마":17379,"반도체":17380,"역할을":17381,"어젯밤에":17382,"쓸데없는":17383,"불타오":17384,"boolean":17385,"가볍게":17386,"스프링":17387,"복싱부":17388,"##dmi":17389,"##나쁘지":17390,"싸이코":17391,"재생산되어":17392,"저쩌고":17393,"Masters":17394,"그른가":17395,"헤드헌":17396,"BTSerial":17397,"Comp":17398,"1순위":17399,"2는":17400,"2달":17401,"2분위":17402,"3달":17403,"3억":17404,"3D":17405,"3문제":17406,"42":17407,"5호관":17408,"6번":17409,"600":17410,"800일":17411,"97":17412,"PI":17413,"QR코드":17414,"Wi":17415,"aws":17416,"class":17417,"ds":17418,"fin":17419,"kr":17420,"long":17421,"nhn":17422,"ㅌㅋㅋㅋㅋㅋㅋㅋㅋㅋㅋㅋ":17423,"ㅌㅌㅌ":17424,"ㅠ근데":17425,"ㅠㅜㅠ":17426,"갑니다":17427,"갔자나":17428,"강요":17429,"갖추":17430,"같대":17431,"같군":17432,"같자나":17433,
[...]
